<unk>	0
<s>	0
</s>	0
3	-3.20107
7	-3.68813
a	-3.70511
▁w	-3.76041
▁3	-3.87576
9	-4.16483
▁ya	-4.4697
▁m	-4.48031
i	-4.53727
5	-4.65418
▁el	-4.69166
▁fi	-4.73552
▁7	-4.85122
▁a	-4.89129
▁ma	-4.93272
e	-4.98887
▁l	-5.03468
▁slim	-5.05138
▁9	-5.08813
▁rabi	-5.13861
▁5	-5.15352
na	-5.15904
ou	-5.24473
la	-5.25537
▁t	-5.25759
▁y	-5.27979
ak	-5.46141
▁b	-5.50041
▁la	-5.50467
t	-5.53336
▁ta	-5.57384
ha	-5.63701
▁si	-5.64853
ek	-5.66038
s	-5.68189
k	-5.70097
▁n	-5.74967
▁wa	-5.76322
▁kol	-5.80293
▁ca	-5.84287
al	-5.84372
b	-5.85827
▁	-5.87537
▁i	-5.89825
▁bech	-5.90118
▁bravo	-5.92669
▁il	-5.94616
▁le	-5.96867
▁ken	-5.99679
ch	-6.00009
▁ou	-6.04011
o	-6.07551
▁allah	-6.08212
▁men	-6.08417
▁ye	-6.0941
h	-6.10105
▁e	-6.11007
eb	-6.13156
ed	-6.15778
▁et	-6.16989
ir	-6.18146
et	-6.20089
▁slouma	-6.20158
am	-6.21539
▁na	-6.31892
kom	-6.3194
▁f	-6.33636
d	-6.34221
hom	-6.34926
▁we	-6.35495
2	-6.36409
ala	-6.37856
▁eli	-6.37932
ya	-6.39392
▁cha	-6.39907
▁li	-6.40208
▁jam	-6.43571
▁rabbi	-6.44264
▁ama	-6.45292
lik	-6.46136
▁o	-6.46772
r	-6.46822
l	-6.47771
▁s	-6.48711
ad	-6.49961
ra	-6.50205
▁min	-6.53237
in	-6.53499
m	-6.54668
ma	-6.56044
▁barcha	-6.56488
▁de	-6.571
▁enti	-6.57333
▁ki	-6.60685
▁c	-6.61719
▁sa	-6.62334
er	-6.63049
▁mabrouk	-6.65102
▁ti	-6.65433
▁fil	-6.67279
iya	-6.67636
▁dima	-6.68261
▁en	-6.68406
▁al	-6.69581
▁tounes	-6.71678
▁fih	-6.71846
ba	-6.72028
▁bel	-6.72119
y	-6.73131
▁d	-6.73931
▁tawa	-6.7556
▁mta	-6.7705
ni	-6.77259
▁elli	-6.77268
▁chay	-6.787
ik	-6.79514
▁les	-6.79703
▁riahi	-6.80217
▁j	-6.81581
an	-6.81897
alem	-6.82202
el	-6.83407
it	-6.84093
▁fel	-6.84691
▁mouch	-6.85522
▁ena	-6.8593
n	-6.85987
mel	-6.8813
li	-6.89092
▁club	-6.90085
▁te	-6.90836
▁ba	-6.91836
▁brabi	-6.92659
▁taw	-6.92841
id	-6.95007
▁ana	-6.9521
▁kan	-6.99691
ar	-6.99875
▁mala	-7.00841
▁ra	-7.00874
ech	-7.01213
▁chkoun	-7.01497
▁me	-7.01875
dem	-7.03562
ana	-7.03995
oul	-7.04461
▁ala	-7.04543
▁kif	-7.04718
ab	-7.0486
8	-7.05211
▁wel	-7.05376
▁inti	-7.06181
at	-7.06233
▁ili	-7.06511
ia	-7.07356
ki	-7.08145
▁8	-7.1044
ah	-7.10811
▁bi	-7.10839
ib	-7.11504
▁ha	-7.11669
▁kima	-7.12054
mou	-7.16213
▁yar	-7.16658
▁mel	-7.16678
▁wala	-7.16838
▁nchallah	-7.17722
▁rajel	-7.17749
▁lkol	-7.18973
aja	-7.19426
da	-7.20544
▁k	-7.20877
▁rou	-7.21069
▁lel	-7.21514
w	-7.21963
▁ben	-7.22979
▁ne	-7.23524
▁hal	-7.23638
▁est	-7.24237
▁wlh	-7.24776
▁2	-7.25079
▁inchallah	-7.25143
ata	-7.25818
▁bara	-7.26428
▁hhhh	-7.30292
wa	-7.31658
▁mte	-7.32458
lina	-7.33606
▁je	-7.35515
tou	-7.35649
is	-7.36343
lek	-7.36692
▁man	-7.3676
▁haka	-7.3696
bed	-7.37975
ich	-7.38014
lou	-7.38484
lih	-7.3859
▁howa	-7.3943
f	-7.3974
es	-7.42172
▁bon	-7.42565
▁fik	-7.428
▁alah	-7.43036
▁ech	-7.43309
▁flous	-7.44239
▁hhhhh	-7.44418
▁hhh	-7.44544
▁wallah	-7.44545
em	-7.45215
▁tunis	-7.46366
▁lil	-7.46527
bi	-7.4726
▁mais	-7.47386
▁rak	-7.50174
ti	-7.50198
ali	-7.51983
▁be	-7.52325
▁fama	-7.5258
▁bled	-7.5269
ref	-7.5377
ater	-7.54287
le	-7.54359
▁merci	-7.54377
hhhhhhhhhhhhhhhh	-7.55405
▁4	-7.56291
▁tounis	-7.56401
u	-7.57071
▁un	-7.57991
▁illi	-7.58007
ta	-7.58988
▁fe	-7.59404
▁ch	-7.59489
▁nes	-7.59695
▁haw	-7.59966
bou	-7.60056
en	-7.60698
▁mat	-7.60711
▁mr	-7.6098
▁to	-7.61014
▁mech	-7.63118
z	-7.63458
▁mn	-7.63558
▁h	-7.64123
4	-7.64633
▁rana	-7.64942
▁bil	-7.65309
▁bien	-7.6592
▁fiha	-7.65984
▁pour	-7.66216
▁far	-7.66405
▁pas	-7.67013
▁khir	-7.67458
▁dawla	-7.68683
▁in	-7.69165
bal	-7.69491
▁hedha	-7.70169
tha	-7.70311
▁mo	-7.705
allem	-7.70775
il	-7.71379
▁president	-7.71849
ay	-7.71977
▁walah	-7.72409
▁haja	-7.73689
tek	-7.74688
▁hhhhhh	-7.76757
▁da	-7.77575
tik	-7.78754
▁may	-7.79134
▁mil	-7.79667
▁wenti	-7.79867
▁houwa	-7.80848
é	-7.81192
▁malla	-7.8146
ka	-7.81602
▁bih	-7.81609
▁barra	-7.82074
▁hata	-7.82412
▁ok	-7.83064
▁za	-7.83328
dou	-7.84097
▁es	-7.84256
▁win	-7.84272
▁ali	-7.84558
▁you	-7.84687
mlou	-7.84762
▁vive	-7.85328
▁ja	-7.85406
▁ahna	-7.85751
▁nchalah	-7.85908
eya	-7.86099
lem	-7.86134
▁klem	-7.8647
ne	-7.8668
▁des	-7.86866
▁fa	-7.87774
▁chouf	-7.87825
▁on	-7.88076
1	-7.88234
▁raw	-7.88368
▁rahou	-7.88481
▁ka	-7.88603
▁yo	-7.8895
lech	-7.8897
▁houma	-7.8914
▁tu	-7.89175
▁bonne	-7.89329
▁patron	-7.89454
▁maak	-7.89488
▁tal	-7.90145
atta	-7.90923
▁moch	-7.91962
▁nhar	-7.92176
▁weld	-7.92296
▁lik	-7.92633
mal	-7.95262
▁vous	-7.95326
▁enta	-7.96589
▁1	-7.96774
▁nik	-7.96847
▁ay	-7.98435
adech	-7.98637
▁walla	-7.99016
ef	-7.99187
▁jomhour	-8.00661
▁bach	-8.00919
chi	-8.00978
▁sami	-8.01251
te	-8.01331
▁bik	-8.01514
adi	-8.01801
▁chwaya	-8.01833
om	-8.02596
▁kbir	-8.03698
▁it	-8.04401
dek	-8.0465
▁mara	-8.04942
g	-8.05153
▁met	-8.0523
to	-8.05886
▁rahi	-8.06196
▁em	-8.06859
▁aime	-8.07059
leh	-8.07599
▁hedhi	-8.0769
andou	-8.07853
▁bch	-8.0817
▁ach	-8.08344
▁ro	-8.08662
▁hhhhhhh	-8.08749
ach	-8.09929
▁page	-8.12024
▁ness	-8.12196
asba	-8.1255
▁hiya	-8.12917
▁marzouki	-8.13062
▁hak	-8.13731
▁had	-8.1421
▁rab	-8.14233
tech	-8.1459
re	-8.14628
▁zeda	-8.1479
▁mch	-8.15387
▁bou	-8.16087
ol	-8.16104
im	-8.16141
koum	-8.16309
▁hay	-8.16713
▁r	-8.17082
ine	-8.17319
▁wela	-8.1756
▁tunisie	-8.17696
▁behi	-8.17827
▁tet	-8.18269
▁se	-8.18425
ada	-8.18664
houm	-8.18708
▁feha	-8.18723
▁kifech	-8.18798
▁echa	-8.19105
▁koul	-8.19253
▁yet	-8.19747
▁mou	-8.19775
▁svp	-8.20743
▁elkol	-8.2102
▁z	-8.21158
▁président	-8.21401
▁zid	-8.21656
▁lazem	-8.21776
ouh	-8.21863
▁lé	-8.22385
j	-8.22482
▁hetha	-8.22619
sa	-8.22743
aw	-8.23152
▁taraji	-8.23327
▁akber	-8.23473
▁vraiment	-8.24055
▁brabbi	-8.2442
mil	-8.24796
ri	-8.24905
▁wil	-8.25
ebou	-8.2547
alou	-8.25722
▁koura	-8.25963
mo	-8.26681
▁fl	-8.26721
▁plus	-8.27145
aaa	-8.27332
▁alik	-8.27858
likom	-8.28104
▁boss	-8.28133
▁avec	-8.28165
▁lefri	-8.29014
▁à	-8.29177
▁im	-8.29416
▁hhhhhhhh	-8.29467
▁tounsi	-8.29481
lihom	-8.29617
or	-8.29932
▁as	-8.2998
andi	-8.30481
▁tkoun	-8.30495
ram	-8.3079
▁que	-8.30859
▁africain	-8.31024
▁bellehi	-8.31561
▁donc	-8.31733
▁inta	-8.31818
▁akther	-8.32157
▁no	-8.32568
oulou	-8.32675
▁yé	-8.33244
▁oui	-8.33335
▁kbira	-8.33673
▁1000	-8.33723
▁alf	-8.33823
▁dit	-8.33874
▁so	-8.33903
▁courage	-8.33934
▁lebled	-8.33992
▁belehi	-8.34411
▁saha	-8.34541
andek	-8.34715
as	-8.34954
▁rani	-8.35028
lo	-8.35507
▁jdid	-8.35578
▁am	-8.35689
▁ah	-8.359
▁hadha	-8.36282
▁rjel	-8.37245
oun	-8.37769
▁bla	-8.37794
▁ey	-8.37818
be	-8.37882
lna	-8.38024
▁au	-8.38367
▁fihom	-8.38698
▁klay	-8.38805
alik	-8.39149
▁awel	-8.39348
▁lah	-8.39478
ii	-8.39557
▁sayeb	-8.39719
fa	-8.40452
▁ema	-8.40818
▁10	-8.41637
▁snin	-8.42045
▁inchalah	-8.42301
▁tla	-8.4282
▁rais	-8.43307
▁love	-8.43332
hem	-8.4336
▁g	-8.43466
▁yal	-8.43658
sen	-8.43909
▁hethi	-8.44118
▁nchalla	-8.4456
▁ri	-8.44939
anet	-8.45085
edma	-8.45357
▁raj	-8.45834
ml	-8.45928
▁raja	-8.46326
keya	-8.46342
mi	-8.46599
▁nchlh	-8.46741
▁bravobravo	-8.46746
▁hatha	-8.47074
af	-8.475
kou	-8.47669
▁une	-8.47732
▁ni	-8.48185
ouch	-8.48281
▁big	-8.48874
▁bin	-8.49185
▁lotfi	-8.49188
▁mela	-8.49286
▁mazel	-8.49321
▁biha	-8.50036
leha	-8.50062
▁wled	-8.50555
aaaaaaaaaaaaaaaa	-8.5081
din	-8.50892
and	-8.51131
lk	-8.51401
▁ans	-8.51871
▁kolna	-8.52062
alim	-8.52175
▁fikom	-8.52334
▁lezem	-8.52705
alli	-8.53062
rou	-8.53281
▁chnowa	-8.533
▁koll	-8.53534
▁kalb	-8.53752
on	-8.53857
▁u	-8.53899
ez	-8.54118
▁tab	-8.5437
▁king	-8.54513
▁is	-8.54527
▁ess	-8.5454
▁om	-8.54672
▁oi	-8.55045
▁the	-8.55491
▁nas	-8.555
▁hada	-8.55941
▁re	-8.56124
▁ce	-8.56248
▁ça	-8.5631
ath	-8.5657
▁kont	-8.56682
▁lclub	-8.56765
▁chiboub	-8.56775
▁walahi	-8.56827
▁mata	-8.56975
▁degage	-8.57291
▁tv	-8.57432
ot	-8.57453
▁winti	-8.57655
▁enty	-8.57904
eh	-8.58268
▁maw	-8.58361
▁sur	-8.58848
▁du	-8.58938
od	-8.59187
▁nn	-8.59295
raf	-8.59366
rej	-8.59459
▁hhhhhhhhh	-8.59576
bel	-8.59615
abet	-8.59722
▁hakka	-8.59867
▁ahla	-8.60056
▁ejam	-8.60267
▁mas	-8.60807
sh	-8.60891
▁tji	-8.6091
fou	-8.6103
▁tfouh	-8.61101
▁aya	-8.61374
▁zebi	-8.61477
▁ykoun	-8.61826
▁raby	-8.61847
▁yezi	-8.61965
▁yji	-8.62013
▁akbar	-8.62406
▁nchala	-8.62416
▁forza	-8.63341
▁enchallah	-8.63775
▁ila	-8.63938
▁joueur	-8.64124
▁moncef	-8.65017
me	-8.65052
▁sar	-8.65136
▁chômage	-8.65523
di	-8.65523
rfou	-8.65783
lah	-8.65788
▁tous	-8.66064
▁sanfara	-8.66069
▁famma	-8.6618
iii	-8.66209
elna	-8.66229
liha	-8.66251
▁ywaf	-8.66584
▁omek	-8.66612
▁non	-8.66947
iiiiiiiiiiiiiiii	-8.6746
iss	-8.67656
▁tayara	-8.67856
if	-8.67868
ouya	-8.67893
▁yarhmou	-8.68001
▁khater	-8.68156
▁rap	-8.68561
▁jaw	-8.68871
▁kifek	-8.69024
tna	-8.6915
hi	-8.6917
▁fin	-8.69374
oum	-8.69537
▁match	-8.6971
▁mon	-8.69773
alet	-8.69793
▁kamel	-8.70002
▁joumhour	-8.70279
▁ched	-8.70451
▁hh	-8.70669
bo	-8.71006
▁lo	-8.7115
ouna	-8.71514
fi	-8.71583
▁hia	-8.71819
▁chance	-8.71856
▁top	-8.71879
oud	-8.71888
▁like	-8.71898
▁nayek	-8.72127
andha	-8.72176
▁bl	-8.72385
alam	-8.72392
▁hhhhhhhhhh	-8.72884
▁ai	-8.72949
▁maya	-8.73441
▁mal	-8.73467
dha	-8.73533
▁boutoula	-8.73584
▁kleb	-8.73675
▁zok	-8.73883
▁cpr	-8.74008
p	-8.74066
▁rouhek	-8.74145
▁normal	-8.74384
▁belle	-8.74808
tar	-8.74963
▁zouz	-8.75204
▁chbik	-8.75262
dim	-8.75598
▁and	-8.75679
si	-8.75715
▁toi	-8.75849
▁chey	-8.7637
▁jit	-8.76493
▁labes	-8.76562
▁clip	-8.77174
▁alexis	-8.77466
▁lina	-8.77795
▁marbou	-8.77875
▁lifri	-8.7803
▁bouk	-8.78047
ment	-8.78153
à	-8.78258
▁wahed	-8.78382
ih	-8.78609
▁mé	-8.78711
▁marra	-8.78803
▁miboun	-8.7889
▁mar	-8.7896
▁weli	-8.79139
c	-8.79175
▁thawra	-8.79177
▁ham	-8.79383
bar	-8.79656
▁kn	-8.79715
▁continuation	-8.79717
idek	-8.7983
neha	-8.79852
▁yelzem	-8.79952
rab	-8.79959
▁jib	-8.80073
▁nheb	-8.80207
do	-8.80216
wi	-8.80346
akom	-8.80441
▁rahom	-8.80947
de	-8.81398
che	-8.8173
▁mahouch	-8.81862
ét	-8.81959
awen	-8.81973
▁clubiste	-8.8271
▁bn	-8.82851
▁yemchi	-8.82913
nech	-8.82948
▁titre	-8.82992
▁hatta	-8.83004
▁mak	-8.83057
ss	-8.83091
q	-8.83141
▁bellahi	-8.83449
▁film	-8.83588
▁walh	-8.83677
▁up	-8.83841
▁lyoum	-8.83896
▁hadhi	-8.83934
6	-8.84649
▁twali	-8.84789
▁wella	-8.84887
mek	-8.85183
x	-8.85229
▁par	-8.8548
inek	-8.8554
ouk	-8.85546
▁0	-8.85722
▁amin	-8.86067
ro	-8.86317
▁bro	-8.86398
▁hathi	-8.86624
▁chy	-8.86803
▁wrabi	-8.86841
▁grand	-8.87236
▁baba	-8.8768
▁djabou	-8.87937
▁hedi	-8.88015
▁twa	-8.88157
▁chi	-8.88346
▁denya	-8.88416
▁theb	-8.88489
▁yeser	-8.88508
▁youm	-8.88982
▁houa	-8.89046
▁an	-8.89068
▁wallahi	-8.89097
▁hadi	-8.89114
▁contre	-8.89248
▁ina	-8.89377
▁wen	-8.89674
sou	-8.89728
▁entouma	-8.89874
▁mich	-8.90214
▁é	-8.90258
ess	-8.90328
▁100	-8.90377
▁aka	-8.90615
rib	-8.90907
▁blad	-8.91162
th	-8.91776
▁good	-8.92208
▁tahki	-8.92277
▁enchalah	-8.92419
▁he	-8.92717
▁bina	-8.92786
▁adore	-8.92833
▁tofla	-8.9295
▁qui	-8.93102
▁fina	-8.93349
▁ab	-8.93405
ja	-8.93569
▁kén	-8.93604
aaaa	-8.93707
▁hmd	-8.93749
▁hhhhhhhhhhh	-8.93821
▁comme	-8.93897
met	-8.94287
▁notr	-8.94467
▁tout	-8.94484
rf	-8.94771
▁rajil	-8.94792
dar	-8.95225
▁ria	-8.95491
▁yesser	-8.95615
▁sidi	-8.95876
alm	-8.96
▁yna	-8.96054
amlou	-8.96177
▁kil	-8.96354
▁jem	-8.96685
▁bsara	-8.97037
ye	-8.97199
▁ray	-8.97327
▁aman	-8.97516
hm	-8.97534
▁20	-8.97894
ani	-8.97913
▁dar	-8.98218
▁nous	-8.98652
▁vrai	-8.9869
▁sid	-8.98893
▁fech	-8.99133
▁dam	-8.99243
▁kifeh	-8.99252
dh	-8.99437
▁mnin	-8.99723
▁nahdha	-9.00051
se	-9.00102
▁v	-9.00374
eep	-9.00482
▁lifriki	-9.00644
▁va	-9.00951
liya	-9.00985
▁eb	-9.01078
▁kh	-9.01202
amel	-9.01206
▁kar	-9.01443
▁sou	-9.01474
▁dislike	-9.01606
ll	-9.01688
▁tari	-9.02178
▁6	-9.02183
▁bravoo	-9.02193
▁sanfour	-9.02317
nou	-9.02341
▁dr	-9.02497
az	-9.02519
éb	-9.02596
▁fou	-9.0277
▁mt	-9.02846
hech	-9.03057
maltou	-9.033
▁equipe	-9.03376
▁law	-9.03446
▁raho	-9.03557
▁kolha	-9.03634
▁barka	-9.03779
▁jey	-9.03805
▁awled	-9.03981
▁bihom	-9.04069
▁twensa	-9.04181
▁din	-9.04226
▁bassem	-9.0423
rin	-9.04517
▁aw	-9.0471
▁sma	-9.04889
▁khouya	-9.05054
▁hhhhhhhhhhhhhh	-9.05118
▁wl	-9.05233
▁rya	-9.05288
▁sbe	-9.05397
▁honte	-9.05686
▁yechfih	-9.05743
▁tjib	-9.05768
▁ll	-9.05804
▁shih	-9.05881
▁fehri	-9.06465
▁machallah	-9.06507
▁tw	-9.06979
▁lem	-9.07169
▁jdida	-9.07195
za	-9.07237
ék	-9.07271
kem	-9.07348
▁ji	-9.07775
bet	-9.07798
ale	-9.0788
▁zayed	-9.08075
raw	-9.08106
rès	-9.08127
he	-9.0827
malt	-9.08456
▁hhhhhhhhhhhh	-9.08537
▁jma	-9.08588
ahom	-9.08722
▁menha	-9.08947
▁ghir	-9.09039
▁nabara	-9.09341
asa	-9.09581
amla	-9.09703
que	-9.09748
▁touness	-9.09768
hh	-9.09832
▁video	-9.10011
▁wé	-9.10019
▁thi	-9.10283
▁marzou	-9.10563
▁ennes	-9.10729
▁ras	-9.10899
▁bravooo	-9.11024
▁heka	-9.11102
bad	-9.11254
▁belahi	-9.11311
kh	-9.11392
aya	-9.11608
▁weldi	-9.11861
ass	-9.11978
▁quoi	-9.12053
▁ga	-9.12344
▁yezzi	-9.12357
▁jay	-9.124
▁attaquant	-9.12438
▁hana	-9.12473
▁inchalla	-9.12509
▁dégage	-9.12788
lam	-9.12903
▁mahou	-9.13005
▁amine	-9.13241
kiw	-9.13256
▁wasel	-9.13326
tih	-9.13388
▁tt	-9.13463
gh	-9.14066
ly	-9.14346
▁signaler	-9.14442
▁louled	-9.14586
▁akid	-9.14634
▁lou	-9.14809
▁toul	-9.14824
sara	-9.15063
▁hani	-9.15365
▁wahra	-9.16045
bek	-9.16086
sin	-9.16113
▁bjeh	-9.16192
▁mella	-9.16265
raj	-9.16271
▁elle	-9.16341
▁parc	-9.16376
anoun	-9.16536
▁kel	-9.16924
▁trop	-9.16958
▁rye	-9.16983
▁iji	-9.17017
▁koun	-9.17056
▁respect	-9.171
dik	-9.1714
▁sloma	-9.17187
let	-9.17325
lha	-9.1736
▁mahlek	-9.17536
▁chbih	-9.17804
▁wehed	-9.17878
oooooooooooooooo	-9.17964
oo	-9.17997
▁tchouf	-9.18108
▁beha	-9.18341
▁sahbi	-9.18384
fer	-9.18489
▁touns	-9.18617
▁cab	-9.18654
▁kamcha	-9.18676
▁leclub	-9.18702
▁menhom	-9.18725
▁jme	-9.18737
▁go	-9.18746
▁beb	-9.19047
▁net	-9.19393
ob	-9.19507
▁surtout	-9.1961
▁tarja	-9.19739
mlo	-9.19759
▁tnajem	-9.19863
▁flouss	-9.1994
▁wo	-9.20586
▁juste	-9.20663
kk	-9.20919
▁heya	-9.20973
▁just	-9.21052
ho	-9.21275
▁omha	-9.21346
seb	-9.21375
▁jamais	-9.21382
▁bkhir	-9.21598
▁nafs	-9.21623
olek	-9.21667
iiii	-9.21829
nek	-9.21842
▁fait	-9.21941
alina	-9.22165
▁my	-9.22329
▁alih	-9.22374
▁bich	-9.22532
lim	-9.22633
tak	-9.23136
▁joueret	-9.23182
olt	-9.23295
▁klam	-9.2331
os	-9.23341
▁wakil	-9.23345
▁bahi	-9.23449
▁jet	-9.23493
▁temchi	-9.23514
▁char	-9.23563
▁lol	-9.23573
ke	-9.23589
▁welli	-9.23984
▁zeyed	-9.24051
▁vu	-9.24433
té	-9.24653
arej	-9.24833
▁politique	-9.24918
▁inchala	-9.24965
▁chnia	-9.25088
▁rwe	-9.25155
▁wma	-9.25182
▁chbi	-9.25194
▁chkon	-9.25277
hou	-9.25278
▁kal	-9.25423
▁jeb	-9.25849
nt	-9.25891
▁chniya	-9.26012
rit	-9.26019
dmou	-9.26076
▁hor	-9.26143
tk	-9.26275
▁tra	-9.26453
▁amma	-9.26482
tina	-9.26532
▁menek	-9.26558
awed	-9.26602
▁hel	-9.26623
lé	-9.26721
▁ton	-9.26742
▁wahdek	-9.26888
rr	-9.2702
▁kir	-9.27076
ssa	-9.27091
▁tit	-9.27141
ajet	-9.27239
▁lm	-9.27392
▁chab	-9.27505
▁lih	-9.27645
▁ml	-9.27737
él	-9.27773
anna	-9.27792
elhom	-9.27864
▁zabour	-9.27942
▁kelma	-9.27982
▁mahich	-9.27994
▁mezel	-9.28218
▁anta	-9.28494
ilna	-9.28582
sar	-9.28674
▁chnouwa	-9.28757
▁saybou	-9.28762
▁said	-9.29086
assa	-9.29302
▁salem	-9.29316
wel	-9.29645
▁dandouk	-9.29654
▁hahaha	-9.29664
acha	-9.29699
▁béch	-9.2971
▁bravoooo	-9.29814
▁all	-9.29894
▁eni	-9.29992
awi	-9.30263
▁manich	-9.30556
▁behya	-9.30569
▁yekhi	-9.30754
▁mosta	-9.30831
▁ija	-9.30867
▁mla	-9.30953
chou	-9.31018
▁ib	-9.31089
rif	-9.31219
▁hya	-9.31244
▁joueurs	-9.31266
ouha	-9.31322
▁walit	-9.31499
▁zina	-9.31594
▁bras	-9.31607
▁yetraba	-9.31627
▁ahsen	-9.3169
▁rakom	-9.31697
ina	-9.31839
lhom	-9.31863
▁for	-9.3194
▁hab	-9.32238
eur	-9.32247
▁ke	-9.32319
▁hand	-9.3244
▁alina	-9.32454
▁mba	-9.32466
all	-9.32572
▁saber	-9.32968
ce	-9.33053
▁beji	-9.33418
andhom	-9.33631
▁aidek	-9.33701
▁sna	-9.34074
ga	-9.34172
▁p	-9.34203
▁jemla	-9.34407
▁hhhhhhhhhhhhh	-9.34412
▁rod	-9.34571
▁yara	-9.34656
▁zin	-9.34814
▁mra	-9.34927
▁che	-9.35064
ando	-9.35072
▁wahda	-9.35132
ayla	-9.35263
▁winou	-9.35558
▁khali	-9.35598
▁wenta	-9.35744
▁max	-9.35811
▁tes	-9.35854
▁benzarti	-9.35865
▁hom	-9.35906
▁ikoun	-9.36297
ooo	-9.36489
▁dayma	-9.36605
▁yheb	-9.36766
thom	-9.36875
▁fy	-9.37074
ko	-9.3711
mik	-9.37187
▁erjel	-9.37259
▁pr	-9.37364
▁mohamed	-9.37681
▁waldik	-9.37717
▁kouki	-9.37816
mar	-9.37845
▁sare	-9.37875
min	-9.37914
▁stade	-9.37947
▁tres	-9.38142
▁yi	-9.38381
arbi	-9.38518
men	-9.38548
▁viva	-9.38572
▁nidhal	-9.3873
afa	-9.38873
ena	-9.38896
▁alla	-9.39029
olo	-9.39087
▁raji	-9.39545
alo	-9.39604
▁thama	-9.39706
▁css	-9.40067
tikom	-9.40254
▁nchouf	-9.40307
tch	-9.40352
▁wrak	-9.40437
awel	-9.40475
▁mechi	-9.40556
▁mout	-9.40596
keyet	-9.40627
▁wini	-9.40629
▁libya	-9.40632
dhou	-9.40847
▁kafon	-9.40883
▁errajel	-9.40888
teh	-9.40893
▁foot	-9.40917
rek	-9.40933
iyet	-9.41002
▁ommek	-9.41105
elha	-9.41408
▁nta	-9.41423
adem	-9.41507
▁nesma	-9.41513
kaya	-9.41568
▁bal	-9.41768
è	-9.41931
▁wissem	-9.41964
▁alors	-9.41994
▁nos	-9.42013
▁machrou	-9.42036
▁ghali	-9.42242
alb	-9.42299
tt	-9.42343
▁wild	-9.42799
▁idha	-9.4281
ahba	-9.42833
▁baya	-9.42858
▁suis	-9.42919
▁ser	-9.42982
tin	-9.43068
▁from	-9.43079
▁mafamech	-9.43089
▁chokran	-9.43104
▁gati	-9.43139
odem	-9.43175
lm	-9.43177
yet	-9.43209
▁masla	-9.43227
▁cheb	-9.43251
▁él	-9.43424
▁coupe	-9.43571
ing	-9.43619
▁do	-9.43726
oukouma	-9.43761
▁meli	-9.43762
▁yer	-9.43899
▁nal	-9.44146
▁jenjoon	-9.44167
ser	-9.44169
▁berasmi	-9.44201
▁ryahi	-9.44214
▁nchoufou	-9.44259
▁libled	-9.44262
▁erajel	-9.44263
▁belek	-9.44277
iiiii	-9.44361
▁ilkol	-9.44429
▁ty	-9.44443
▁omk	-9.44571
bouk	-9.44728
▁qu	-9.4476
tel	-9.44826
ara	-9.44863
etna	-9.44915
ok	-9.45081
▁tel	-9.45085
▁wal	-9.4509
oli	-9.45114
▁kais	-9.45207
▁madem	-9.45329
▁machi	-9.45337
▁dans	-9.45477
▁dh	-9.45515
biya	-9.45543
▁tou	-9.45629
▁homa	-9.45646
▁billahi	-9.45691
▁jaime	-9.45788
▁hez	-9.45931
▁meme	-9.45976
▁lwa	-9.46011
▁fare	-9.46093
▁rades	-9.46097
itou	-9.46338
▁bhim	-9.46409
▁point	-9.46434
▁happ	-9.46448
▁chaab	-9.46513
▁hram	-9.46653
▁tha	-9.46699
▁cho	-9.46727
ken	-9.47093
▁sel	-9.47363
albi	-9.47431
▁jabri	-9.47444
▁beaucoup	-9.47574
▁bureau	-9.47586
▁france	-9.47654
thi	-9.47674
▁cette	-9.47701
zeb	-9.47925
▁fo	-9.47985
▁yahki	-9.48018
▁yarja	-9.48069
▁leflous	-9.48193
ini	-9.48228
▁fer	-9.48433
allim	-9.48468
▁yched	-9.48607
▁meskina	-9.48643
v	-9.48716
▁projet	-9.48751
▁yed	-9.48754
▁ar	-9.48818
ane	-9.49121
▁ensen	-9.49206
abi	-9.49301
thou	-9.49385
bha	-9.49408
yeb	-9.49474
▁rwa	-9.49607
alya	-9.4964
allou	-9.49931
▁faut	-9.49943
▁akthar	-9.49957
oulna	-9.50046
▁sout	-9.5012
▁moi	-9.50167
touna	-9.50173
▁karim	-9.50199
▁jami	-9.50218
▁choufou	-9.50302
▁bo	-9.50391
▁mes	-9.50602
▁gal	-9.50691
▁style	-9.50814
▁mchit	-9.5082
ayeb	-9.50982
▁barnamej	-9.5111
▁veut	-9.51121
▁msg	-9.51202
▁enfin	-9.51216
▁bra	-9.5134
omri	-9.51475
▁mazal	-9.51543
▁sfax	-9.5156
yy	-9.51701
▁anti	-9.51766
reb	-9.51984
▁menou	-9.52011
▁marbouha	-9.52019
▁enes	-9.52037
iw	-9.52149
▁niveau	-9.52299
▁aussi	-9.52331
▁zanatir	-9.52333
▁hasbouna	-9.52349
▁heda	-9.52371
▁billehi	-9.52442
out	-9.52525
jebni	-9.52571
▁avant	-9.52571
▁lbled	-9.52638
ey	-9.52707
▁rit	-9.52811
▁kad	-9.5311
etha	-9.53148
ire	-9.53184
▁30	-9.53215
lkom	-9.53393
▁job	-9.53458
▁zboubna	-9.53612
▁tefhem	-9.53618
odret	-9.53628
▁twansa	-9.53685
far	-9.53788
▁officiel	-9.53852
mm	-9.54037
▁yes	-9.54073
▁kifou	-9.5412
eth	-9.54129
▁deja	-9.54147
▁kbal	-9.54445
ben	-9.54522
▁sera	-9.54598
lin	-9.54762
▁akahaw	-9.54816
▁toujours	-9.54835
▁message	-9.55011
▁chway	-9.55033
ouni	-9.55259
amem	-9.55315
▁sala	-9.55456
▁tahya	-9.55534
▁of	-9.55633
▁famille	-9.55644
aref	-9.55695
▁boy	-9.55924
▁enchala	-9.56032
▁saison	-9.56033
▁travailler	-9.56033
▁samir	-9.56112
▁nchalh	-9.56221
▁nenta	-9.56247
▁chad	-9.56299
▁wy	-9.56315
dam	-9.56329
▁zawali	-9.56345
sal	-9.56551
iin	-9.56676
▁car	-9.56905
▁rouhou	-9.56998
▁capo	-9.57143
▁blech	-9.57302
▁nice	-9.57311
har	-9.57324
▁hat	-9.57387
ssi	-9.57395
ebo	-9.57462
lak	-9.57609
▁salam	-9.57789
▁sayed	-9.57818
▁hhhhhhhhhhhhhhh	-9.57819
▁homme	-9.58241
▁lezm	-9.58241
fe	-9.5827
▁nour	-9.58308
▁mnayek	-9.58383
▁monsieur	-9.58562
▁wlad	-9.58587
▁barnemej	-9.58605
▁okhra	-9.58608
▁ih	-9.58611
▁hiwar	-9.58712
▁bay	-9.58729
▁omkom	-9.59137
▁nass	-9.593
▁hamdi	-9.59305
▁besh	-9.59395
▁makech	-9.59412
▁amana	-9.59434
▁ataw	-9.59614
▁khedma	-9.59974
▁twalli	-9.60097
sba	-9.60099
ant	-9.60139
omrou	-9.60157
ahna	-9.6031
ans	-9.60325
▁weldik	-9.60402
dm	-9.6083
ifa	-9.61025
ej	-9.61143
▁korsi	-9.6118
▁équipe	-9.61185
▁masa	-9.612
aj	-9.61222
alla	-9.61231
ari	-9.61241
lh	-9.61278
▁yefhem	-9.61327
▁toz	-9.61402
▁yarham	-9.61573
▁esm	-9.61586
▁slm	-9.61589
éd	-9.61684
▁mridh	-9.61686
alih	-9.61764
▁000	-9.61781
▁note	-9.6182
▁ass	-9.61924
▁chnou	-9.61924
ji	-9.62147
▁dha	-9.62235
▁son	-9.62289
▁tor	-9.62301
▁zada	-9.62394
cha	-9.62403
▁inna	-9.62463
▁haz	-9.62509
▁bouzid	-9.62523
▁leklem	-9.62648
▁sam	-9.62697
▁mana	-9.62823
sem	-9.6291
idkom	-9.63063
morha	-9.63179
esh	-9.63339
▁bent	-9.63451
adha	-9.63615
san	-9.63618
alha	-9.6372
▁rien	-9.64102
▁idara	-9.64117
lach	-9.64178
▁maalem	-9.64209
rj	-9.64286
alleb	-9.6434
▁nmout	-9.64349
▁fan	-9.64525
▁icha	-9.64566
omra	-9.64589
▁bledna	-9.64597
ayech	-9.64605
▁chaine	-9.64677
iir	-9.64683
wet	-9.64896
four	-9.64919
slim	-9.65106
▁walet	-9.65153
▁gh	-9.65194
▁anniversaire	-9.6523
▁kolhom	-9.65232
▁retour	-9.65242
▁sebsi	-9.65274
▁deyma	-9.65307
▁chnwa	-9.65617
tni	-9.6562
▁sah	-9.65649
▁bar	-9.65674
▁bnet	-9.65826
we	-9.65853
▁ani	-9.65895
no	-9.66049
▁rabii	-9.66093
▁tnik	-9.6614
▁th	-9.66221
▁are	-9.66498
kayet	-9.66509
eee	-9.66517
▁pub	-9.66566
inik	-9.66784
▁pa	-9.66818
ichou	-9.66892
aleb	-9.66939
ter	-9.67188
awra	-9.67212
▁di	-9.67212
▁saif	-9.67252
▁allh	-9.67432
oha	-9.67441
▁salah	-9.67457
▁lebes	-9.67603
amlin	-9.67638
aaaaa	-9.67749
▁yarhem	-9.67805
▁aala	-9.67814
▁yab	-9.67832
▁vidéo	-9.68027
▁berrasmi	-9.68031
▁er	-9.68105
▁itha	-9.6813
ur	-9.68139
▁ko	-9.68178
▁yjib	-9.68189
▁hamza	-9.68241
▁walid	-9.68346
▁techri	-9.68364
▁yezina	-9.68368
▁zantour	-9.6838
▁ghalia	-9.68395
▁faha	-9.68461
▁sans	-9.68574
ber	-9.68585
▁lin	-9.68755
fo	-9.6882
▁ywali	-9.68886
▁yatla	-9.68999
1000	-9.69152
▁zeby	-9.6917
▁youtube	-9.69251
▁yonsrek	-9.69474
▁khawla	-9.69537
ibou	-9.69549
▁fadina	-9.69568
▁mkach	-9.69609
ation	-9.69644
▁cv	-9.69706
rabi	-9.69739
▁lma	-9.6995
▁etta	-9.69969
▁chabeb	-9.70376
our	-9.70826
▁ts	-9.70832
▁machari	-9.70893
▁ahmed	-9.70987
▁mot	-9.70989
you	-9.70998
▁faire	-9.71027
▁fort	-9.7106
▁famech	-9.71098
▁rjal	-9.71513
▁kemla	-9.71547
ouma	-9.71598
age	-9.71611
ret	-9.71646
▁lim	-9.71673
▁meskin	-9.71839
hour	-9.71871
ouu	-9.71916
▁ymout	-9.7192
rouf	-9.71929
▁rja	-9.72181
▁travail	-9.72193
▁lfri	-9.72208
hhh	-9.72343
iz	-9.7236
▁tbi	-9.72453
▁sidek	-9.72534
ezb	-9.72546
▁chou	-9.72692
▁bledi	-9.72701
▁tawwa	-9.7275
▁fekra	-9.72778
andik	-9.72965
der	-9.72982
wiya	-9.73073
▁bsaraha	-9.73212
▁wra	-9.73434
▁mit	-9.73451
▁sara	-9.73456
ader	-9.73482
neya	-9.73539
alta	-9.73593
▁dz	-9.73606
je	-9.73727
▁yehdi	-9.7375
ayed	-9.73859
▁chapeau	-9.7387
▁mariem	-9.73872
▁minhom	-9.73924
▁efriki	-9.73985
ette	-9.74086
ew	-9.74173
▁mcha	-9.74265
▁martou	-9.74443
▁by	-9.74444
▁flousek	-9.74446
oubi	-9.74457
▁semi	-9.74526
▁ed	-9.74528
▁tzid	-9.74667
▁raiis	-9.74734
allam	-9.7486
ebek	-9.74874
▁wena	-9.75135
▁mezyena	-9.7515
ebouk	-9.75152
tana	-9.7517
▁ci	-9.75242
▁omou	-9.7529
atr	-9.75324
▁plz	-9.75354
▁chmeta	-9.75392
▁sport	-9.75399
▁rachwa	-9.754
▁tah	-9.75529
▁basket	-9.75578
▁zebbi	-9.7566
▁kolkom	-9.75676
▁thez	-9.75787
▁enna	-9.75793
ima	-9.76044
▁brass	-9.76107
▁kaf	-9.76113
lehom	-9.76129
▁nessma	-9.76156
lel	-9.76172
▁bas	-9.76238
▁sob	-9.76378
adh	-9.76612
▁sada	-9.7663
us	-9.76636
kouma	-9.76929
arar	-9.76953
▁mah	-9.76963
▁intouma	-9.77073
dech	-9.77082
ge	-9.77126
louch	-9.77137
kich	-9.77139
▁tbarkallah	-9.77152
▁minha	-9.7718
▁moufida	-9.77358
ff	-9.7755
eha	-9.77795
olou	-9.77868
lowa	-9.77908
▁manel	-9.78207
▁jour	-9.78217
amlet	-9.7829
oins	-9.78414
▁vie	-9.78462
▁entraineur	-9.78495
assba	-9.78517
man	-9.78575
▁mehri	-9.78615
▁zgaw	-9.78634
▁chof	-9.78652
ebbou	-9.7876
wen	-9.78829
▁jé	-9.78876
▁bravooooo	-9.78917
alit	-9.79133
zou	-9.79163
adch	-9.79195
▁tahiya	-9.794
▁x	-9.79519
andkom	-9.79541
alek	-9.79703
▁wadh	-9.79751
▁jebt	-9.79764
▁salim	-9.79846
▁tir	-9.799
▁melli	-9.80017
▁nés	-9.80025
▁dhaher	-9.80029
▁bkol	-9.80041
▁sba	-9.80044
▁montasar	-9.80079
loul	-9.8014
né	-9.80153
ati	-9.8016
▁tunes	-9.80167
▁miss	-9.80171
▁ennahdha	-9.80175
▁ysa	-9.80409
lil	-9.80422
▁rabby	-9.80446
zouza	-9.80481
▁mochkla	-9.80533
▁bark	-9.80563
ebech	-9.80729
▁madam	-9.80798
yn	-9.80807
▁entom	-9.80823
▁haha	-9.8087
▁klemek	-9.80922
▁essa	-9.81058
▁iwaf	-9.81116
▁moin	-9.81136
▁haya	-9.81141
▁ilayh	-9.81167
mél	-9.81384
▁zab	-9.81419
▁ak	-9.81461
▁yzid	-9.81475
amhom	-9.81545
▁nar	-9.81548
▁alh	-9.81597
▁lkolna	-9.81648
'	-9.81684
▁degaaaaaage	-9.81684
▁zaweli	-9.81723
▁lazim	-9.8175
▁mè	-9.81756
▁tahan	-9.81816
▁alech	-9.81985
▁lotf	-9.82131
▁sbab	-9.82302
▁yeziw	-9.82321
▁rbi	-9.82343
him	-9.82353
▁illa	-9.824
omrek	-9.82449
▁asl	-9.82482
▁nahna	-9.82575
hel	-9.82618
▁fara	-9.82748
▁enchalla	-9.82828
▁taba	-9.83031
▁frou	-9.83156
▁waw	-9.83376
▁mkacha	-9.83411
▁chneya	-9.83442
olna	-9.83471
▁incha	-9.83504
▁mafama	-9.83573
▁blasa	-9.83622
▁kaleb	-9.83632
▁yest	-9.83676
▁yt	-9.83719
oub	-9.8379
km	-9.83821
▁ynajem	-9.83843
▁votr	-9.83906
▁jm	-9.83951
▁beli	-9.84112
▁hna	-9.84119
▁trab	-9.8418
▁tsir	-9.84261
saber	-9.84325
▁het	-9.84485
och	-9.84517
▁efri	-9.84599
oh	-9.84711
▁alex	-9.84789
soub	-9.84802
dine	-9.84818
rat	-9.84821
maj	-9.84872
sab	-9.84957
_	-9.84976
▁going	-9.85006
▁maryoul	-9.8507
▁jibelna	-9.85091
▁nabil	-9.85252
▁asma	-9.85332
▁bdit	-9.85377
▁rah	-9.85578
▁tunisien	-9.85588
▁omo	-9.85651
▁selim	-9.85693
▁pro	-9.85713
ate	-9.85757
▁hob	-9.85782
andna	-9.85848
ayet	-9.85874
aliya	-9.85913
▁aid	-9.85992
atir	-9.85999
ten	-9.86289
▁kef	-9.86379
oss	-9.86436
▁mer	-9.86475
▁bouh	-9.86478
▁bikom	-9.86557
▁ghodwa	-9.86691
▁malyoun	-9.8675
▁pivot	-9.86781
▁forsa	-9.86785
▁nafti	-9.86792
▁import	-9.86799
▁cher	-9.86802
asbi	-9.86951
▁wejhek	-9.8696
▁boul	-9.86971
odwa	-9.86982
▁ifri	-9.87008
najem	-9.87068
▁tartour	-9.87082
andouch	-9.87127
rach	-9.87175
bin	-9.87197
▁safi	-9.87228
▁upl	-9.87263
▁wkol	-9.87299
▁yehdik	-9.87365
▁hwa	-9.87426
▁ysir	-9.87451
▁makch	-9.87482
▁likom	-9.87517
▁eh	-9.87623
elkom	-9.8784
▁leblad	-9.87873
jeb	-9.87924
roj	-9.87946
zi	-9.88007
nd	-9.88038
dmo	-9.881
▁ces	-9.88122
▁chtar	-9.88142
um	-9.8824
▁admin	-9.88478
llah	-9.88506
▁hala	-9.88527
▁ntouma	-9.88548
▁ghalta	-9.8858
▁insen	-9.88643
▁fehom	-9.88645
chem	-9.88729
▁rebi	-9.88769
▁jibou	-9.88995
nes	-9.89083
▁sad	-9.89091
▁much	-9.89123
rjou	-9.8919
▁q	-9.89251
adna	-9.89256
aaaaaaa	-9.89308
ami	-9.89329
kkk	-9.89411
▁las	-9.89538
ehom	-9.89555
▁tunisia	-9.89659
▁best	-9.89903
▁batal	-9.89938
uuuuuuuuuuuuuuuu	-9.90032
▁rcd	-9.90049
▁but	-9.90061
▁même	-9.90164
▁bonjour	-9.9018
▁entreneur	-9.90187
▁ryehi	-9.90215
▁soussa	-9.90229
owa	-9.90311
▁yechfik	-9.9038
ayr	-9.90392
▁kemel	-9.90407
▁samara	-9.90572
dhi	-9.90598
▁salouma	-9.90602
▁ahl	-9.90684
▁barch	-9.9073
yen	-9.90749
awnek	-9.9077
▁tched	-9.90872
▁karti	-9.91253
▁tahana	-9.91296
adeh	-9.91408
▁mois	-9.91443
▁rayou	-9.91529
▁omhom	-9.91605
ales	-9.91678
akem	-9.9179
aliw	-9.91798
alf	-9.91855
és	-9.91883
▁virage	-9.91951
▁birthday	-9.91953
tit	-9.9198
▁chnawa	-9.92063
▁terba	-9.92096
▁fawzi	-9.92107
▁wentouma	-9.9215
▁bjah	-9.92161
▁chnya	-9.92231
bk	-9.92242
▁11	-9.92254
▁wahid	-9.92279
▁yaser	-9.92354
adhebhom	-9.92493
▁zou	-9.92497
▁14	-9.92546
▁har	-9.9257
▁yè	-9.92644
▁iheb	-9.9265
▁labess	-9.92794
▁wm	-9.93093
ny	-9.93125
▁ahlou	-9.93132
▁fransa	-9.93139
alia	-9.93268
▁off	-9.93286
▁nek	-9.93303
▁commentaire	-9.93435
▁sama	-9.93458
▁fb	-9.93471
▁nida	-9.93547
▁50	-9.93618
▁hi	-9.93645
▁lkoll	-9.93672
▁tkoul	-9.93732
▁bajbouj	-9.93773
▁gafsa	-9.93781
▁riyahi	-9.93814
▁raiss	-9.93817
▁ghneya	-9.93838
▁khoya	-9.93864
amha	-9.93869
▁play	-9.93907
▁raison	-9.93926
▁masta	-9.93949
▁bachir	-9.94053
awin	-9.94222
▁sere	-9.94266
▁franca	-9.94317
▁nul	-9.94322
▁zah	-9.94446
▁etoile	-9.94451
homch	-9.94569
▁lui	-9.94582
tah	-9.94592
tr	-9.94679
▁nsa	-9.94703
st	-9.94753
sel	-9.94787
sir	-9.94862
▁this	-9.94862
▁elf	-9.94989
▁mele	-9.95031
▁af	-9.9524
jel	-9.95288
tini	-9.95318
▁sghar	-9.95407
▁taya	-9.95627
▁enou	-9.95646
idma	-9.95698
▁yakhi	-9.957
▁teb	-9.95796
▁tsa	-9.95803
▁contrat	-9.95809
▁mazelt	-9.95818
leb	-9.95909
▁aal	-9.95971
▁partie	-9.96041
kol	-9.96047
▁oh	-9.96134
▁emta	-9.96203
▁raje	-9.96206
▁yasser	-9.96229
▁yarahmou	-9.96241
▁ir	-9.96247
▁amena	-9.96284
▁jmal	-9.9636
▁wakt	-9.96366
▁cas	-9.96377
▁mennou	-9.96427
▁fok	-9.96538
▁kon	-9.96816
ze	-9.96833
▁ettounsi	-9.96864
awnou	-9.96904
▁arja	-9.9695
kkkkkkkkkkkkkkkk	-9.9704
▁fhemt	-9.97082
▁lkoul	-9.97088
▁san	-9.97096
▁ljam	-9.97111
ux	-9.9713
▁kenet	-9.97147
▁andek	-9.97368
▁com	-9.97413
▁chanson	-9.97507
▁stp	-9.97517
▁normalement	-9.97523
▁youssef	-9.97526
▁ejjam	-9.97554
▁pense	-9.97569
▁tounsia	-9.97626
▁lawled	-9.97746
▁klab	-9.97881
▁tared	-9.97971
▁êt	-9.98032
▁music	-9.98044
▁anna	-9.98048
▁kora	-9.98107
okouma	-9.98134
▁sbeh	-9.98206
arek	-9.98261
▁or	-9.98333
▁tmout	-9.98462
▁esa	-9.98484
kil	-9.98504
▁choft	-9.98666
nich	-9.98677
nn	-9.98749
▁rouh	-9.99031
▁med	-9.9916
ion	-9.99281
amil	-9.99365
▁mortaz	-9.99369
▁jabou	-9.99395
▁riehi	-9.99477
▁tn	-9.99486
▁machakel	-9.99529
ayel	-9.99583
▁200	-9.99584
▁faza	-9.99609
ouf	-9.99626
▁nsit	-9.99646
tkom	-9.99692
▁trah	-9.99738
▁nab	-9.99857
▁wach	-9.99893
▁nrml	-10.0007
▁winta	-10.0021
▁fad	-10.0022
▁ej	-10.0033
▁kou	-10.0034
afila	-10.0044
ame	-10.0057
▁machalah	-10.0057
▁macha	-10.0062
▁kl	-10.0066
nna	-10.0071
ouuu	-10.0073
▁bac	-10.0079
of	-10.0081
▁ijam	-10.0083
▁mnayka	-10.0087
▁esmou	-10.0092
▁rad	-10.0097
tich	-10.0102
kel	-10.0108
▁mili	-10.0114
▁rajl	-10.0127
▁dhawedi	-10.014
▁montassar	-10.014
▁maroc	-10.0141
▁public	-10.0141
ent	-10.0142
▁jeya	-10.0148
▁wtf	-10.0149
yia	-10.0149
▁manoula	-10.015
▁grave	-10.015
▁mabrok	-10.015
▁fois	-10.0156
▁nhebou	-10.0157
▁aleh	-10.016
▁deux	-10.0161
▁ltawa	-10.0171
▁awal	-10.0174
▁andou	-10.0176
▁media	-10.0184
▁kilma	-10.0189
▁hot	-10.02
▁tatla	-10.0204
▁tar	-10.0208
▁kolou	-10.021
▁wllh	-10.0227
▁test	-10.0238
▁najem	-10.0245
mor	-10.0248
her	-10.025
▁lazm	-10.0254
bouch	-10.0264
ghir	-10.0269
iba	-10.0279
▁lmo	-10.0279
bia	-10.028
▁ybi	-10.0282
▁mawjoud	-10.0285
▁lan	-10.0304
▁bkit	-10.0306
tiw	-10.0307
▁quel	-10.0307
jab	-10.0308
▁ze	-10.0329
ow	-10.0331
▁mli	-10.0334
▁omok	-10.0335
▁tf	-10.0339
▁reb	-10.034
▁bayouta	-10.0342
▁klém	-10.0345
oulha	-10.0356
▁nty	-10.0357
lat	-10.0366
ard	-10.037
afi	-10.0372
loubna	-10.0372
▁mass	-10.0375
▁fehem	-10.0378
▁snine	-10.0378
▁alikom	-10.038
▁lè	-10.0383
allah	-10.0389
aaaaaaaaaa	-10.0392
iyya	-10.0396
alt	-10.0401
det	-10.0408
lef	-10.0414
▁yahdik	-10.0416
▁monta	-10.0417
▁ad	-10.0422
iwar	-10.0426
ekech	-10.0436
▁mahomch	-10.0444
hhhhhhhhhhhhhhh	-10.0449
▁mostawa	-10.0456
abd	-10.0458
▁yod	-10.0459
awla	-10.0464
▁yam	-10.0465
abit	-10.0467
▁id	-10.0475
bouh	-10.0491
▁djabo	-10.0505
atrou	-10.0521
▁jahl	-10.0528
ite	-10.0537
▁docteur	-10.0543
▁sliim	-10.0545
▁lobna	-10.0548
▁khalli	-10.0548
▁derby	-10.0549
▁tanbir	-10.0551
▁chmata	-10.0552
▁tekhdem	-10.0553
▁ekhdem	-10.0561
▁16	-10.0576
▁challah	-10.058
ayef	-10.0584
▁sayb	-10.0595
kon	-10.0597
▁mennek	-10.0599
bech	-10.0604
▁chta	-10.0605
▁tfou	-10.061
▁rabiii	-10.061
mer	-10.0611
yyy	-10.0617
ket	-10.0621
▁hakeka	-10.0624
▁laken	-10.063
arb	-10.0631
▁kifach	-10.0631
▁maye	-10.0644
▁belhi	-10.0651
leya	-10.0652
▁clubistes	-10.0666
▁baad	-10.0674
adich	-10.0677
▁tabda	-10.0704
▁tjibou	-10.0708
▁recrutement	-10.0718
▁eljam	-10.0721
lib	-10.074
▁éli	-10.0748
▁magnifique	-10.0751
▁confiance	-10.0751
aseb	-10.0758
▁bekri	-10.0761
▁nchallh	-10.0763
▁kollou	-10.0775
▁yosr	-10.0776
▁baz	-10.0785
▁jboura	-10.0788
kamel	-10.0791
atar	-10.0792
▁90	-10.0798
▁tousel	-10.0806
▁tama	-10.0809
▁sh	-10.0814
fhem	-10.0814
aaaaaa	-10.0816
rfouch	-10.082
▁rajol	-10.082
▁sayer	-10.0825
▁allahou	-10.0826
▁yahya	-10.0829
ayer	-10.083
amar	-10.0838
▁zinek	-10.0857
▁fuck	-10.0881
tiram	-10.0884
▁yel	-10.0884
▁amal	-10.0885
0000000000000000	-10.0886
aliha	-10.0903
▁monde	-10.0904
uu	-10.0905
▁tfol	-10.0911
▁imed	-10.0915
▁nadi	-10.0916
▁bjr	-10.0941
▁ez	-10.0941
▁kes	-10.0951
ayeltou	-10.0959
▁yelzemna	-10.0962
inchallah	-10.0963
▁corona	-10.0965
▁tri	-10.0967
dith	-10.0968
▁barsha	-10.0968
houma	-10.0969
▁afrique	-10.0974
▁seif	-10.0979
▁kbar	-10.0984
nin	-10.0997
▁echkoun	-10.1002
▁femme	-10.1005
▁fari	-10.1015
éch	-10.104
dher	-10.1043
ag	-10.1064
▁hek	-10.1067
▁tr	-10.1071
set	-10.1079
mis	-10.1079
▁rass	-10.1085
▁sal	-10.1086
▁tga	-10.109
fik	-10.1094
amer	-10.1095
iiiiii	-10.11
▁saadi	-10.1102
▁lay	-10.1104
▁wallh	-10.1109
▁hmdl	-10.1116
▁thib	-10.1118
▁asba	-10.1133
▁behia	-10.1146
▁tod	-10.115
koun	-10.1151
ty	-10.1153
▁abonné	-10.1166
rij	-10.1174
▁choix	-10.1182
▁koora	-10.1185
▁droit	-10.1187
▁wow	-10.1187
▁nahtha	-10.1191
un	-10.1193
▁wjouh	-10.1193
▁enas	-10.1199
▁choufelna	-10.1199
▁manech	-10.12
▁dho	-10.1212
so	-10.1215
▁mahdi	-10.122
▁ik	-10.1231
▁hahahaha	-10.1233
▁po	-10.1238
itha	-10.1241
▁esmha	-10.1246
▁sorm	-10.125
▁mahla	-10.1262
ayba	-10.1265
▁jab	-10.1268
▁15	-10.1273
asra	-10.1277
hab	-10.1279
▁mach	-10.1282
eme	-10.129
▁rasek	-10.1292
arjou	-10.1294
▁ich	-10.1304
▁mami	-10.1307
▁brcha	-10.1308
yer	-10.1309
▁god	-10.1322
▁sont	-10.1327
▁omik	-10.1331
▁watani	-10.1333
▁beya	-10.1344
▁oumour	-10.1364
▁yba	-10.1366
▁clubisti	-10.1371
▁tanba	-10.1384
abel	-10.1386
sse	-10.14
▁hou	-10.14
▁beautiful	-10.1404
▁hât	-10.1404
▁bourjoulia	-10.1405
▁baratli	-10.1408
▁sinon	-10.1409
▁omm	-10.141
▁ghadi	-10.1413
▁mayjich	-10.142
▁fema	-10.1423
rech	-10.143
den	-10.143
▁kanet	-10.1432
▁nhib	-10.1434
▁saf	-10.1437
tal	-10.1438
▁akeka	-10.1441
▁nasma	-10.1448
▁mey	-10.1448
▁your	-10.145
▁andi	-10.1454
rrr	-10.1459
ezkom	-10.1463
▁inik	-10.1464
▁yarhamha	-10.1467
▁traja	-10.1469
fr	-10.1472
rah	-10.1476
ham	-10.1488
▁libia	-10.1493
mha	-10.1499
▁dire	-10.15
▁final	-10.1504
▁jar	-10.1517
▁ho	-10.1534
béd	-10.1534
▁tour	-10.1535
èt	-10.1544
▁solta	-10.1549
▁sore	-10.1558
aher	-10.1562
▁bye	-10.1575
▁flousou	-10.1578
▁fal	-10.1578
▁ms	-10.1584
▁photo	-10.1594
▁wili	-10.1604
▁part	-10.1605
▁kadheb	-10.161
▁wcha	-10.161
▁comment	-10.1629
▁tay	-10.163
▁chaîne	-10.1631
▁inty	-10.1632
▁louhichi	-10.1635
▁betbi	-10.1636
fin	-10.1637
▁ghaleb	-10.164
▁dsl	-10.164
▁somme	-10.165
▁bél	-10.1652
▁yekhdem	-10.1652
ahd	-10.1656
▁wken	-10.1659
▁houkouma	-10.1665
ezek	-10.1665
andk	-10.1669
mech	-10.1677
▁bnj	-10.1679
▁jouer	-10.1688
iti	-10.1691
▁parti	-10.1693
▁dhahra	-10.1695
ooooooooooooooo	-10.1703
▁mchet	-10.1705
▁yit	-10.1707
yt	-10.1708
add	-10.1712
▁wallet	-10.1714
mé	-10.1714
▁lakin	-10.1716
▁gj	-10.1726
▁madame	-10.1734
rb	-10.1743
▁tjr	-10.1747
▁tna	-10.1753
khir	-10.1762
▁kalba	-10.177
olik	-10.1777
▁jen	-10.1778
▁classe	-10.1784
rar	-10.1823
além	-10.1825
▁haj	-10.1835
▁dé	-10.184
▁bayrem	-10.1864
▁émission	-10.1864
▁centre	-10.1865
touha	-10.1866
▁kedheb	-10.1867
▁jmhour	-10.1869
▁traba	-10.187
ul	-10.187
▁ekher	-10.1877
les	-10.1879
▁berjoulia	-10.1879
▁kaml	-10.188
wwwwwwiiiiiiiiii	-10.1882
▁alihom	-10.1893
▁tarajit	-10.1909
▁mahm	-10.1913
▁40	-10.1931
▁nahda	-10.1932
ér	-10.1935
▁wassel	-10.1937
▁saye	-10.1938
▁ynik	-10.1939
malna	-10.1941
▁fechel	-10.1948
▁netmana	-10.1958
arat	-10.1961
▁massa	-10.1972
▁batala	-10.1973
amal	-10.1976
▁bilahi	-10.1991
▁awlad	-10.1994
▁passe	-10.1997
▁fam	-10.1999
▁mtaa	-10.2
afech	-10.2011
▁bilel	-10.2017
▁mate	-10.2019
ci	-10.202
bil	-10.2021
touch	-10.2023
▁mén	-10.2024
▁yechri	-10.2025
▁wtaw	-10.2038
▁wejh	-10.205
▁minou	-10.205
▁pres	-10.2063
▁bes	-10.2068
▁znatir	-10.2075
▁lefriki	-10.2083
▁elma	-10.209
▁fri	-10.2091
bik	-10.2093
▁galb	-10.2095
▁yousr	-10.2098
yr	-10.2101
▁2020	-10.2102
▁mashallah	-10.2103
▁encore	-10.2104
▁iwali	-10.2104
allik	-10.2112
▁melyarat	-10.2115
▁don	-10.2118
▁bilehi	-10.2121
▁iched	-10.2122
▁ndhif	-10.2124
oneya	-10.2125
ij	-10.2135
amra	-10.2135
▁hadhaka	-10.2136
▁hedheka	-10.2137
▁lehi	-10.2142
▁commentaires	-10.2147
▁erya	-10.2149
ett	-10.2167
ry	-10.217
▁bahya	-10.219
▁sab	-10.2194
yin	-10.2209
ake	-10.2215
▁ly	-10.2221
kin	-10.2244
▁pfff	-10.2249
▁hajet	-10.2251
iiin	-10.2261
▁clubistia	-10.2263
▁yoster	-10.2265
rine	-10.2277
▁taswira	-10.2282
▁dis	-10.2293
▁12	-10.2299
▁dinar	-10.23
▁25	-10.2305
▁frère	-10.2307
oi	-10.2308
fel	-10.2314
rfo	-10.2325
▁kelb	-10.2326
▁wzid	-10.233
bes	-10.2333
jar	-10.2342
fet	-10.2345
▁wallit	-10.2345
▁affaire	-10.2346
▁cute	-10.2346
▁super	-10.2346
▁ber	-10.2347
▁gardien	-10.2347
▁meriem	-10.2347
▁netsawer	-10.2349
▁chef	-10.235
▁ahawk	-10.2353
▁bourguiba	-10.2355
▁fachel	-10.2359
▁blastou	-10.236
▁lahkeya	-10.236
▁maher	-10.2362
▁nestana	-10.2372
▁clubistiya	-10.2378
▁fahem	-10.2384
▁mina	-10.2387
anin	-10.2391
elet	-10.2394
▁lidara	-10.2396
mej	-10.2397
▁bass	-10.2398
▁libiya	-10.2413
▁bera	-10.2415
▁lougha	-10.2424
aych	-10.2429
anat	-10.243
▁wta	-10.2432
▁riya	-10.2448
koul	-10.2458
▁tarachi	-10.2463
▁moez	-10.2465
vez	-10.2465
▁wrabbi	-10.2469
kim	-10.2469
▁direct	-10.247
▁besm	-10.2472
▁18	-10.2477
▁bda	-10.2486
▁testa	-10.2489
va	-10.2491
iye	-10.2494
almou	-10.2496
▁ged	-10.2513
enchallah	-10.253
▁ltounes	-10.2531
lawej	-10.2533
neh	-10.2533
adet	-10.2549
▁ell	-10.2549
ique	-10.2553
▁co	-10.2565
▁algérie	-10.2587
▁presedent	-10.2596
▁2019	-10.2596
▁nchllh	-10.2599
touh	-10.2603
▁ethawra	-10.2604
▁lekleb	-10.2604
▁zied	-10.2608
▁kertha	-10.2613
▁rohek	-10.2613
amej	-10.2618
▁samba	-10.2622
▁mziya	-10.2624
aaaaaaaa	-10.2627
bit	-10.2634
▁fr	-10.2642
▁laabed	-10.2647
▁tahia	-10.2648
▁chid	-10.265
riba	-10.2658
▁ltaw	-10.2663
loub	-10.2666
▁tas	-10.2666
▁dinya	-10.267
▁kalou	-10.2687
▁annee	-10.2696
kech	-10.2703
▁mfach	-10.2707
ezeb	-10.2708
▁blh	-10.2713
▁ow	-10.2722
lfa	-10.273
▁at	-10.2732
▁chokri	-10.2745
irou	-10.275
▁rasoul	-10.2756
▁baldi	-10.2762
▁wehd	-10.2768
▁menkom	-10.277
ethom	-10.2771
▁zed	-10.2772
▁hit	-10.278
malet	-10.2783
itek	-10.2784
▁tasma	-10.2784
▁con	-10.2787
▁lam	-10.2796
▁mnaykin	-10.2803
▁tones	-10.2804
nchallah	-10.2804
ade	-10.2805
▁jeune	-10.2818
uf	-10.2822
▁khra	-10.2822
atrek	-10.2825
▁yarabi	-10.2826
▁bladna	-10.2827
laha	-10.284
tihom	-10.2841
0	-10.2841
▁mahboul	-10.2849
▁ont	-10.285
▁dommage	-10.2853
▁samahni	-10.2854
▁tgoul	-10.2856
▁ahsan	-10.2857
▁merde	-10.2859
▁majles	-10.2862
lè	-10.2862
▁hedhy	-10.2865
▁besoin	-10.2868
▁jahel	-10.2869
▁lekbir	-10.2871
ck	-10.2871
▁kelmet	-10.2875
omej	-10.2884
wer	-10.2887
▁nit	-10.2888
malha	-10.2888
▁erye	-10.2888
melha	-10.2895
▁akbir	-10.2896
▁emchi	-10.2897
▁ys	-10.2899
▁nch	-10.2901
▁yare	-10.2903
llllllllllllllll	-10.2904
▁libi	-10.2905
hy	-10.2916
dt	-10.2945
ém	-10.2949
mouch	-10.2949
▁new	-10.2951
ida	-10.2969
▁ils	-10.2975
imet	-10.2987
kha	-10.2988
▁bayna	-10.2992
aychin	-10.3006
fat	-10.3015
hna	-10.302
▁sné	-10.3022
rfouh	-10.303
▁alef	-10.3031
▁kteb	-10.3036
inou	-10.3052
jou	-10.3084
▁hahahahaha	-10.3087
ayen	-10.3088
▁nedi	-10.3096
iiir	-10.3097
▁daw	-10.3098
▁fsed	-10.3099
jam	-10.3109
gui	-10.3109
zz	-10.311
▁gauche	-10.3115
▁lezim	-10.3116
fih	-10.3117
▁bbj	-10.3117
▁janoub	-10.3118
▁slemtek	-10.3118
▁liblad	-10.3119
adhna	-10.3121
▁kahaw	-10.3121
▁kèn	-10.3122
hhhh	-10.3123
▁nhab	-10.3126
rajel	-10.3126
▁afkar	-10.3135
mmm	-10.3139
▁look	-10.3139
▁houni	-10.3144
▁jaded	-10.315
▁blida	-10.3152
▁tsawer	-10.3155
outh	-10.3157
▁ghalya	-10.3157
▁janna	-10.3157
▁alg	-10.3159
▁sem	-10.3159
▁rajja	-10.3161
▁rouhik	-10.3161
lya	-10.3167
▁nti	-10.3173
▁medeb	-10.3176
ete	-10.3176
▁bléd	-10.3179
atek	-10.3179
▁nifa	-10.318
mn	-10.3191
▁bravoooooo	-10.3204
▁nerb	-10.3204
▁baraka	-10.3206
ssoud	-10.3206
▁chma	-10.3214
▁behy	-10.3221
▁ger	-10.3226
▁belha	-10.323
▁heki	-10.3236
▁ps	-10.3238
ichi	-10.3245
▁yarhmo	-10.3245
▁winek	-10.3254
mt	-10.3257
ajbou	-10.3269
mmmmmmmmmmmmmmmm	-10.3273
rt	-10.3281
▁baby	-10.3285
▁num	-10.3286
ziz	-10.329
het	-10.3292
▁sghir	-10.3299
nik	-10.3303
aaaaaaaaaaaa	-10.3309
net	-10.3309
▁day	-10.3323
▁sil	-10.3329
▁kifkom	-10.3329
▁galbi	-10.333
▁miled	-10.3331
▁viv	-10.3333
▁bah	-10.3339
bdew	-10.3342
▁ism	-10.3361
▁soum	-10.3371
▁tala	-10.3381
albek	-10.3382
▁algeria	-10.3385
▁bcp	-10.3386
▁nemchi	-10.3387
▁malgré	-10.3387
▁étoile	-10.3389
▁nawfel	-10.339
▁elmou	-10.3412
▁yarab	-10.3412
▁mwabna	-10.3414
▁ghoul	-10.3419
tan	-10.3427
▁aham	-10.3438
by	-10.3439
amaliya	-10.3442
yé	-10.3453
▁lmra	-10.3455
▁kamil	-10.3457
▁benesb	-10.3458
▁balek	-10.3472
▁krima	-10.3476
ebha	-10.3482
llll	-10.349
kit	-10.3492
leybi	-10.3493
▁if	-10.3509
oulo	-10.3517
▁yahdi	-10.3521
▁wadha	-10.3528
▁cht	-10.3528
▁sale	-10.3534
▁ely	-10.3538
▁laka	-10.354
▁with	-10.3552
▁nhebek	-10.3553
uh	-10.3554
▁coup	-10.3558
▁sow	-10.3559
lli	-10.3564
▁migalo	-10.3569
▁abir	-10.3569
rik	-10.3572
▁taamel	-10.3577
▁vue	-10.3578
▁lflous	-10.3603
▁most	-10.3606
atrous	-10.3614
alami	-10.3619
▁sawt	-10.362
▁lool	-10.3625
heb	-10.3626
adhkom	-10.3628
▁fisa	-10.363
▁parole	-10.3653
belna	-10.3655
▁allaho	-10.3659
▁peuple	-10.3663
▁trés	-10.3664
▁amazing	-10.3665
▁jendouba	-10.3665
▁veux	-10.3665
adhom	-10.3665
▁loool	-10.3666
▁kona	-10.3667
▁alger	-10.3668
▁1920	-10.3671
▁takila	-10.3671
▁tetfarej	-10.3673
▁saba	-10.3673
▁yousel	-10.3681
afou	-10.3685
▁millions	-10.3696
est	-10.3698
▁arjel	-10.3699
▁bab	-10.3701
▁tant	-10.3702
▁mordha	-10.3704
▁timchi	-10.3706
▁ahlem	-10.3707
abes	-10.3707
▁bravooooooo	-10.3709
▁llah	-10.3712
ahwa	-10.3715
▁yabda	-10.3719
tfarjou	-10.3721
éya	-10.3721
▁farkh	-10.3725
alihom	-10.3726
ili	-10.3728
▁bidha	-10.3738
▁minek	-10.3742
aaaaaaaaaaaaaa	-10.3746
ve	-10.3747
▁bén	-10.3749
ene	-10.3754
▁derbi	-10.3755
btek	-10.3756
▁lihom	-10.3761
▁iss	-10.3764
▁tma	-10.3765
ut	-10.3765
▁echaab	-10.3765
èl	-10.3769
ssar	-10.3773
▁yechfi	-10.3777
▁yarj	-10.3778
▁etc	-10.3795
▁idik	-10.3805
▁vs	-10.381
lia	-10.3819
iiiiiiiii	-10.3821
▁yeh	-10.3826
▁loula	-10.3833
▁meh	-10.3842
ell	-10.3844
ssou	-10.3859
▁traj	-10.386
▁oum	-10.3862
zem	-10.3864
▁make	-10.3865
▁toute	-10.3866
▁nikom	-10.3866
▁amn	-10.3867
▁fach	-10.3877
▁real	-10.3881
nchalah	-10.3883
▁ene	-10.3885
emlou	-10.3896
én	-10.3903
dém	-10.3906
▁liflous	-10.391
▁has	-10.3914
▁klemou	-10.3923
oya	-10.393
niya	-10.3931
▁tseb	-10.3931
▁teri	-10.3939
▁habit	-10.3943
dima	-10.3944
▁terrain	-10.3949
▁gandoura	-10.3949
▁arbitre	-10.3951
▁insan	-10.3952
▁fdha	-10.3954
▁ida	-10.396
▁zwawla	-10.3961
▁hassen	-10.3962
iyin	-10.3963
▁rasmi	-10.3963
▁faw	-10.3963
▁chba	-10.3965
▁aalik	-10.3968
ca	-10.397
▁ifriki	-10.3974
▁waktech	-10.3977
asma	-10.3978
▁saker	-10.398
▁wentom	-10.3985
▁yesta	-10.3986
▁badel	-10.3988
▁hethom	-10.3992
eux	-10.3994
omro	-10.3997
▁islem	-10.4
▁nh	-10.4006
▁botola	-10.4008
▁blassa	-10.401
kef	-10.4012
rajil	-10.4014
▁tunisiens	-10.4014
▁beau	-10.4014
▁how	-10.4019
▁achkoun	-10.4023
▁intom	-10.4027
▁weled	-10.4027
▁yda	-10.403
▁chwya	-10.4032
▁najeh	-10.4032
▁nabbara	-10.4033
▁siyasa	-10.4034
▁kedhb	-10.4041
▁vid	-10.4044
▁naf	-10.4044
▁nou	-10.4045
▁kane	-10.4049
▁jou	-10.4055
▁lmara	-10.406
▁card	-10.4062
▁etounsi	-10.4062
mch	-10.4064
abou	-10.4066
▁vas	-10.4067
ssen	-10.4068
▁belleh	-10.4073
lla	-10.4073
ays	-10.4075
amlo	-10.4076
tho	-10.4093
▁fdhaya	-10.4096
▁akh	-10.4099
▁aam	-10.4107
▁sana	-10.4117
rs	-10.4118
▁jom	-10.4118
▁telha	-10.4125
naha	-10.4133
▁meilleur	-10.4135
▁mahleha	-10.4139
▁degag	-10.414
▁elwa	-10.414
rina	-10.4145
▁nike	-10.4147
uch	-10.4148
▁sari	-10.4149
▁jamel	-10.4152
▁maset	-10.416
▁era	-10.4166
▁chya	-10.4172
helek	-10.4174
▁one	-10.4174
asilou	-10.4175
▁sl	-10.4176
▁sta	-10.419
teha	-10.4197
zir	-10.4198
▁maah	-10.4206
nya	-10.4212
quoi	-10.4213
yed	-10.4215
▁bledou	-10.4218
klem	-10.4219
▁biya	-10.4223
abs	-10.4233
▁khaoula	-10.4244
▁bhayem	-10.4244
▁peu	-10.4244
▁bourjouliya	-10.4246
▁jsk	-10.4247
▁mourad	-10.4251
▁luck	-10.4251
▁yfarej	-10.4252
▁hedhom	-10.426
▁jaziri	-10.426
▁hamdellah	-10.4262
▁kraheb	-10.4265
▁denia	-10.4267
allém	-10.4267
▁chhar	-10.4267
oura	-10.4268
▁darou	-10.4271
▁fake	-10.4272
▁that	-10.4273
olha	-10.4274
▁blhy	-10.4274
▁dieu	-10.4276
▁winhom	-10.428
▁siyesa	-10.4288
▁ifa	-10.429
▁zouhai	-10.4305
taw	-10.4313
▁fm	-10.4314
▁mafia	-10.4316
▁leken	-10.4318
adda	-10.4319
alle	-10.4323
▁linti	-10.4331
bch	-10.4336
▁tfih	-10.434
▁ré	-10.4341
▁fiih	-10.4341
khdem	-10.4343
asbou	-10.4344
▁omi	-10.4346
▁chabab	-10.4349
▁papa	-10.4352
eeeee	-10.4353
▁sloum	-10.4355
▁dhed	-10.4359
zel	-10.4359
▁isa	-10.4364
▁kolo	-10.4367
▁sidkom	-10.4374
▁mort	-10.4376
rouda	-10.4383
▁aliha	-10.4385
▁mouche	-10.4387
aber	-10.4388
▁bé	-10.4391
ilhom	-10.4395
▁nsi	-10.4398
▁lha	-10.4405
▁bari	-10.4406
ebouch	-10.4407
▁gu	-10.4409
ooooooooooo	-10.4413
▁nhb	-10.4414
eyet	-10.4415
aded	-10.4427
tlou	-10.4441
▁ada	-10.4443
ub	-10.4448
▁bj	-10.4451
▁kha	-10.4454
▁lom	-10.4459
▁rasou	-10.446
ych	-10.4468
▁njibou	-10.4477
aoui	-10.4477
jal	-10.4481
aaaaaaaaaaaaa	-10.4491
▁not	-10.4494
▁dou	-10.4498
▁nans	-10.4498
▁yfar	-10.4501
kch	-10.4503
▁milliard	-10.4518
zah	-10.4519
laybi	-10.452
▁willi	-10.4521
▁ten	-10.4531
▁walhi	-10.4531
î	-10.4541
▁attention	-10.4546
▁please	-10.4546
▁tarf	-10.4548
▁télé	-10.4548
▁edenya	-10.455
▁fazet	-10.455
▁yn	-10.455
▁castro	-10.4553
▁will	-10.4556
▁enahdha	-10.4558
▁yà	-10.4559
▁ykawer	-10.4559
▁chahid	-10.456
▁berjouliya	-10.4561
▁brou	-10.4562
▁place	-10.4565
▁well	-10.4565
ablou	-10.4572
▁jad	-10.4577
▁wenty	-10.4578
itt	-10.4581
▁medem	-10.4582
▁jeunes	-10.4586
▁sayib	-10.4588
awdhou	-10.4594
▁chose	-10.4598
yeti	-10.4601
awdou	-10.4603
jj	-10.4611
▁mche	-10.4615
wech	-10.4615
▁tchoufou	-10.4618
wah	-10.462
▁zeb	-10.4622
▁ykhalik	-10.4625
▁br	-10.4625
▁atta	-10.4643
▁youfa	-10.4651
▁dalil	-10.4651
▁tebda	-10.4652
▁zibi	-10.4655
▁daima	-10.4659
▁antom	-10.4666
abina	-10.4666
▁tasir	-10.4674
▁rie	-10.4677
rouj	-10.4678
▁wecha	-10.4681
▁battal	-10.4681
▁khatr	-10.4691
aychou	-10.4698
hir	-10.47
▁chai	-10.4707
▁hey	-10.4707
▁mama	-10.4708
▁sraft	-10.4709
▁watan	-10.4709
▁blhi	-10.4715
ffffffffffffffff	-10.4717
adim	-10.472
olhom	-10.4728
▁hé	-10.4731
▁taf	-10.4743
▁hta	-10.4744
▁tounsiya	-10.4747
▁ennas	-10.4748
arab	-10.4756
▁kifk	-10.4771
▁ble	-10.4772
ona	-10.4773
▁lba	-10.4776
▁groupe	-10.4789
oush	-10.4791
▁sir	-10.4791
▁abda	-10.4793
▁femm	-10.4796
arya	-10.4799
lekom	-10.4801
▁ram	-10.4805
▁koi	-10.4806
▁yaaa	-10.4807
▁tounssi	-10.4809
▁joueuret	-10.481
▁tho	-10.4826
▁galou	-10.4826
▁masr	-10.4826
▁than	-10.4833
emha	-10.4834
▁jew	-10.4835
▁nife	-10.4835
tè	-10.4844
▁nhbk	-10.4847
edmet	-10.4848
▁stad	-10.4851
▁2013	-10.4859
▁tafi	-10.486
▁facebook	-10.4861
▁meddeb	-10.4863
▁virus	-10.4863
▁profil	-10.4865
▁yr	-10.4865
▁twenssa	-10.4868
azi	-10.4869
▁mlayen	-10.4872
▁tkawer	-10.4872
▁demain	-10.4872
jo	-10.4875
▁rouge	-10.4875
▁marzougui	-10.4878
ebra	-10.4881
▁teh	-10.4882
▁chkoune	-10.4885
wed	-10.4887
▁lila	-10.489
iiiiiii	-10.4897
▁maryouma	-10.4898
▁narj	-10.4898
▁ywalli	-10.49
▁nahdi	-10.49
okm	-10.49
▁ons	-10.4901
lém	-10.4911
▁vote	-10.4912
▁lb	-10.4914
▁maz	-10.4916
▁peut	-10.4916
▁wfi	-10.4921
▁yon	-10.4924
▁gara	-10.4935
▁nah	-10.4937
▁barr	-10.4941
adam	-10.4943
▁messi	-10.4943
▁bidoun	-10.4947
▁tunsi	-10.4961
▁ammar	-10.4963
▁hlel	-10.4963
▁mart	-10.4967
▁kam	-10.497
▁mazelna	-10.4972
koubi	-10.4977
▁mdr	-10.4994
▁rabyy	-10.5006
▁fg	-10.501
▁lk	-10.5011
▁lili	-10.5015
▁blid	-10.5016
lék	-10.5017
▁amen	-10.5018
▁ehna	-10.5019
ance	-10.502
likoum	-10.5021
▁milli	-10.5024
ement	-10.5025
▁annif	-10.5029
▁goul	-10.5033
alouch	-10.5037
▁nzid	-10.5045
▁ita	-10.5045
arkou	-10.505
▁yestana	-10.5053
▁bladi	-10.5055
kber	-10.5071
▁wila	-10.5075
▁sayé	-10.508
chkoun	-10.5086
▁yf	-10.5091
▁alo	-10.5092
wem	-10.5092
kar	-10.5099
fff	-10.51
▁wlah	-10.51
▁national	-10.5112
▁ses	-10.512
▁nasm	-10.5126
▁è	-10.5128
▁tfarej	-10.5132
▁yjibou	-10.5133
ger	-10.514
▁willa	-10.5145
▁jouweret	-10.5145
arf	-10.5145
lmou	-10.5151
▁shiha	-10.5152
▁autre	-10.5152
▁million	-10.5152
louma	-10.5153
abat	-10.5159
▁programme	-10.5163
▁erheb	-10.5166
▁mle	-10.5176
hiwar	-10.518
▁yaatik	-10.5181
▁garçon	-10.5181
adrou	-10.5181
▁déjà	-10.5182
▁pays	-10.5182
▁mieux	-10.5183
▁bessif	-10.5183
▁siliana	-10.5183
▁salut	-10.5183
▁borjouliya	-10.5184
▁dhawadi	-10.5184
▁mleyen	-10.5185
▁bheyem	-10.5185
▁mehdi	-10.5187
▁frank	-10.5189
▁hekka	-10.5189
▁ravi	-10.5189
ers	-10.519
▁rajél	-10.5192
▁jamahir	-10.5193
▁yetfarej	-10.5195
▁dir	-10.5197
▁silm	-10.5197
▁edawla	-10.52
▁hkeyet	-10.52
▁nadhef	-10.5203
▁radio	-10.5209
▁vos	-10.5212
▁kammel	-10.5212
▁romdhan	-10.5215
▁arwa	-10.5216
▁surtt	-10.5216
▁takrah	-10.5217
▁saret	-10.5218
▁leb	-10.5222
rafch	-10.5222
▁lkoura	-10.5224
▁bkir	-10.5225
▁elyoum	-10.5226
iy	-10.5229
fek	-10.5231
▁elkoura	-10.5231
▁bèch	-10.5231
▁sayd	-10.5237
▁nkounou	-10.5243
▁fergha	-10.5245
▁watania	-10.5248
tte	-10.5251
ihi	-10.5252
▁hkeya	-10.5254
▁mawjouda	-10.526
ouli	-10.527
▁bnina	-10.5271
▁erjal	-10.5287
olli	-10.5293
▁marina	-10.5298
▁btala	-10.5303
▁najah	-10.5305
▁fra	-10.5306
▁yizi	-10.5311
alkom	-10.5312
▁sahha	-10.5315
elmi	-10.5318
iiiiiiii	-10.532
▁gad	-10.5321
▁mda	-10.5325
▁nhezou	-10.5334
▁rayes	-10.5335
itab	-10.5336
edh	-10.5343
weh	-10.5344
▁beche	-10.535
▁amel	-10.5357
▁tol	-10.536
▁ale	-10.5362
▁13	-10.5362
▁park	-10.5371
▁né	-10.5378
▁bdet	-10.5379
ebb	-10.5386
▁kenou	-10.5409
▁wine	-10.5412
ns	-10.5418
▁personne	-10.5419
tiha	-10.542
▁algerie	-10.5424
ons	-10.5426
▁kifhom	-10.5428
ton	-10.5434
▁dc	-10.5436
▁nahi	-10.5438
▁yahmik	-10.5441
▁elly	-10.5443
▁end	-10.5443
bya	-10.5445
▁katheb	-10.5445
▁billah	-10.5458
▁gabes	-10.5467
▁lkalb	-10.547
▁liha	-10.5472
▁champion	-10.5474
▁barvo	-10.5474
▁sbah	-10.5478
▁pauvre	-10.5478
▁nayk	-10.5479
kmou	-10.5479
oulek	-10.5484
ardha	-10.5486
▁mridha	-10.5486
▁sra	-10.549
▁ketheb	-10.5491
▁what	-10.5496
▁bad	-10.5502
dma	-10.5503
▁khal	-10.5511
▁2011	-10.5515
▁qatar	-10.5515
▁ge	-10.5516
▁chibob	-10.5517
iyetna	-10.5517
▁akter	-10.552
▁netfarej	-10.552
etkom	-10.5521
▁hamdoullah	-10.5521
▁tamthil	-10.5523
▁temps	-10.5529
▁ghalet	-10.5531
▁yehlek	-10.5531
▁tahbet	-10.5532
▁matji	-10.5533
▁paris	-10.5534
sseb	-10.5536
▁tbarkalah	-10.5537
idik	-10.5538
▁tcha	-10.5538
▁lbara	-10.554
▁buzz	-10.5544
▁compte	-10.555
▁fé	-10.5553
▁fard	-10.5557
▁khsara	-10.5563
▁chk	-10.5563
zizi	-10.5564
▁her	-10.5567
olk	-10.5567
▁rajal	-10.5574
ebna	-10.5574
arj	-10.5579
hen	-10.558
▁sre	-10.5584
▁mafhemte	-10.5586
amma	-10.559
amja	-10.5591
low	-10.5592
▁dez	-10.5593
▁ghriba	-10.5598
▁hommes	-10.5606
▁nord	-10.5611
aaaaaaaaaaa	-10.5613
ran	-10.5616
▁wali	-10.5631
amdi	-10.5633
ous	-10.5635
ouwa	-10.5645
wali	-10.5649
▁masrou	-10.5654
eg	-10.5656
▁gharbia	-10.5661
ic	-10.5664
▁malade	-10.5668
reg	-10.567
adrek	-10.567
ardh	-10.5678
▁floussek	-10.568
▁wino	-10.5684
▁bravou	-10.569
oni	-10.5691
▁habet	-10.57
▁dour	-10.5701
asb	-10.5705
bd	-10.5714
▁dine	-10.5715
wled	-10.5717
anou	-10.5725
oooooooooooooool	-10.5726
▁yebda	-10.5729
▁saybouna	-10.5731
founa	-10.5735
rra	-10.574
▁meno	-10.574
▁wejha	-10.5745
▁mounef	-10.5749
▁omra	-10.5749
▁hahah	-10.5753
▁maken	-10.5769
op	-10.5773
alali	-10.5778
▁hkaya	-10.5796
nsa	-10.5798
hach	-10.5803
▁mkache	-10.5809
aaaaaaaaa	-10.5811
bl	-10.5816
èk	-10.5818
atik	-10.5819
▁bsh	-10.5822
▁rouhi	-10.5823
▁pffff	-10.5826
rak	-10.5827
iid	-10.584
▁tok	-10.5843
▁say	-10.5846
▁msata	-10.5851
fadh	-10.5857
hed	-10.5857
artha	-10.586
▁vamos	-10.586
▁championnat	-10.586
▁rjél	-10.586
▁17	-10.5861
▁siyassa	-10.5866
▁tooop	-10.5867
▁libre	-10.5868
doud	-10.5868
▁song	-10.587
▁blastek	-10.5871
▁omour	-10.5875
▁star	-10.5875
▁baramej	-10.5877
▁blehi	-10.588
▁fomek	-10.5881
▁netfarjou	-10.5883
▁amir	-10.5884
▁preuve	-10.5885
▁work	-10.5887
▁année	-10.5887
▁dharbet	-10.5892
▁yezziw	-10.5892
▁autres	-10.5896
▁arabe	-10.5897
▁fased	-10.5898
▁toop	-10.5898
▁wataniya	-10.5902
▁sha	-10.5908
▁allahom	-10.5912
▁wahdou	-10.5912
▁najla	-10.5915
▁rbe	-10.5925
rrrrrrrrrrrrrrrr	-10.5926
▁tnayek	-10.5931
▁hédha	-10.5937
oudh	-10.5939
▁mada	-10.594
rk	-10.5942
▁trabelsi	-10.5949
▁souti	-10.5953
▁same	-10.5964
med	-10.5965
▁ejdid	-10.5966
▁saybo	-10.5971
sta	-10.5973
▁mekch	-10.5977
▁chrif	-10.5982
▁français	-10.5984
admou	-10.5988
srou	-10.5988
otou	-10.5992
ttt	-10.5992
▁sahel	-10.5997
▁bkolna	-10.5997
▁mille	-10.5997
▁tk	-10.5998
▁klamek	-10.5999
▁leh	-10.6
▁fdhi	-10.6003
▁msa	-10.6006
thel	-10.6006
boula	-10.6007
▁thahr	-10.6008
beh	-10.6011
▁nari	-10.6019
com	-10.6019
lit	-10.6028
chid	-10.6034
okom	-10.6037
ablek	-10.6045
▁konna	-10.6045
▁aj	-10.6045
▁taher	-10.6051
▁menk	-10.6052
▁hka	-10.6063
▁continue	-10.6066
▁siyasi	-10.6067
▁alli	-10.6067
▁meta	-10.6068
▁lkolkom	-10.6075
ts	-10.6075
▁sade	-10.6077
▁yenta	-10.6081
▁ajma	-10.6085
afat	-10.6086
icha	-10.6087
ooooo	-10.609
▁jat	-10.61
obi	-10.6103
▁mest	-10.6104
▁idek	-10.6106
▁fachal	-10.6106
jib	-10.6114
▁24	-10.6118
ilha	-10.6121
▁chrit	-10.6126
awd	-10.6128
▁minik	-10.6136
▁rahma	-10.6143
dak	-10.6145
aaak	-10.615
▁ydha	-10.6154
▁talla	-10.6154
▁pe	-10.6154
ssan	-10.6154
▁ensan	-10.6156
▁jebou	-10.6161
asi	-10.6164
dk	-10.6168
▁kho	-10.6173
aye	-10.6177
▁islam	-10.6179
▁tarek	-10.6181
▁hrab	-10.6184
itna	-10.6202
▁lima	-10.6214
▁avance	-10.6217
▁clash	-10.6217
▁forca	-10.6218
▁maryem	-10.622
▁eda	-10.6221
▁stop	-10.6222
▁etwensa	-10.6224
▁wakahaw	-10.6225
▁juin	-10.6225
▁tnajim	-10.6227
▁zwewla	-10.6228
▁lwakil	-10.6231
▁african	-10.6232
▁thaher	-10.6233
▁jomhor	-10.6236
go	-10.6237
▁iy	-10.6246
▁beki	-10.6247
ker	-10.6247
▁tunisian	-10.6248
▁jerba	-10.6248
▁blach	-10.6249
aychek	-10.6253
▁béhi	-10.6254
▁ui	-10.6272
▁omg	-10.6276
rag	-10.6276
uk	-10.6279
▁maf	-10.6283
▁st	-10.6283
▁free	-10.6285
▁yhebou	-10.6289
iit	-10.6289
▁wld	-10.6294
▁akher	-10.6298
bir	-10.6301
▁omak	-10.6302
▁ijib	-10.6306
▁lklem	-10.6306
tawa	-10.6309
raya	-10.6314
teli	-10.6316
▁batel	-10.6319
ind	-10.632
▁ew	-10.6324
hhhhhhhhhhhhhh	-10.6329
▁kamla	-10.634
ahret	-10.6341
wal	-10.6343
▁mél	-10.6344
▁gali	-10.6346
▁yebki	-10.6358
flous	-10.6359
ssin	-10.6377
akk	-10.638
rdi	-10.6384
rrrr	-10.6389
▁fet	-10.6391
▁bachar	-10.6395
▁vrais	-10.6396
▁sayebna	-10.6396
▁machin	-10.6397
atou	-10.6399
▁flos	-10.6404
gou	-10.6404
abed	-10.6418
▁mochkel	-10.6439
bda	-10.6451
the	-10.6455
jbni	-10.6457
▁gat	-10.646
hma	-10.6461
▁wabna	-10.6463
▁zaza	-10.6464
▁chadit	-10.6474
afet	-10.6478
▁kber	-10.6481
▁nra	-10.6497
▁té	-10.6497
▁bravooooooooo	-10.6502
▁khormo	-10.6507
tom	-10.6516
▁kifi	-10.6516
▁seul	-10.652
arfa	-10.6522
adel	-10.6524
arka	-10.6525
zab	-10.6526
nè	-10.6527
oooo	-10.6534
bé	-10.6536
▁marka	-10.6536
▁jaya	-10.6539
▁lee	-10.654
▁tebki	-10.6541
▁zidou	-10.6546
▁walitou	-10.6552
▁yjik	-10.6553
ooooooooooooo	-10.6558
▁tunisienne	-10.6558
▁resultat	-10.6561
▁nkoul	-10.6564
▁sabr	-10.6568
▁milyar	-10.6573
did	-10.6574
adiw	-10.6577
▁sahby	-10.6579
achet	-10.6582
▁ychouf	-10.6586
▁vipa	-10.6587
▁semaine	-10.6587
▁tellement	-10.6587
▁petit	-10.6588
▁monsef	-10.6588
▁gadafi	-10.6588
▁inshallah	-10.6589
▁borjoulia	-10.659
▁ywa	-10.659
▁hetheka	-10.659
▁yhanikom	-10.6591
▁impossible	-10.6591
▁twanssa	-10.6592
▁tekteb	-10.6592
▁very	-10.6593
▁mamset	-10.6593
dom	-10.6594
▁nthif	-10.6595
addi	-10.6597
▁aymen	-10.66
▁etaraji	-10.6601
▁statut	-10.6602
▁yetkalem	-10.6603
▁pk	-10.6604
▁cham	-10.6605
elou	-10.6605
▁ij	-10.6605
eeeeeee	-10.6606
▁wildi	-10.6608
eeeeeeeeeeeeeeee	-10.6608
▁aslan	-10.6615
▁ndhaf	-10.6615
▁sraf	-10.6618
▁ybarek	-10.6618
▁sc	-10.6621
▁grande	-10.6623
▁madhabi	-10.6625
▁ward	-10.6634
▁yelzmou	-10.6643
▁lenti	-10.6644
▁letoile	-10.6644
▁mohem	-10.6648
iste	-10.6648
▁live	-10.6648
▁recrutements	-10.6649
morna	-10.6651
▁elghalia	-10.6657
▁terb	-10.6662
▁ghoney	-10.6664
adt	-10.6668
▁yhez	-10.6668
▁zaboura	-10.6669
tira	-10.667
▁ijibou	-10.6671
vi	-10.6672
iiik	-10.6683
▁lybia	-10.6691
▁thebou	-10.6693
▁tos	-10.6696
▁tech	-10.6702
ng	-10.6702
ssal	-10.6712
▁gol	-10.6716
atha	-10.6726
gi	-10.6727
ather	-10.6728
▁nzidou	-10.673
▁anis	-10.6739
▁elkhir	-10.6741
lu	-10.6742
haaa	-10.6745
jem	-10.6754
▁haded	-10.6758
▁awl	-10.6758
mon	-10.6765
▁wmat	-10.6771
▁bed	-10.6771
adma	-10.6775
tion	-10.6779
▁yraj	-10.6781
â	-10.6782
▁miskina	-10.6788
▁lillah	-10.68
▁terbe	-10.6803
wil	-10.6804
▁titres	-10.6806
▁barou	-10.6815
▁kin	-10.6816
léh	-10.6825
sek	-10.6826
tique	-10.683
▁maho	-10.683
▁europe	-10.6837
▁ente	-10.6839
▁tafeh	-10.6839
▁yesr	-10.6847
ré	-10.685
telna	-10.6866
yetna	-10.6867
nti	-10.6869
▁swa	-10.687
houch	-10.6871
liik	-10.6873
▁jaych	-10.6874
▁clubist	-10.6879
▁dhaw	-10.6891
aaaaaaaaaaaaaaa	-10.6892
ayfin	-10.6912
▁dimo	-10.6912
▁bess	-10.6919
▁yasma	-10.6928
▁elmo	-10.6934
iiit	-10.6945
▁abonne	-10.6948
▁tenja	-10.695
▁irheb	-10.6953
dir	-10.6956
▁mota	-10.6957
▁klm	-10.6962
▁izid	-10.6962
afef	-10.697
▁dabegh	-10.6972
▁version	-10.6972
▁sujet	-10.6972
▁faddina	-10.6973
▁exemple	-10.6973
▁casoni	-10.6973
▁chiheb	-10.6974
▁barnemij	-10.6974
▁milieu	-10.6975
▁hijab	-10.6977
▁zardi	-10.6977
▁mibon	-10.6978
▁slamtek	-10.6978
▁yasm	-10.6978
adhabhom	-10.6978
▁dzayer	-10.6979
▁manadher	-10.698
▁ifarej	-10.6981
▁bizerte	-10.6981
allek	-10.6984
zo	-10.6985
▁chams	-10.6985
▁machekel	-10.6988
jb	-10.6989
ayem	-10.6992
▁annou	-10.6994
▁waf	-10.6995
ink	-10.6997
▁rojla	-10.7002
▁akwa	-10.7006
▁ét	-10.7009
▁chicha	-10.7011
▁voila	-10.7017
▁wintoum	-10.702
▁nhebouk	-10.7021
▁paroles	-10.7021
▁flen	-10.7022
een	-10.7024
lch	-10.7028
lahi	-10.7039
▁fat	-10.704
▁baji	-10.7043
▁hacha	-10.7046
▁chen	-10.7046
idh	-10.7048
▁adel	-10.7048
cho	-10.705
nnnnnnnnnnnnnnnn	-10.705
▁gaz	-10.7052
arr	-10.7056
▁tabka	-10.7056
tach	-10.7062
▁kalem	-10.7066
▁wech	-10.7075
▁ghar	-10.7078
atlou	-10.7079
jeh	-10.7081
▁gbal	-10.7088
▁kifik	-10.7093
▁minkom	-10.7096
vo	-10.7097
end	-10.7098
ébou	-10.71
▁yahia	-10.7111
▁caf	-10.7111
mmmm	-10.7115
▁70	-10.7117
▁éna	-10.7123
raft	-10.7123
▁teli	-10.713
▁ahki	-10.7135
hil	-10.7139
hhhhhhhhhhhh	-10.7139
▁blé	-10.714
▁wkan	-10.7143
▁wath	-10.7146
▁bayen	-10.7151
amsa	-10.7152
dd	-10.7154
▁wasil	-10.7155
▁jamila	-10.7158
▁charaf	-10.7172
asr	-10.7172
▁zay	-10.7174
andich	-10.7176
▁ncha	-10.718
▁waldin	-10.718
▁ytab	-10.7181
endi	-10.7183
▁mochkol	-10.7189
yan	-10.7194
abir	-10.7203
▁lemra	-10.7204
▁kater	-10.7206
▁lien	-10.721
nce	-10.7233
satan	-10.7242
kawrou	-10.7246
▁mandher	-10.7247
orr	-10.7254
waj	-10.7255
ien	-10.7257
ime	-10.7259
▁enness	-10.7259
nnnn	-10.7271
▁gha	-10.7272
▁benzart	-10.7273
▁jee	-10.7278
▁bir	-10.7287
▁awla	-10.7294
▁chib	-10.7299
▁melle	-10.73
dhom	-10.73
▁hed	-10.7306
▁makhyeb	-10.7311
▁wahd	-10.7313
orra	-10.7313
▁nkol	-10.7314
oulhom	-10.7318
▁tkalem	-10.7324
▁blaset	-10.7326
▁bka	-10.7327
▁section	-10.7338
uuu	-10.7339
houwa	-10.7343
thar	-10.7346
▁touniss	-10.735
▁attend	-10.7352
▁eyh	-10.7357
▁tarj	-10.7358
▁là	-10.7359
inti	-10.736
zouz	-10.7361
▁pfffff	-10.7364
oddem	-10.7367
▁cadeau	-10.737
▁technique	-10.7371
▁botoula	-10.7372
▁great	-10.7373
ralou	-10.7373
▁loooool	-10.7373
▁voté	-10.7374
▁journaliste	-10.7374
▁anglais	-10.7376
imed	-10.7377
▁hasilou	-10.7379
abdi	-10.7381
▁chkounou	-10.7388
▁kothr	-10.739
▁ennahda	-10.7393
iiiiiiiiiiiiiii	-10.7393
▁leklam	-10.7396
▁masl	-10.7398
ère	-10.7398
▁yourid	-10.74
▁toufa	-10.74
▁nadh	-10.7405
▁elkoul	-10.7407
aherhom	-10.7408
jibni	-10.7413
pp	-10.7414
▁nafes	-10.7418
are	-10.7419
▁tahkiw	-10.7421
▁belk	-10.7423
▁ex	-10.7428
md	-10.7428
▁lmar	-10.743
▁lfar	-10.7431
elem	-10.7432
▁ett	-10.7434
mih	-10.7434
ejbou	-10.744
▁thank	-10.7441
▁naykou	-10.7441
▁eka	-10.7443
▁ghaliya	-10.7443
hya	-10.7446
koulou	-10.7449
▁anime	-10.7449
▁imchi	-10.745
▁gd	-10.7451
▁abed	-10.7451
▁att	-10.7451
til	-10.7454
▁ft	-10.7454
dho	-10.7454
arwi	-10.7458
▁hkayet	-10.7464
▁najmou	-10.7464
yeh	-10.7464
moutou	-10.7468
▁inchalh	-10.7468
sawer	-10.747
▁kouya	-10.7472
▁sormek	-10.7472
▁bkolha	-10.7473
▁yichfih	-10.7474
▁khalik	-10.7475
isna	-10.7477
▁thika	-10.7477
ofa	-10.7479
▁matet	-10.7483
▁tawfi	-10.7483
fedh	-10.7487
▁thabti	-10.749
▁asm	-10.7493
▁22	-10.7501
jomhour	-10.7504
▁yetla	-10.751
▁wina	-10.7521
adher	-10.7528
▁abd	-10.753
▁walaw	-10.7534
inkom	-10.7537
ssss	-10.7537
rouh	-10.754
▁wsa	-10.7541
yi	-10.7542
▁ousse	-10.7546
▁tdha	-10.7551
hal	-10.7566
▁barbi	-10.7568
▁liya	-10.7569
▁gir	-10.7569
▁sameh	-10.7577
tant	-10.7578
zen	-10.7578
▁badr	-10.7592
▁rayek	-10.7602
▁feat	-10.7605
▁bechir	-10.7605
gal	-10.7609
▁21	-10.7612
▁kali	-10.7613
touni	-10.7616
inn	-10.7624
▁ydir	-10.7627
▁tre	-10.7631
▁zero	-10.7635
kan	-10.7643
▁ynajmou	-10.7649
▁wrah	-10.7656
icho	-10.7656
▁jana	-10.7657
▁tefeh	-10.7658
▁bali	-10.7663
▁bsa	-10.7663
▁ghirou	-10.7665
▁floussou	-10.767
▁mousta	-10.7678
nchlh	-10.768
eeee	-10.768
sam	-10.7681
▁nsitou	-10.7689
yes	-10.7694
▁jibt	-10.7702
alah	-10.7706
sine	-10.7707
esou	-10.7721
ish	-10.7729
awlou	-10.773
sm	-10.7736
ezz	-10.7736
hin	-10.7738
▁noum	-10.7739
▁tesma	-10.7739
▁ru	-10.7741
▁fire	-10.7742
▁naja	-10.7742
▁heb	-10.7745
▁résultat	-10.7753
▁metou	-10.7757
gu	-10.776
▁00	-10.7764
▁lazmou	-10.777
▁nraw	-10.777
▁nam	-10.7774
▁lw	-10.7777
▁per	-10.7778
▁hamma	-10.7778
sser	-10.778
▁hasbi	-10.7785
▁iti	-10.7786
▁ydik	-10.7787
▁yonser	-10.7788
▁après	-10.7788
▁domage	-10.7788
▁dhekra	-10.7788
ont	-10.7789
▁poop	-10.7789
▁karakouz	-10.7789
▁zarzis	-10.7789
▁maktoub	-10.779
ayma	-10.779
▁danadik	-10.779
▁nestanew	-10.7791
▁inchaallah	-10.7791
▁shkoun	-10.7792
▁normale	-10.7792
▁franchement	-10.7792
▁loumour	-10.7793
assit	-10.7793
▁moubarek	-10.7794
ï	-10.7796
▁msiba	-10.7799
▁moustawa	-10.78
▁tekdheb	-10.7803
▁nefhem	-10.7805
▁fesed	-10.7806
khou	-10.7808
▁etre	-10.7809
▁rawa	-10.781
▁ezawali	-10.781
▁ennabara	-10.7811
▁hédhi	-10.7815
▁jouwaret	-10.7816
▁yelzmek	-10.7817
adhha	-10.7819
▁yarhmek	-10.782
tre	-10.7827
▁lama	-10.7827
▁mabrouuuuk	-10.7828
▁yawm	-10.7829
▁blasetha	-10.7829
maltha	-10.7829
atel	-10.7836
▁tchid	-10.7842
▁mêla	-10.7849
▁looool	-10.7852
▁thabet	-10.7853
▁nebki	-10.7853
▁hathaka	-10.7855
▁tnajmou	-10.7856
yo	-10.7862
ndhech	-10.7862
▁enhar	-10.7863
èn	-10.7865
irr	-10.7867
ziza	-10.7869
▁youslou	-10.787
▁kas	-10.7871
▁jo	-10.7871
▁lezmou	-10.7875
etek	-10.7877
▁termet	-10.788
▁lweh	-10.7884
emhom	-10.789
▁mnawer	-10.789
bhom	-10.7894
nnn	-10.7894
▁essaha	-10.7895
▁mezelt	-10.7896
▁mete	-10.791
▁chra	-10.7911
▁layem	-10.7914
▁tejri	-10.7914
iiiiiiiiiiiiii	-10.7916
▁sadi	-10.7918
rajt	-10.7918
▁poste	-10.7918
ollou	-10.7923
▁mnayk	-10.7924
dawla	-10.7927
louwa	-10.7931
▁chebeb	-10.7933
▁fay	-10.7946
▁vo	-10.795
rrrrr	-10.7951
atro	-10.7955
lt	-10.7956
▁ines	-10.7958
▁tba	-10.7961
▁yezik	-10.7963
hbo	-10.797
zina	-10.7972
ct	-10.798
▁bayou	-10.799
lot	-10.7995
▁kabir	-10.7997
badel	-10.7998
▁seb	-10.8
▁mesh	-10.8
▁yok	-10.8008
▁lfa	-10.801
amo	-10.8015
ther	-10.8015
▁kount	-10.8016
ytem	-10.8019
▁erra	-10.8022
▁fél	-10.8023
▁matar	-10.8025
arfin	-10.8031
▁khawa	-10.8035
erfou	-10.8036
kkkkk	-10.8038
▁nchl	-10.8043
▁ntaba	-10.8046
▁barek	-10.8048
▁aasba	-10.8049
alikom	-10.8063
▁etes	-10.807
▁fyh	-10.8075
wey	-10.8078
howa	-10.8084
▁fehm	-10.8088
▁hach	-10.8095
ui	-10.8096
▁jibiln	-10.8097
▁isir	-10.8104
▁msat	-10.8105
douh	-10.8107
ithom	-10.8108
dna	-10.8122
roufa	-10.8122
▁mazelou	-10.8123
weya	-10.8125
▁weslet	-10.8127
yh	-10.8129
▁reste	-10.8132
▁rabb	-10.8146
▁tka	-10.8148
▁usa	-10.8149
kkkk	-10.8152
▁rabe	-10.8153
▁sif	-10.8155
iiiiiiiiiiiii	-10.8156
▁yimchi	-10.8163
abe	-10.8165
alliw	-10.8168
▁chemda	-10.8169
adiya	-10.8171
▁menich	-10.8183
sn	-10.8183
▁thaw	-10.8184
hr	-10.8186
▁raha	-10.8192
anbi	-10.8193
tol	-10.8195
▁irhab	-10.8199
nina	-10.8204
èch	-10.8207
▁rouho	-10.8208
oune	-10.8216
▁jaafer	-10.8224
▁malheureusement	-10.8224
▁mortadha	-10.8224
▁korza	-10.8224
▁hadheka	-10.8225
▁league	-10.8226
▁mabrouuuk	-10.8226
▁hatheka	-10.8226
▁dridi	-10.8226
▁etranger	-10.8226
▁kanzari	-10.8226
ec	-10.823
▁votez	-10.8231
athebhom	-10.8233
▁60	-10.8234
▁karhba	-10.8234
▁lf	-10.8234
wwww	-10.8235
▁original	-10.8236
▁tekseb	-10.8236
▁bhema	-10.8237
▁saybouh	-10.8239
▁was	-10.8241
▁tneket	-10.8241
▁crois	-10.8243
▁gens	-10.8245
▁milyarat	-10.8246
▁fomha	-10.8246
▁surtou	-10.8247
▁mode	-10.825
gha	-10.8253
▁dharba	-10.8254
lawjou	-10.8258
▁latif	-10.8258
▁hadhika	-10.8259
▁darja	-10.8259
▁jadid	-10.826
▁lboutoula	-10.8263
▁hamla	-10.8265
▁kilab	-10.8266
▁daher	-10.8269
▁mzeya	-10.827
▁deg	-10.8276
▁mafih	-10.8278
lmo	-10.828
▁andha	-10.828
▁isti	-10.8281
▁azma	-10.8285
▁tarbiya	-10.8285
▁grib	-10.8286
▁mouhem	-10.8286
▁tbadel	-10.8287
▁tajamo	-10.8291
▁jbeli	-10.8291
▁mis	-10.8294
▁sne	-10.8294
▁yhem	-10.8294
▁wle	-10.8295
mr	-10.8296
▁kahba	-10.8302
▁ychafiha	-10.8306
▁ahel	-10.831
wl	-10.8312
▁ter	-10.8312
▁dhar	-10.8313
ouuuu	-10.8318
▁essid	-10.8324
olet	-10.8326
▁fehmin	-10.8327
▁tfi	-10.8329
ora	-10.8331
ever	-10.8332
▁jè	-10.8344
jbou	-10.8347
tmana	-10.8357
yik	-10.8363
▁awil	-10.8366
radh	-10.8375
afla	-10.8377
ohom	-10.8383
▁neji	-10.8387
sisi	-10.8387
▁dharb	-10.8388
deth	-10.8389
▁beja	-10.839
eeeeee	-10.84
▁ases	-10.8404
alamiya	-10.8407
att	-10.8407
▁kifch	-10.8409
▁hlowa	-10.8413
▁koulou	-10.8417
▁hadh	-10.8417
addem	-10.8419
▁taaref	-10.8421
ayb	-10.8423
▁ninta	-10.8423
www	-10.8426
oltou	-10.8432
aml	-10.8438
hhhhh	-10.8442
▁bidi	-10.8447
adhim	-10.846
awl	-10.8461
▁int	-10.8463
ehid	-10.8465
▁italia	-10.8466
ssir	-10.8467
▁belli	-10.8471
▁ramzi	-10.8477
▁rasi	-10.8486
fhim	-10.8489
abiya	-10.8495
fath	-10.8496
wn	-10.8504
asit	-10.8508
▁ghada	-10.8511
iiiir	-10.8514
▁jabo	-10.8514
▁tfar	-10.8515
▁rawah	-10.8516
▁dra	-10.8518
assilou	-10.853
▁ngol	-10.853
▁them	-10.8534
▁nja	-10.8537
▁face	-10.854
▁waldih	-10.854
▁yelzemha	-10.8542
▁west	-10.8547
▁oy	-10.8547
▁jebet	-10.855
▁moutou	-10.855
▁nesm	-10.8553
▁zine	-10.8557
▁esna	-10.8557
▁nekt	-10.8562
▁eness	-10.8562
▁19	-10.8563
alich	-10.8563
▁mouta	-10.8566
▁tsal	-10.8576
▁lmas	-10.8577
dhe	-10.8578
▁walina	-10.8579
refch	-10.858
▁sahafa	-10.8581
▁barnemj	-10.8586
kbir	-10.8591
yek	-10.8591
ito	-10.8594
▁ame	-10.8594
▁zeyd	-10.8595
▁tbib	-10.8595
laaa	-10.8596
▁naje	-10.8597
ww	-10.8597
▁sobhan	-10.8598
dch	-10.8599
malto	-10.8607
▁tenta	-10.8609
▁trod	-10.8613
▁kifah	-10.8625
▁belik	-10.8625
▁avanti	-10.8629
▁thab	-10.8631
▁yarbi	-10.8632
ino	-10.8633
▁jamia	-10.8634
zawali	-10.8635
▁njib	-10.8635
ness	-10.8635
▁question	-10.8642
▁frere	-10.8642
pe	-10.8646
▁najmo	-10.8655
▁lemkach	-10.8656
▁beh	-10.8661
▁waket	-10.8664
▁hazit	-10.8669
ftha	-10.8675
kina	-10.8675
▁plateau	-10.8676
▁daoula	-10.8677
▁armasta	-10.8677
▁episode	-10.8677
▁jenjon	-10.8677
▁formation	-10.8678
▁ngoul	-10.8678
▁dubai	-10.868
▁instru	-10.868
▁testehel	-10.8681
▁jdod	-10.8681
▁eshih	-10.8682
▁mkachakh	-10.8683
▁ryé	-10.8683
▁cujet	-10.8684
esha	-10.8684
siya	-10.8685
▁errjel	-10.8686
▁conter	-10.8687
▁taleb	-10.8687
▁eddawla	-10.8687
▁mezyen	-10.8687
▁loughet	-10.8688
▁binetna	-10.8689
▁makboula	-10.8689
ses	-10.869
▁gr	-10.869
▁aflem	-10.8691
▁ahssen	-10.8692
▁doub	-10.8692
▁okhrej	-10.8692
▁gar	-10.8695
▁dkhal	-10.8696
▁kebir	-10.8697
▁omniti	-10.8697
▁khiir	-10.8698
▁ban	-10.87
▁mahlekom	-10.8701
▁amina	-10.8705
▁taxi	-10.8707
ier	-10.8709
▁kawer	-10.871
▁chadin	-10.8716
▁flow	-10.8718
▁elmas	-10.8718
▁yj	-10.872
▁lekher	-10.8721
▁voir	-10.8721
▁kbarat	-10.8723
▁ata	-10.8724
hki	-10.8729
▁dja	-10.873
▁yetfarjou	-10.8731
▁thamma	-10.874
▁yzi	-10.874
rja	-10.8741
telha	-10.8746
▁dinars	-10.8747
▁tjrs	-10.8748
▁marek	-10.8749
▁amour	-10.8749
▁tanjah	-10.8752
▁echab	-10.8756
oooooooooooo	-10.8761
▁elfar	-10.8762
▁slt	-10.8763
▁ome	-10.8764
▁bazoula	-10.8768
hhhhhhhh	-10.877
▁achref	-10.8772
▁salm	-10.8774
▁nji	-10.8774
▁yezou	-10.8776
sion	-10.8777
iro	-10.8778
▁lzem	-10.8791
▁neh	-10.8792
dhar	-10.88
▁déj	-10.8801
izb	-10.8803
▁hiche	-10.8806
▁nchla	-10.881
▁ennou	-10.881
▁rek	-10.8814
▁taswir	-10.8814
▁yh	-10.8815
▁jeybin	-10.8815
mah	-10.8815
enti	-10.8816
komch	-10.8823
tham	-10.8825
▁miskin	-10.8829
▁yarhm	-10.883
nà	-10.8831
▁yesir	-10.8831
▁lok	-10.8838
▁hadik	-10.884
▁marit	-10.8842
▁tkt	-10.8842
zer	-10.8846
▁pi	-10.8849
▁him	-10.8849
▁thezou	-10.8849
▁tef	-10.8854
▁regarde	-10.8855
ache	-10.8855
▁ytay	-10.8856
▁merite	-10.8858
▁ismou	-10.8858
▁kadech	-10.8865
▁game	-10.8868
▁broo	-10.8868
pr	-10.887
alhom	-10.8873
khr	-10.8876
▁parle	-10.8876
douk	-10.8877
essou	-10.8879
▁marsa	-10.8886
▁ejm	-10.8887
▁nt	-10.8888
affat	-10.8897
▁beyna	-10.8903
▁taj	-10.8904
oooooo	-10.8913
ebouha	-10.8914
▁tew	-10.8918
▁fikra	-10.8918
▁etelha	-10.8921
▁mane	-10.8922
loulou	-10.8926
▁cap	-10.8931
▁masra	-10.8931
rabbi	-10.8936
▁kifh	-10.8938
▁ifar	-10.8944
▁twari	-10.8947
bna	-10.8948
yyyy	-10.895
▁arrête	-10.8951
sna	-10.8955
aset	-10.8957
▁ezz	-10.8963
sat	-10.8967
ouhom	-10.8968
uuuu	-10.8968
▁darek	-10.8971
atfa	-10.8972
▁echri	-10.8979
ebhom	-10.898
akes	-10.8981
▁wahad	-10.8983
▁hedhe	-10.8985
▁tard	-10.8991
mk	-10.8994
▁alha	-10.8996
▁nest	-10.9
ide	-10.9002
▁nsad	-10.9003
▁tam	-10.9015
ebouh	-10.9017
▁lef	-10.9018
▁allez	-10.902
▁marbo	-10.902
▁joyeu	-10.9021
zid	-10.9022
bsou	-10.9022
▁tayer	-10.9024
▁fadh	-10.9026
sss	-10.9038
zin	-10.904
▁belf	-10.9043
▁fechla	-10.9051
▁akel	-10.9057
rch	-10.9057
▁silim	-10.906
▁ahh	-10.9065
▁jed	-10.9075
tl	-10.9076
▁nse	-10.9076
nfa	-10.9079
léha	-10.9079
▁ibn	-10.908
▁letoil	-10.9085
▁waldek	-10.9089
▁iraj	-10.9089
enchalah	-10.9091
atet	-10.9096
▁fout	-10.9099
arbou	-10.9114
iiiin	-10.9118
sed	-10.9119
▁bejam	-10.9119
kayat	-10.9121
▁tsad	-10.9121
puis	-10.9122
aylet	-10.9124
▁fahmin	-10.9124
joumhour	-10.9124
▁yakrah	-10.9125
▁plu	-10.9126
▁mask	-10.9128
aaah	-10.9133
ejbetni	-10.9134
▁wléd	-10.9134
afih	-10.9145
▁sliiim	-10.9154
▁level	-10.9154
▁mafhmt	-10.9154
▁valeur	-10.9154
▁kawarji	-10.9154
▁brojla	-10.9154
▁janvier	-10.9155
▁qualité	-10.9155
▁instagram	-10.9156
▁geste	-10.9156
amin	-10.9156
amnewel	-10.9157
▁azber	-10.9158
▁enfants	-10.916
▁kbiir	-10.9162
▁porno	-10.9162
▁kifkif	-10.9162
▁hahahah	-10.9163
▁nahki	-10.9165
ijeb	-10.9168
aredh	-10.9169
▁emission	-10.9169
▁mamstek	-10.917
▁sé	-10.9171
▁over	-10.9171
▁francais	-10.9173
yati	-10.9173
▁ennour	-10.9173
loum	-10.9175
▁abtal	-10.9177
hich	-10.9178
▁hbat	-10.9179
▁ligue	-10.9181
▁jimla	-10.9182
▁ezouz	-10.9182
▁wejeh	-10.9185
▁mehouch	-10.9186
twansa	-10.9186
▁tsayeb	-10.9187
▁lham	-10.9188
▁enabara	-10.9189
▁wél	-10.919
▁boutoulet	-10.9192
ké	-10.9194
ndi	-10.9196
▁wahdik	-10.9199
▁salla	-10.92
▁halouma	-10.92
mma	-10.9203
▁ommik	-10.9203
▁tassir	-10.9203
sib	-10.9203
▁hathika	-10.9204
▁champions	-10.9209
▁girl	-10.9215
▁rousna	-10.9219
▁mast	-10.9222
▁puisqu	-10.9223
▁ismha	-10.9225
▁lwe	-10.9226
bok	-10.9235
offa	-10.9236
nawer	-10.9236
▁esperan	-10.9242
▁zebla	-10.9242
▁yassine	-10.9243
bon	-10.9249
▁lhal	-10.9253
▁hadhoum	-10.9254
▁chweya	-10.9261
▁od	-10.9261
▁imta	-10.9263
▁wja	-10.9265
hek	-10.9265
▁félicitations	-10.9267
jer	-10.9272
war	-10.9272
▁thana	-10.9276
▁thiz	-10.9277
▁echar	-10.9277
▁kall	-10.9279
kéy	-10.928
▁ill	-10.9281
▁bit	-10.9282
arbiya	-10.9285
▁yerhmou	-10.9292
▁hathom	-10.9295
bka	-10.9301
houlek	-10.9301
bb	-10.9305
ndk	-10.9309
adhhom	-10.9309
▁site	-10.9314
ann	-10.9315
èb	-10.9316
▁mibouna	-10.9323
ith	-10.9324
▁héth	-10.9325
arrou	-10.9325
▁gay	-10.9329
fdhou	-10.9329
▁migalou	-10.9329
▁dali	-10.9332
▁soutek	-10.9336
hri	-10.9342
▁bint	-10.9343
▁edh	-10.9347
▁elkoll	-10.9348
▁sahli	-10.9349
mikom	-10.9351
▁kay	-10.9355
▁khalil	-10.9356
▁edha	-10.9358
▁benti	-10.9359
gue	-10.9366
edmou	-10.9368
kther	-10.9368
essa	-10.9371
▁aamel	-10.9375
▁fas	-10.9383
▁mounaf	-10.9385
▁ayna	-10.9389
▁chaf	-10.9393
iih	-10.9396
athhom	-10.9406
▁arriere	-10.9406
rem	-10.9407
res	-10.9408
▁iba	-10.941
iiiiiiiiiiii	-10.9411
▁eme	-10.9417
▁mokh	-10.942
ounek	-10.9421
▁mz	-10.9421
▁tik	-10.9424
enna	-10.9425
ence	-10.9437
adtou	-10.9441
ano	-10.9446
▁naik	-10.9447
▁atawa	-10.9449
▁mercato	-10.9449
▁art	-10.945
yon	-10.9454
▁bb	-10.9454
nch	-10.9458
bdou	-10.9458
▁mrith	-10.946
▁bhal	-10.9461
qu	-10.9462
ares	-10.9468
tena	-10.9474
▁testana	-10.948
▁lkh	-10.9482
▁lél	-10.9486
mes	-10.9486
▁kontou	-10.9488
goul	-10.9488
able	-10.949
aly	-10.9494
▁mouchkl	-10.9497
▁mato	-10.9503
okoma	-10.9508
adou	-10.9509
▁makan	-10.9512
▁math	-10.9513
▁respecte	-10.9513
hor	-10.9521
▁hadhom	-10.9522
eeel	-10.953
lihoum	-10.9532
ogra	-10.9534
▁chouhada	-10.9534
▁lahi	-10.954
▁flousik	-10.9542
ouwet	-10.9544
▁chien	-10.9545
▁tadh	-10.9546
yya	-10.9556
ooooooo	-10.9561
▁want	-10.9563
arjet	-10.9564
dé	-10.9567
▁lahou	-10.9568
aleli	-10.9571
▁sadek	-10.9571
▁imout	-10.9576
olkom	-10.9577
▁privé	-10.9578
▁sûr	-10.958
kouk	-10.9583
▁mor	-10.9586
▁wfa	-10.9586
▁nraj	-10.9592
▁thar	-10.9592
▁mabrou	-10.9596
▁maakom	-10.9597
▁walde	-10.9598
▁borhen	-10.96
wya	-10.9602
▁chbeh	-10.9608
awno	-10.9612
odh	-10.9615
▁mayji	-10.9617
achek	-10.9619
miss	-10.9621
▁hem	-10.9621
▁labas	-10.9623
homech	-10.9625
owet	-10.9626
▁masma	-10.9628
▁tbar	-10.9628
▁tof	-10.9628
▁ygoul	-10.9629
sim	-10.963
▁ykon	-10.964
▁copie	-10.9644
yè	-10.9645
aser	-10.9645
ê	-10.9646
▁rayi	-10.9646
awn	-10.9648
orda	-10.9648
▁yef	-10.9649
▁rouhk	-10.9653
▁adh	-10.9653
▁compris	-10.9654
▁musique	-10.9654
▁faouzi	-10.9654
▁janjoun	-10.9654
▁zahrouni	-10.9654
▁termtek	-10.9654
▁division	-10.9654
▁aucun	-10.9654
▁erriahi	-10.9655
▁nizar	-10.9657
yd	-10.9659
▁force	-10.9659
▁farik	-10.9661
▁ligne	-10.9661
▁lotef	-10.9661
houlna	-10.9661
▁bousbi	-10.9661
▁sardina	-10.9662
▁ville	-10.9662
▁eryahi	-10.9663
▁kléb	-10.9664
▁fammech	-10.9666
ahoum	-10.9667
▁dakhel	-10.9667
▁domaine	-10.9667
▁tbandir	-10.9668
▁zoz	-10.9669
hawi	-10.9669
▁akthir	-10.967
▁yekteb	-10.9672
▁akal	-10.9679
▁dyoun	-10.9679
▁yejri	-10.9682
▁jedid	-10.9685
▁kayen	-10.9687
▁lbeji	-10.9688
▁eddin	-10.969
▁sehla	-10.9693
▁jabet	-10.9695
▁ever	-10.9695
▁jandouba	-10.97
arabi	-10.97
▁zbar	-10.9708
ellet	-10.9709
▁sais	-10.9713
▁nej	-10.9713
▁ejem	-10.9713
elle	-10.9714
▁konet	-10.9721
▁yarhamhom	-10.9724
▁sour	-10.9725
assi	-10.9726
iiiiiiiiiii	-10.9727
▁mazelet	-10.9729
▁irya	-10.9734
areb	-10.9735
▁khayb	-10.9735
▁bellehy	-10.9736
▁marto	-10.9738
waliw	-10.9745
▁njibouh	-10.9746
▁pu	-10.9749
krah	-10.9749
▁anne	-10.9752
khar	-10.9757
▁masha	-10.9758
▁bravooooooooooo	-10.9763
▁eza	-10.9765
▁liby	-10.9766
▁ista	-10.9768
▁adi	-10.977
▁wejhou	-10.9772
▁nok	-10.9772
▁tej	-10.9773
▁nikou	-10.9773
▁makomch	-10.9775
btou	-10.9778
ban	-10.9782
▁yej	-10.9782
bah	-10.9786
▁okht	-10.9789
▁tj	-10.979
▁lilah	-10.979
▁too	-10.9792
key	-10.981
▁anou	-10.9816
rrrrrrrrrrrrrrr	-10.9817
rob	-10.982
▁tehki	-10.9821
▁chb	-10.9824
▁mayet	-10.9824
▁etkoun	-10.9832
▁tracha	-10.9837
▁mentalit	-10.9838
odr	-10.9847
wan	-10.985
▁can	-10.985
▁gel	-10.9851
▁rijal	-10.9856
▁belehy	-10.9868
odam	-10.9869
▁bet	-10.987
okem	-10.987
▁asel	-10.987
▁ent	-10.9876
▁hadaka	-10.9881
▁atw	-10.9882
▁base	-10.9891
▁bidou	-10.9892
▁ntab	-10.9895
▁500	-10.9904
▁nharet	-10.9906
▁tkon	-10.9907
▁tayra	-10.9919
▁yom	-10.9919
▁tata	-10.9921
▁riadh	-10.9924
▁rej	-10.9924
▁sousa	-10.9926
▁ychfih	-10.9929
▁tonis	-10.9936
ndhaf	-10.9937
▁tharb	-10.9939
anit	-10.9941
▁jai	-10.9941
▁yenja	-10.9941
▁lg	-10.9942
▁wlay	-10.9944
▁sme	-10.9947
aytou	-10.9947
jma	-10.9952
▁tmanit	-10.9952
▁mag	-10.9952
▁mafhemt	-10.9956
▁saleh	-10.9959
atl	-10.996
krou	-10.9962
▁salo	-10.9963
▁fann	-10.9963
▁sbeb	-10.997
▁yzidou	-10.999
▁lkbir	-10.9993
▁beat	-10.9995
▁wijh	-11
▁kaw	-11.0012
▁nhebo	-11.0012
arch	-11.0015
oudia	-11.0015
▁emma	-11.0018
boul	-11.002
▁aidkom	-11.0024
athom	-11.0024
▁sali	-11.003
mlouch	-11.0032
rbi	-11.0034
▁hadded	-11.0039
▁hu	-11.0041
▁kifna	-11.0048
tisad	-11.0049
isse	-11.005
rim	-11.0053
▁kraht	-11.0055
eni	-11.0059
▁masar	-11.0061
▁sous	-11.0064
▁melk	-11.0064
▁mayo	-11.0068
▁mahi	-11.0068
ande	-11.0071
▁yrod	-11.0071
▁vrm	-11.0072
▁énti	-11.0077
ayes	-11.008
▁tajam	-11.0086
▁rami	-11.0092
ouuuuu	-11.0093
▁wzir	-11.0094
▁raak	-11.0096
son	-11.0097
orbi	-11.01
endou	-11.0104
po	-11.0104
▁bellah	-11.0107
yem	-11.0107
action	-11.0112
oulouli	-11.0119
iche	-11.012
▁wald	-11.0122
▁av	-11.0123
▁bos	-11.0123
▁yeb	-11.0128
kir	-11.0134
▁get	-11.0134
ais	-11.0136
▁lca	-11.0139
▁bous	-11.0143
70	-11.0145
▁riye	-11.0154
▁newi	-11.0156
pres	-11.0158
▁invit	-11.0165
▁harb	-11.0169
rrrrrrr	-11.0169
▁erais	-11.017
▁ibi	-11.0173
▁bdina	-11.0179
▁asifouah	-11.018
▁maquillage	-11.018
▁gorgeous	-11.018
▁urgent	-11.018
▁ghanouchi	-11.018
▁ghannouchi	-11.018
▁fommek	-11.0181
▁barnous	-11.0181
▁first	-11.0181
▁ywafkek	-11.0181
▁movie	-11.0182
▁buteur	-11.0183
▁dnadik	-11.0183
▁wahf	-11.0183
▁ghneyet	-11.0185
▁yecer	-11.0185
▁curva	-11.0186
▁mahmoud	-11.0186
▁karoui	-11.0186
▁nshallah	-11.0188
▁zeyid	-11.0188
▁abone	-11.0189
▁sora	-11.0189
▁yestehel	-11.0189
▁borjoliya	-11.019
▁lib	-11.019
▁histoir	-11.0191
▁bravoooooooo	-11.0192
gar	-11.0197
arri	-11.0198
▁nidham	-11.0198
▁parler	-11.0198
▁felicitation	-11.0199
▁chohra	-11.02
▁ysahel	-11.0201
▁saied	-11.0201
▁wsel	-11.0202
▁ezaweli	-11.0202
▁elboutoula	-11.0202
eja	-11.0203
▁soura	-11.0204
▁terma	-11.0206
▁sud	-11.021
▁nda	-11.0211
▁likbir	-11.0211
ayti	-11.0213
zek	-11.0214
33333	-11.0215
▁majhoud	-11.0216
▁hkouma	-11.0218
tem	-11.022
▁beyen	-11.022
▁victoire	-11.0221
▁habes	-11.0222
▁nayak	-11.0222
▁enchalh	-11.0223
▁rejel	-11.0223
▁sens	-11.0224
fdhek	-11.0224
▁mché	-11.0224
ghi	-11.0228
ver	-11.0228
▁radi	-11.0231
elli	-11.0233
▁bleu	-11.0239
▁nafss	-11.024
▁moh	-11.0244
▁ouled	-11.025
▁saib	-11.0251
▁nor	-11.0251
▁ihez	-11.0259
▁siyessi	-11.0262
▁nis	-11.0264
▁saidi	-11.0265
▁makont	-11.0266
▁atef	-11.027
▁elbled	-11.027
▁wbarra	-11.0275
▁hedhika	-11.0276
▁raabi	-11.0277
▁sm	-11.0278
▁mouh	-11.0278
▁maaak	-11.028
▁trb	-11.0284
▁vues	-11.0285
ase	-11.0287
▁faj	-11.0289
▁irjel	-11.0294
kasser	-11.0299
àà	-11.0301
ridh	-11.0302
▁liklem	-11.0305
▁maj	-11.0306
▁selem	-11.031
▁tafrika	-11.0311
▁nakrah	-11.0312
▁pla	-11.0312
▁yti	-11.0315
▁dayrin	-11.0319
bouha	-11.0323
▁wfet	-11.0328
èè	-11.0329
fadlek	-11.033
▁yelzm	-11.033
ayeltek	-11.0336
salem	-11.0339
aycha	-11.035
louh	-11.0351
▁wbech	-11.0351
▁tkarkira	-11.0351
hba	-11.0352
▁hall	-11.036
▁wedhni	-11.036
▁watha	-11.036
▁yjiw	-11.037
▁ytir	-11.0371
arij	-11.0371
▁sr	-11.0374
▁aaa	-11.0375
▁kher	-11.0376
fri	-11.0384
▁amam	-11.0386
▁wani	-11.0392
▁mskin	-11.0397
▁jabha	-11.0399
raftou	-11.04
▁nod	-11.0403
fouh	-11.0403
▁yarhamou	-11.0406
hhhhhhh	-11.0406
▁kle	-11.0406
▁tahane	-11.0407
▁matech	-11.0411
▁omar	-11.0412
▁sahla	-11.0414
léch	-11.0422
king	-11.0422
rid	-11.0432
mmmmm	-11.0434
▁winkom	-11.0437
fehmou	-11.0439
▁thed	-11.0441
▁biflous	-11.0445
▁vi	-11.0454
youn	-11.0462
▁eji	-11.0463
▁oussam	-11.0467
ssssss	-11.0468
▁tnajm	-11.0471
▁elkalb	-11.0473
▁khou	-11.0476
▁louk	-11.0482
▁mahleh	-11.0482
▁kethb	-11.0483
▁sle	-11.0483
▁neje	-11.0483
▁klemik	-11.0485
abbou	-11.0489
▁naj	-11.0491
▁elfa	-11.0499
▁slimm	-11.0507
wek	-11.0508
tarmou	-11.0511
▁taht	-11.0533
jen	-11.0534
slou	-11.0534
▁nom	-11.0535
▁manajem	-11.0537
û	-11.0545
ig	-11.0547
hib	-11.055
▁100000	-11.0552
tarm	-11.0553
foun	-11.0555
▁saw	-11.0558
▁hahahahahah	-11.0563
alech	-11.0565
rig	-11.0567
▁binzart	-11.0567
▁mlih	-11.057
lif	-11.0572
▁ezebi	-11.0572
▁amar	-11.0575
▁musica	-11.0576
▁ned	-11.058
lb	-11.058
aire	-11.0586
▁khraj	-11.0586
ddd	-11.0592
▁tele	-11.0594
▁nwali	-11.0598
▁dhaou	-11.0599
hia	-11.0608
▁ker	-11.0608
wat	-11.0611
▁som	-11.0613
▁touz	-11.0614
aweni	-11.0614
▁yatik	-11.0615
▁kalam	-11.0618
eset	-11.0621
▁rayess	-11.0622
▁metet	-11.0623
sil	-11.0624
naya	-11.0643
▁chwayy	-11.0647
ajrou	-11.065
loo	-11.0653
ahed	-11.0656
▁ef	-11.0657
▁tatawin	-11.066
▁important	-11.0661
▁ettounsia	-11.0663
▁dawr	-11.0664
▁hiz	-11.0665
▁ur	-11.0665
▁futur	-11.0666
▁eyy	-11.0673
nés	-11.0676
▁krah	-11.0684
zizti	-11.0687
▁thb	-11.0689
ibi	-11.0691
ouled	-11.0693
▁benna	-11.0693
▁khw	-11.0695
▁aalih	-11.0696
▁sed	-11.0699
▁ekbes	-11.0702
ı	-11.0704
▁sarah	-11.0705
▁daber	-11.0706
▁mahlak	-11.0709
▁jel	-11.0714
▁ennass	-11.0717
▁tz	-11.0719
ietna	-11.0723
▁sayab	-11.0729
èd	-11.0731
▁mérite	-11.0731
▁botox	-11.0736
▁saïd	-11.0736
▁effecti	-11.0736
▁natija	-11.0736
▁rwehkom	-11.0736
▁houssem	-11.0736
▁interview	-11.0737
▁notlob	-11.0737
▁gadefi	-11.0737
▁hasard	-11.0737
▁toooop	-11.0737
▁dope	-11.0737
▁simplement	-11.0737
▁yonsrik	-11.0737
▁ragued	-11.0737
▁yomken	-11.0738
ajja	-11.0738
▁mezwed	-11.0738
assan	-11.0739
▁mbrouk	-11.0739
▁houm	-11.0741
▁jemhour	-11.0741
▁koursi	-11.0741
▁talvza	-11.0742
▁mouwaten	-11.0742
éf	-11.0743
▁wmay	-11.0744
▁eryehi	-11.0744
▁rapeur	-11.0746
ue	-11.0746
▁etofla	-11.0747
▁mawthou	-11.0747
▁bitbi	-11.0748
▁dhamir	-11.0749
▁oskot	-11.0749
ammem	-11.0749
▁rached	-11.0751
▁aktar	-11.0751
▁lemfach	-11.0751
▁exp	-11.0753
▁ry	-11.0754
▁lahin	-11.0755
▁sluma	-11.0758
athha	-11.0759
▁80	-11.0759
▁brasmi	-11.076
▁talfza	-11.0763
▁yetrabba	-11.0764
▁farhanin	-11.0768
▁chebbi	-11.0769
▁rajell	-11.077
▁élu	-11.0772
▁ytraba	-11.0773
▁zitouni	-11.0775
▁ep	-11.0777
▁khaled	-11.0778
▁mahzla	-11.0778
▁slaf	-11.078
▁26	-11.0781
▁tarikh	-11.0782
▁joret	-11.0782
bara	-11.0783
ria	-11.0787
beya	-11.0788
▁elbeji	-11.0788
▁ahad	-11.0797
▁kool	-11.0799
▁kharj	-11.08
najjem	-11.08
▁vers	-11.0801
dhim	-11.0801
▁mzal	-11.0804
▁khatrek	-11.0805
eeer	-11.0805
▁future	-11.0806
▁frr	-11.0807
▁tanja	-11.0809
▁act	-11.0811
▁emte	-11.0811
hhhhhhhhhhhhh	-11.0812
▁attaque	-11.0813
jmou	-11.0814
▁nakrhou	-11.0814
▁lellah	-11.0815
▁eche	-11.0816
ollek	-11.0818
iiiit	-11.0818
alh	-11.0819
▁zouk	-11.082
▁errais	-11.0823
▁freret	-11.0828
bat	-11.0828
▁telhe	-11.0829
èr	-11.0832
▁hizb	-11.0834
▁léfri	-11.0838
▁minnek	-11.0838
siyasa	-11.084
khra	-11.0844
▁alllah	-11.0846
achetna	-11.0846
▁rassek	-11.0847
kher	-11.0848
▁katar	-11.0848
▁msh	-11.0853
llem	-11.0854
▁tabe	-11.0856
lll	-11.0856
ouka	-11.0858
▁yedek	-11.0862
douch	-11.0865
▁bhima	-11.0866
err	-11.0867
rd	-11.0874
▁bouha	-11.0879
▁intidabet	-11.088
▁snn	-11.0882
▁fey	-11.0887
▁hl	-11.0895
▁maana	-11.0897
▁leli	-11.0899
▁heyla	-11.0905
aje	-11.0912
ajla	-11.0913
▁yaj	-11.0915
▁dema	-11.0915
▁andna	-11.0919
awenhom	-11.092
dr	-11.0922
▁eno	-11.0922
jeni	-11.0923
▁rahoum	-11.0924
▁lecha	-11.0925
irek	-11.0925
▁hahahahah	-11.0926
snin	-11.0927
▁encha	-11.0928
▁chbeba	-11.0929
▁mnha	-11.0929
▁jih	-11.093
lkol	-11.0931
eeek	-11.0931
▁abdel	-11.0934
▁hawk	-11.0934
ekh	-11.0936
trou	-11.094
mit	-11.094
▁han	-11.0942
▁soi	-11.0944
▁lkhir	-11.0945
▁sidhom	-11.0949
onaya	-11.0949
▁wenchalla	-11.0957
▁fais	-11.096
▁erhab	-11.096
▁sahit	-11.0962
▁thin	-11.0963
barek	-11.0963
uni	-11.0971
douha	-11.0975
▁ommou	-11.0979
▁ayem	-11.0979
edd	-11.0983
ibra	-11.0985
afel	-11.0989
▁10000	-11.0995
▁lita	-11.0999
▁aslou	-11.1002
▁tfara	-11.1004
▁tfo	-11.1007
▁habtou	-11.1007
▁pffffff	-11.1008
▁nharin	-11.1009
▁sli	-11.1011
▁zo	-11.1011
ù	-11.1015
▁fhem	-11.1016
▁raisna	-11.1029
hrou	-11.1031
▁éch	-11.1032
▁chedin	-11.1034
mara	-11.104
▁biih	-11.104
anta	-11.104
ball	-11.1044
▁ihib	-11.1047
▁chayy	-11.1047
▁ysal	-11.1049
llllll	-11.1054
ft	-11.1057
▁maman	-11.1064
▁tfaraj	-11.1064
▁sakrou	-11.1065
ararat	-11.1068
▁zi	-11.1076
▁leflouss	-11.1077
▁chbe	-11.1081
inih	-11.1081
▁tl	-11.1084
▁behin	-11.1084
▁mok	-11.1088
hè	-11.1092
▁sfe	-11.1097
thin	-11.1098
▁til	-11.11
mu	-11.1102
▁rai	-11.1107
ght	-11.111
boun	-11.1114
▁walo	-11.1114
netha	-11.1114
▁hamdoula	-11.1119
alef	-11.112
ooooooooo	-11.1125
▁wasl	-11.1127
adra	-11.1129
▁wnti	-11.113
▁rous	-11.1132
▁ihem	-11.1132
▁gharbi	-11.1132
▁khit	-11.1135
ajdi	-11.1143
▁naw	-11.1152
fir	-11.1154
▁tawfik	-11.1156
▁bacha	-11.1158
oulin	-11.1159
▁tasm	-11.1175
▁bima	-11.1176
achem	-11.1179
hra	-11.1186
nhar	-11.1188
réf	-11.1188
▁fadit	-11.119
▁kla	-11.1195
▁nanta	-11.1198
hwa	-11.1201
▁ydez	-11.1205
idk	-11.1206
▁baha	-11.1206
ottou	-11.1212
▁radhi	-11.1215
mid	-11.1221
▁beleh	-11.1223
▁bahia	-11.1227
▁ridh	-11.1227
hamdoulah	-11.1229
▁ykhali	-11.123
edna	-11.123
▁chem	-11.1233
▁atrous	-11.1235
vent	-11.1237
▁entre	-11.124
rya	-11.1241
ée	-11.1244
▁jiha	-11.1254
sia	-11.1255
mir	-11.126
▁jayin	-11.1264
▁sorre	-11.1266
▁yerham	-11.1268
bbbb	-11.1269
sour	-11.127
inne	-11.1272
▁noir	-11.1272
▁oih	-11.1274
▁maallem	-11.1275
▁betawfi	-11.128
▁yeziou	-11.1283
▁toujour	-11.1291
▁weni	-11.1292
▁bladou	-11.1295
çon	-11.1296
▁ajr	-11.1302
▁dany	-11.1304
▁400	-11.1315
▁fille	-11.1319
▁nchofo	-11.1319
awech	-11.1319
zzz	-11.1319
▁tooooop	-11.1319
tounis	-11.1321
▁arrière	-11.1324
▁article	-11.1324
▁professionnel	-11.1324
▁ramadan	-11.1324
▁excellent	-11.1324
▁adidas	-11.1324
▁buscher	-11.1324
▁samsoum	-11.1324
▁netflix	-11.1324
▁nshlh	-11.1324
▁mojrem	-11.1324
▁couleur	-11.1324
▁solution	-11.1324
▁bok	-11.1325
▁sebssi	-11.1325
▁2015	-11.1325
▁mseken	-11.1325
▁inchaalah	-11.1325
▁hewya	-11.1326
▁barlamen	-11.1326
▁montage	-11.1326
▁birasmi	-11.1326
▁essebsi	-11.1326
▁beauté	-11.1326
▁mousalsel	-11.1327
▁fawdha	-11.1328
▁marzen	-11.1328
▁wnchala	-11.1328
▁mathweh	-11.1329
▁média	-11.1329
▁camera	-11.1329
▁siyessa	-11.1331
▁bakitni	-11.1331
▁mrakba	-11.1332
▁mojtama	-11.1332
▁msaken	-11.1332
▁ywafe	-11.1332
▁bercha	-11.1333
▁intideb	-11.1333
▁kartouch	-11.1334
▁mathlouthi	-11.1334
▁fargha	-11.1335
▁nshalah	-11.1336
aret	-11.1336
▁hlouwa	-11.1337
▁abou	-11.1337
▁tetkalem	-11.1337
▁salaire	-11.1338
▁riyehi	-11.1338
▁liclub	-11.1338
▁jahil	-11.1338
▁sakker	-11.1339
▁kithb	-11.134
▁moubarak	-11.1341
▁matloub	-11.1342
▁khayeb	-11.1342
▁msaybin	-11.1342
adhrou	-11.1343
▁fessed	-11.1346
▁marti	-11.1346
▁idin	-11.1348
▁bid	-11.135
▁bez	-11.135
yat	-11.1351
▁tardou	-11.1351
▁2008	-11.1352
▁bezaf	-11.1355
▁ykeb	-11.1355
▁rose	-11.1356
▁kharej	-11.1356
isha	-11.1357
▁tnaber	-11.1358
▁lblad	-11.1358
▁nkoun	-11.1359
▁out	-11.136
ady	-11.1363
zil	-11.1364
▁nkamlou	-11.1364
telli	-11.1365
▁lekbar	-11.1367
▁chahed	-11.1367
▁yahmi	-11.1371
ahh	-11.1372
▁hasra	-11.1374
▁tnekna	-11.1375
▁ycha	-11.1378
▁klemha	-11.1379
▁loul	-11.1379
▁dawlet	-11.138
▁inou	-11.138
mtek	-11.138
▁rayis	-11.1381
▁thebti	-11.1383
▁jmi	-11.1386
▁boutola	-11.1389
▁layam	-11.1391
▁saket	-11.1393
▁dzl	-11.1394
nchalh	-11.1394
▁dim	-11.1394
hiya	-11.1394
arja	-11.1401
▁kat	-11.1403
pi	-11.1403
▁sex	-11.1404
bhim	-11.1405
▁jah	-11.1406
▁ayamet	-11.1408
▁sure	-11.1409
ikh	-11.1411
▁yehdikom	-11.1411
endek	-11.1415
▁ide	-11.1416
▁mhak	-11.1422
hda	-11.1424
▁zad	-11.1425
▁ywafa	-11.1426
▁yefhmou	-11.1426
▁tnahi	-11.1436
▁masab	-11.144
▁ritou	-11.1441
wass	-11.1447
tli	-11.1452
ddam	-11.1454
oll	-11.1457
▁zink	-11.146
fara	-11.1461
▁choufoul	-11.1467
kal	-11.1471
▁issam	-11.1479
▁mezelet	-11.148
▁kanat	-11.1488
fdh	-11.1488
▁khouh	-11.1493
▁hezeb	-11.1494
andhomch	-11.1501
▁hezb	-11.1508
▁dinia	-11.1509
oooooooooooooo	-11.1511
amlit	-11.1517
▁jayeb	-11.1518
tat	-11.1521
▁yabka	-11.1528
elt	-11.1532
co	-11.1534
kaf	-11.1535
▁yetma	-11.1537
▁yilzim	-11.154
ahi	-11.1541
▁bhi	-11.1542
▁jwe	-11.1546
▁porte	-11.1546
▁aabed	-11.1548
mour	-11.155
▁enour	-11.1553
▁amr	-11.1553
▁bechway	-11.1558
▁nidaa	-11.1561
onf	-11.1563
▁ychid	-11.1565
eye	-11.1568
yetek	-11.157
éj	-11.157
oukom	-11.1574
▁marat	-11.1576
▁fans	-11.1578
▁aleha	-11.1579
obza	-11.1586
▁ejma	-11.1586
▁bism	-11.1586
▁aaleh	-11.159
▁chalah	-11.1592
ren	-11.1593
▁omri	-11.1594
sayer	-11.1598
sset	-11.1598
▁mét	-11.1599
▁ardh	-11.1602
▁rakoum	-11.1603
awedh	-11.1605
▁meskine	-11.1614
▁hamd	-11.1615
▁tayba	-11.1617
▁wye	-11.1618
▁errou	-11.1619
▁swi	-11.1623
▁fihh	-11.1627
néh	-11.1628
lena	-11.163
▁etheb	-11.163
▁duo	-11.1633
ène	-11.1633
nnnnn	-11.1636
▁msad	-11.1636
▁choftou	-11.1647
altou	-11.1658
▁zaki	-11.1658
ise	-11.1659
taram	-11.1667
▁zeyda	-11.1668
hl	-11.1669
alamin	-11.1675
▁swe	-11.1677
esse	-11.1678
▁entoum	-11.1678
▁rohi	-11.168
léhi	-11.1686
▁tfid	-11.1687
▁kass	-11.169
theb	-11.1693
oumou	-11.1695
mine	-11.1698
oon	-11.1704
rrrrrrrrrrr	-11.1706
amm	-11.1708
▁jan	-11.1712
▁ejey	-11.1714
▁jebha	-11.1716
▁erri	-11.1717
▁dor	-11.1723
▁kollo	-11.1732
ssem	-11.1733
▁rabiiii	-11.1734
nha	-11.1735
ibo	-11.1736
thoum	-11.1737
▁daz	-11.1738
▁keml	-11.1739
▁yhab	-11.1742
saker	-11.1745
▁tansa	-11.1745
▁nchof	-11.1752
dham	-11.1759
araj	-11.176
kkkkkkk	-11.1766
llh	-11.1767
▁rina	-11.1769
ibb	-11.177
chnowa	-11.1776
▁blanc	-11.1777
ndek	-11.1783
▁fouk	-11.1784
allm	-11.1786
jin	-11.1789
arha	-11.1793
▁fakr	-11.1793
▁she	-11.1798
▁ydour	-11.1799
▁yalzem	-11.1805
▁touche	-11.181
éss	-11.1817
▁zwa	-11.1818
▁inch	-11.1819
nant	-11.182
▁okhti	-11.1821
▁lebsa	-11.1821
atit	-11.1823
adekch	-11.1824
▁weldek	-11.1827
▁made	-11.1828
iis	-11.1837
wij	-11.184
meltou	-11.1845
▁moche	-11.1848
oulelna	-11.185
▁wchouf	-11.1851
▁ve	-11.1851
▁premier	-11.1855
kma	-11.1856
tamar	-11.1858
louha	-11.1861
▁magh	-11.1868
▁loun	-11.1869
▁talab	-11.1871
kamil	-11.1871
yhi	-11.1872
hit	-11.1874
▁kloub	-11.1875
adder	-11.1882
mhom	-11.1882
▁nitsaw	-11.1882
▁romdhane	-11.1885
chmou	-11.1886
▁touslou	-11.189
atin	-11.1892
▁enheb	-11.1893
hé	-11.1895
▁wlla	-11.1898
▁rassi	-11.1899
tibar	-11.19
▁yakoun	-11.1901
▁karahtoun	-11.1902
▁tayeb	-11.1904
▁simple	-11.1907
awlek	-11.1908
▁weldin	-11.1908
oto	-11.1909
hik	-11.1912
▁wdima	-11.1916
▁buz	-11.1916
quelle	-11.1918
▁zayd	-11.192
▁zbi	-11.1926
▁56	-11.1931
nejem	-11.1932
▁mechia	-11.1942
rawlou	-11.1942
▁faute	-11.1943
atem	-11.1947
▁majd	-11.1948
▁baaaarcha	-11.1949
▁possible	-11.1949
▁experience	-11.1949
▁romdan	-11.1949
▁nouveau	-11.1949
▁always	-11.1949
▁amical	-11.1949
▁guys	-11.1949
▁legend	-11.1949
▁souissi	-11.1949
▁mabrouuk	-11.1949
▁tghani	-11.1949
▁2016	-11.195
▁ajnabi	-11.195
ehna	-11.195
▁machaallah	-11.1951
▁fond	-11.1952
▁marzougi	-11.1952
▁adheka	-11.1952
▁nestanna	-11.1953
▁mouzika	-11.1954
▁khayef	-11.1954
▁modareb	-11.1954
▁sbitar	-11.1955
▁maghreb	-11.1955
▁marhba	-11.1955
▁fikoum	-11.1955
▁chleka	-11.1956
▁nokta	-11.1957
koumet	-11.1957
▁rjelha	-11.1958
▁yelzim	-11.1958
▁tekdhbou	-11.1958
▁chekoun	-11.1959
▁lfilm	-11.1959
▁chfama	-11.196
▁selouma	-11.196
▁ghnaya	-11.196
awatef	-11.196
dj	-11.1961
▁besif	-11.1963
▁axe	-11.1963
▁faux	-11.1964
atér	-11.1964
▁fekret	-11.1966
▁thawadi	-11.1966
▁frança	-11.1967
▁bessem	-11.1968
▁telhit	-11.197
▁yostrek	-11.1971
▁mnt	-11.1971
▁gasrin	-11.1973
▁likleb	-11.1974
ték	-11.1975
▁nestanaw	-11.1977
▁ndhifa	-11.1978
▁tih	-11.1978
▁ydhaher	-11.1979
▁yehmik	-11.198
aaar	-11.1981
thib	-11.1982
▁thabel	-11.1983
jr	-11.1983
aks	-11.1984
▁mizel	-11.1987
▁saiid	-11.1987
kya	-11.1991
ast	-11.1991
dit	-11.1993
▁yonsorna	-11.1993
▁feli	-11.1995
▁merda	-11.1996
▁hedh	-11.1998
▁dhaherli	-11.1999
▁hethy	-11.2
▁sellim	-11.2001
▁echabeb	-11.2001
asen	-11.2002
▁yaamel	-11.2003
▁yekhdmou	-11.2003
▁nouslou	-11.2009
▁ndif	-11.2009
▁sbé	-11.2009
ç	-11.201
▁ayoub	-11.201
atih	-11.2011
▁tnajjem	-11.2012
alel	-11.2012
▁ltounis	-11.2021
▁féha	-11.2022
▁efhem	-11.2023
▁mimtou	-11.2024
▁double	-11.2024
▁jbali	-11.2027
▁toun	-11.2027
▁wmba	-11.2027
▁machya	-11.203
▁rj	-11.2033
▁tetla	-11.2035
▁hobi	-11.2035
▁rez	-11.2039
▁nide	-11.204
▁prochain	-11.2041
▁chmda	-11.2042
mem	-11.2043
njah	-11.2044
▁wej	-11.2044
▁fomou	-11.2045
afouch	-11.2046
▁300	-11.2047
▁chihem	-11.205
▁sayidi	-11.2051
alamia	-11.2056
▁elhak	-11.2059
▁edour	-11.207
ehi	-11.207
▁yasir	-11.2071
jech	-11.2073
▁lteli	-11.2074
▁tbarkala	-11.2075
▁brvo	-11.2076
▁kaad	-11.2076
▁mark	-11.2077
▁tfarj	-11.2077
▁maskin	-11.2082
doum	-11.2086
alaykom	-11.2089
ron	-11.2091
klam	-11.2094
▁eil	-11.2094
kouch	-11.2096
meri	-11.2097
▁sabb	-11.2101
rjo	-11.2104
▁slimani	-11.211
▁kim	-11.2111
▁souk	-11.2118
ghal	-11.2118
▁nchoufouk	-11.2118
▁sawet	-11.2121
▁salafi	-11.2122
▁chno	-11.2123
▁idir	-11.2123
▁ghana	-11.2127
▁bom	-11.2128
raaa	-11.2129
où	-11.2131
▁trouve	-11.214
▁najm	-11.214
▁rba	-11.2141
▁quelque	-11.2142
bous	-11.2144
ebbek	-11.2146
feh	-11.2147
▁kifo	-11.2147
▁hezou	-11.2148
▁propos	-11.2149
louna	-11.215
▁welou	-11.2153
▁partage	-11.2154
ott	-11.2157
▁ath	-11.2158
welli	-11.2158
▁saheb	-11.2162
▁fol	-11.2162
cation	-11.2162
▁kileb	-11.2164
▁pablo	-11.2169
▁pré	-11.2172
▁zar	-11.2173
indi	-11.2178
▁wledna	-11.2183
▁karama	-11.2183
nen	-11.2184
▁fahm	-11.2186
▁hika	-11.2191
▁haki	-11.2194
retha	-11.2197
ssad	-11.2204
▁mathabin	-11.2205
▁dt	-11.2207
▁mant	-11.2207
▁rajoul	-11.2209
▁kama	-11.221
▁ykoul	-11.2214
▁bader	-11.2218
▁yehki	-11.2219
▁ezab	-11.2223
yb	-11.2225
▁kab	-11.2225
▁1000000	-11.2226
hkou	-11.2227
▁dmou	-11.2238
▁wellah	-11.224
▁sabou	-11.2244
tehom	-11.2244
afes	-11.2246
▁mamstou	-11.2247
▁klemk	-11.2247
▁afdha	-11.225
▁fetna	-11.2252
yka	-11.2254
▁rw	-11.2258
▁ilwa	-11.2263
àl	-11.2265
▁ig	-11.227
▁bomaye	-11.2275
andhoum	-11.2276
▁slimmm	-11.2277
▁zey	-11.2278
added	-11.228
▁tnajam	-11.2283
iiiiiiiiii	-11.2286
dan	-11.2288
▁mardh	-11.229
eyya	-11.229
▁ramz	-11.2291
▁hama	-11.2293
▁chrab	-11.2301
awe	-11.2301
ffffff	-11.2303
kammel	-11.2303
arabia	-11.2304
▁njibo	-11.2305
▁mkch	-11.2307
jour	-11.2308
▁tasla	-11.2314
▁trach	-11.2319
▁dakhl	-11.232
▁kano	-11.2324
kaber	-11.2327
lkoura	-11.2328
lila	-11.2332
awna	-11.2333
▁demande	-11.2334
▁esser	-11.2337
▁mà	-11.2337
▁jouret	-11.2338
ayi	-11.2343
▁lbe	-11.2344
▁andhom	-11.2345
▁swiss	-11.2346
euse	-11.2347
▁amis	-11.2348
mell	-11.2356
ouuuuuu	-11.2356
▁yta	-11.2362
▁jeyb	-11.2363
▁chnow	-11.2363
▁yali	-11.2363
▁tachwi	-11.2366
rfek	-11.237
▁hajja	-11.2376
ekch	-11.2376
élna	-11.2384
▁leee	-11.2384
▁lmou	-11.2389
▁bde	-11.2391
ekom	-11.2392
▁masale	-11.2395
▁tkhali	-11.2402
▁mink	-11.2405
bbb	-11.2407
▁wras	-11.2412
fta	-11.2416
▁chala	-11.2416
▁kent	-11.2428
ayid	-11.2433
▁roh	-11.2434
▁sy	-11.2435
hlek	-11.2436
▁warin	-11.2438
athkom	-11.2438
▁bountou	-11.2439
edech	-11.244
▁oma	-11.2443
▁raes	-11.2449
▁kelem	-11.2451
▁raki	-11.2453
▁saraha	-11.2459
▁tayah	-11.2468
akkk	-11.247
▁nefs	-11.2473
▁kalm	-11.2476
sawrou	-11.2476
mè	-11.2477
▁wajh	-11.2478
brabi	-11.2479
▁ahlo	-11.2482
▁chek	-11.2484
asla	-11.2485
▁ouh	-11.249
▁taref	-11.249
nc	-11.2491
chmouch	-11.2493
▁ywari	-11.2495
▁yra	-11.2499
▁thani	-11.25
▁kamal	-11.2503
arg	-11.2504
▁tounisia	-11.2505
▁eri	-11.2507
▁chbab	-11.2508
▁nawi	-11.2515
▁madhloum	-11.2517
rtha	-11.2517
▁wlhh	-11.2517
▁farh	-11.2521
farj	-11.2523
taj	-11.2526
▁echay	-11.2528
▁nahb	-11.2533
▁filastin	-11.2533
elm	-11.2534
▁lioum	-11.2538
lich	-11.254
lekher	-11.2549
tona	-11.2549
vant	-11.2551
▁enn	-11.2551
▁weta	-11.2551
irlek	-11.2554
▁bard	-11.2555
ayfa	-11.2555
▁hétha	-11.2557
▁yd	-11.2559
awil	-11.2565
▁dyal	-11.2569
soud	-11.2571
bas	-11.2572
▁voleur	-11.2576
▁apar	-11.2576
▁yahkiw	-11.2576
▁dwa	-11.2577
ud	-11.2582
▁hbel	-11.2587
machari	-11.2588
▁cheh	-11.2588
▁machalla	-11.2589
▁hm	-11.2592
▁jard	-11.2595
▁fazt	-11.2596
▁zokom	-11.2601
▁jéy	-11.2601
▁lko	-11.2603
▁hethe	-11.2605
zé	-11.2605
albou	-11.2607
fahmou	-11.2608
▁argent	-11.2612
kounou	-11.2613
mos	-11.2613
▁octobre	-11.2615
ä	-11.2615
▁rappeur	-11.2615
▁baaarcha	-11.2615
▁englais	-11.2615
▁bonheur	-11.2616
▁mosaique	-11.2616
▁voilà	-11.2616
▁yodhhor	-11.2616
▁bennour	-11.2616
▁police	-11.2616
▁vedio	-11.2617
▁choukran	-11.2617
▁slip	-11.2618
▁ymchi	-11.2619
▁zébi	-11.2619
▁lbera	-11.2619
▁fac	-11.262
▁nosbrou	-11.262
▁beuz	-11.262
▁ghoura	-11.2621
▁english	-11.2621
▁sousse	-11.2622
▁black	-11.2622
▁korssi	-11.2624
▁sportif	-11.2624
▁nestanou	-11.2624
▁cmntr	-11.2625
brou	-11.2625
▁avis	-11.2625
▁vois	-11.2627
▁nel	-11.2627
▁perdu	-11.2627
▁abdelli	-11.2629
▁madrid	-11.2629
▁tnaket	-11.263
▁khyr	-11.263
▁mouhamed	-11.263
▁melyar	-11.263
▁baadh	-11.2631
▁lwald	-11.2631
▁moudareb	-11.2632
▁mahboula	-11.2633
▁matasma	-11.2633
▁beflous	-11.2633
▁halbled	-11.2635
▁looooooool	-11.2635
▁tarajji	-11.2636
▁fassed	-11.2637
▁lfehri	-11.2637
▁akermi	-11.2638
▁rih	-11.2638
tttt	-11.2638
▁mimtak	-11.2638
▁yor	-11.2639
▁ynajim	-11.2641
ayin	-11.2641
▁braby	-11.2642
▁lejam	-11.2644
▁jouaret	-11.2644
▁chn	-11.2644
▁bahri	-11.2645
▁az	-11.2649
▁nayik	-11.2649
▁enahda	-11.2652
▁poli	-11.2653
▁hawel	-11.2655
ella	-11.2655
▁mounadh	-11.2656
obz	-11.2656
telhom	-11.2657
▁chihemek	-11.2657
haka	-11.2657
aren	-11.2659
inha	-11.266
▁balad	-11.266
zet	-11.2662
▁america	-11.2663
▁rijel	-11.2663
abt	-11.2664
▁siesa	-11.2664
▁annaba	-11.2664
barcha	-11.2666
▁telbes	-11.2666
▁neyek	-11.2668
▁kadeb	-11.2668
▁kolchay	-11.2668
▁dawer	-11.2669
▁syesa	-11.2672
rm	-11.2672
▁moslimin	-11.2672
▁hadoum	-11.2673
▁ilyoum	-11.2674
▁wahrt	-11.2674
▁fachil	-11.2675
▁akhi	-11.2677
azz	-11.2678
▁seket	-11.2678
▁omma	-11.2679
▁yabta	-11.268
▁sonia	-11.2682
ratiya	-11.2684
▁hathouma	-11.2686
arba	-11.2688
▁mnaik	-11.2692
▁mimtek	-11.2693
▁surprise	-11.2693
▁voter	-11.2694
▁chak	-11.2694
▁milliards	-11.2695
▁joeur	-11.2696
▁ekoun	-11.2697
▁vis	-11.27
▁artist	-11.2701
▁mabin	-11.2703
allo	-11.2705
▁sayara	-11.2707
ehich	-11.2708
▁nikomek	-11.2708
▁sarek	-11.2709
▁bis	-11.2709
▁kodem	-11.271
▁wassil	-11.2712
▁ilkoul	-11.2717
▁numero	-11.2729
ezbek	-11.2732
▁ndir	-11.2735
asha	-11.2738
▁anni	-11.2739
lbou	-11.2741
▁dji	-11.2743
ajem	-11.2743
▁hamdou	-11.2743
▁bendir	-11.2745
▁etti	-11.275
▁kor	-11.2755
▁wkif	-11.2755
▁gg	-11.2759
▁siyasiya	-11.276
▁eslim	-11.2765
▁yachfiha	-11.2766
▁back	-11.2767
▁wsayeb	-11.2768
fffff	-11.2772
▁moment	-11.2772
rath	-11.2775
▁minnou	-11.2777
abech	-11.2778
▁belgd	-11.2778
▁kalib	-11.278
▁hareb	-11.2781
▁chnoi	-11.2783
▁habat	-11.2786
▁finale	-11.2789
▁martek	-11.2789
▁mechin	-11.279
▁mimti	-11.2794
mna	-11.2796
▁ezah	-11.2796
▁lihoud	-11.2801
▁pé	-11.2807
ajbek	-11.2808
▁nhebbou	-11.2809
▁arbi	-11.2814
▁rib	-11.2815
chouf	-11.2815
▁masal	-11.2819
▁def	-11.2823
▁inte	-11.2825
amam	-11.2826
▁sket	-11.2827
▁slem	-11.2827
ééé	-11.2838
idin	-11.2841
▁yeah	-11.2842
marra	-11.2843
▁ychedha	-11.2843
▁ajl	-11.2844
oriya	-11.2844
▁hezz	-11.2845
sart	-11.2846
▁fath	-11.2846
lbled	-11.2854
▁chedd	-11.2857
ikkk	-11.2859
awda	-11.2867
▁aziz	-11.2867
▁rouss	-11.2869
▁gabi	-11.287
som	-11.2871
▁rouha	-11.2872
▁masir	-11.2875
rfouk	-11.2885
ayy	-11.2886
▁monafi	-11.2889
▁mash	-11.289
seya	-11.2891
▁nami	-11.2891
▁yasla	-11.2891
▁yehdina	-11.2892
▁dhaya	-11.2896
fine	-11.2897
▁sabit	-11.2901
fes	-11.2901
▁behom	-11.2902
rbou	-11.2904
▁chedou	-11.2905
▁acha	-11.2908
▁nchaj	-11.2909
▁haram	-11.291
▁jamil	-11.2912
▁malgre	-11.2916
▁flousse	-11.2917
▁tot	-11.2926
bled	-11.2927
▁tefha	-11.293
▁insta	-11.2932
▁hakem	-11.2934
wè	-11.2935
▁yeklou	-11.2937
▁hasit	-11.2944
alemmm	-11.2951
▁dislikes	-11.2952
▁nmoutou	-11.2955
▁thniy	-11.2956
otha	-11.2958
pha	-11.2959
mission	-11.2959
▁akth	-11.2961
taf	-11.2965
▁lahwa	-11.2969
▁tayech	-11.2978
gg	-11.2979
▁youja	-11.2979
frah	-11.298
été	-11.2983
▁yehlk	-11.2985
▁siyesi	-11.2985
wf	-11.2986
adit	-11.2987
fahem	-11.2987
oy	-11.2989
▁hazina	-11.299
▁siasa	-11.2994
adih	-11.2995
▁saff	-11.2999
ibouk	-11.3
▁thes	-11.3004
▁yetsal	-11.3005
▁yasi	-11.3005
ded	-11.3012
ammar	-11.3014
▁prime	-11.3021
dhek	-11.3022
abess	-11.3023
este	-11.3023
fit	-11.3024
▁mafam	-11.3027
▁chna	-11.3033
assen	-11.3034
▁riah	-11.3035
▁khat	-11.3036
▁class	-11.3038
ayf	-11.3041
▁mazou	-11.3041
achwa	-11.307
▁soo	-11.3073
▁sarra	-11.3073
▁masoul	-11.308
serna	-11.3082
▁pff	-11.3087
sbou	-11.3087
▁bakani	-11.309
ritou	-11.3091
▁almo	-11.3096
▁ô	-11.3101
nine	-11.3102
flouss	-11.3103
ète	-11.3105
▁fu	-11.3106
jaw	-11.3107
▁errab	-11.3107
▁su	-11.3108
rani	-11.3109
blo	-11.3114
awnik	-11.3114
asdawi	-11.3115
éh	-11.3115
kbar	-11.3116
amet	-11.3116
behi	-11.3119
▁ejdida	-11.312
ibouch	-11.3128
day	-11.3133
layhi	-11.3143
asel	-11.3148
▁yeji	-11.3155
lél	-11.3158
▁fek	-11.3159
ibin	-11.3162
dhen	-11.3164
▁hatou	-11.3166
▁nechri	-11.3168
▁kr	-11.3169
altin	-11.3172
loulhom	-11.3173
aras	-11.3174
ive	-11.3175
▁moudir	-11.3175
arfou	-11.3182
ayar	-11.3185
efriqui	-11.3187
wha	-11.3189
▁yostor	-11.3189
refech	-11.3192
▁tist	-11.3201
yra	-11.3201
▁mansour	-11.3202
▁ezin	-11.3207
▁nesta	-11.3208
adesh	-11.3209
▁yatl	-11.3209
atba	-11.3212
arjin	-11.3212
ndo	-11.3215
▁wafi	-11.3222
▁esem	-11.3225
▁cash	-11.3228
zzzz	-11.3229
etta	-11.3229
▁bey	-11.3235
ibe	-11.3243
bor	-11.3243
eeeeeeeeeeeeeee	-11.3244
▁ky	-11.3245
▁chne	-11.3246
▁contenu	-11.3249
▁jari	-11.3255
ac	-11.3257
eeeeeeeeeeee	-11.3257
alma	-11.3261
ftou	-11.3262
rich	-11.3262
▁omor	-11.3263
▁intikhabet	-11.3269
▁bjam	-11.327
▁kife	-11.3271
▁sloumaaa	-11.3271
mouhem	-11.3276
awef	-11.3277
▁waka	-11.328
rous	-11.3284
▁fasa	-11.3284
▁presiden	-11.3288
rez	-11.3289
▁recrutment	-11.3289
chay	-11.3291
▁alahom	-11.3293
▁ikhalik	-11.3293
▁welle	-11.3294
lyoum	-11.3296
ove	-11.3297
▁tlem	-11.3299
▁erraj	-11.33
▁tetna	-11.3301
▁bentou	-11.3302
▁mahl	-11.3303
beed	-11.3303
▁lhak	-11.3304
▁zebyy	-11.3306
▁mise	-11.3306
riya	-11.3308
▁baravo	-11.3308
▁tefah	-11.3309
▁borjol	-11.3314
▁blèd	-11.3319
▁lmarzou	-11.3321
elll	-11.3322
gir	-11.3323
▁nmot	-11.3323
des	-11.3329
▁encourage	-11.333
▁décision	-11.333
▁entraîneur	-11.333
▁nouvelle	-11.333
▁people	-11.333
▁épisode	-11.333
▁goddess	-11.333
▁espoir	-11.333
▁ramadhan	-11.333
▁ihanikom	-11.333
▁london	-11.333
▁choice	-11.333
▁internet	-11.333
▁dimanche	-11.333
▁berjelha	-11.333
▁lkelma	-11.333
ghanmi	-11.333
tfarej	-11.333
▁nefzi	-11.333
▁elghalya	-11.333
▁momken	-11.3331
▁ghlot	-11.3331
▁bienvenu	-11.3331
▁official	-11.3331
▁system	-11.3331
▁aïd	-11.3331
▁lyrics	-11.3331
▁publication	-11.3332
▁slayem	-11.3332
▁nebniw	-11.3332
▁haythem	-11.3334
▁brahim	-11.3334
▁titrouet	-11.3334
▁berassmi	-11.3334
▁ymarki	-11.3334
▁lbs	-11.3334
▁slemtik	-11.3335
▁dernier	-11.3335
▁ayy	-11.3335
esna	-11.3336
▁rhout	-11.3336
▁logique	-11.3336
▁tijani	-11.3336
▁staff	-11.3337
▁marioul	-11.3337
bra	-11.3337
▁aflam	-11.3337
lét	-11.3338
aho	-11.3339
▁tounés	-11.3339
▁dawlla	-11.334
▁directeur	-11.334
▁israel	-11.334
▁sanfor	-11.3341
▁hedhouma	-11.3342
▁moslem	-11.3343
▁ybareklek	-11.3343
▁chleyek	-11.3344
▁îl	-11.3344
yl	-11.3344
▁inchallh	-11.3344
▁bachoula	-11.3345
▁nakira	-11.3345
▁hijeb	-11.3345
▁elmarzouki	-11.3346
arbia	-11.3346
▁miliard	-11.3346
▁glayeb	-11.3348
▁bidaya	-11.3348
▁chlayek	-11.3348
▁yarehmou	-11.3348
▁zéd	-11.3349
▁lkorsi	-11.3349
▁zmen	-11.335
yar	-11.335
▁kresi	-11.3351
▁pleure	-11.3351
▁eriahi	-11.3351
jah	-11.3352
▁partager	-11.3354
▁tfoh	-11.3354
▁elibi	-11.3354
▁chira	-11.3354
▁safka	-11.3356
▁yohkom	-11.3356
▁seyeb	-11.3357
▁lclip	-11.3358
ossed	-11.3359
▁wintom	-11.3359
▁mayt	-11.3359
▁ynabrou	-11.3362
▁godwa	-11.3363
zar	-11.3364
▁edin	-11.3364
▁sgar	-11.3364
▁clib	-11.3365
▁domt	-11.3366
▁lmkach	-11.3366
fehem	-11.3366
▁ibarek	-11.3367
▁khidma	-11.3373
▁neklou	-11.3374
▁yehlekhom	-11.3374
▁douda	-11.3375
khmis	-11.3375
▁yfara	-11.3377
▁hy	-11.3378
▁mizyena	-11.3378
▁mofida	-11.3378
▁lbarra	-11.338
▁fayda	-11.3382
▁mochklet	-11.3383
▁dhou	-11.3383
▁mays	-11.3384
▁ohhh	-11.3385
ndha	-11.3386
antouch	-11.3389
▁william	-11.339
▁takh	-11.3391
▁manque	-11.3393
sid	-11.3394
▁sections	-11.3394
▁rjoulia	-11.3395
▁tekel	-11.3398
▁telhé	-11.3402
asrin	-11.3405
▁hamm	-11.3405
▁ash	-11.3406
jet	-11.3407
▁raghm	-11.3409
▁saref	-11.341
▁bassam	-11.341
adheb	-11.3413
▁tchof	-11.3416
bro	-11.3417
ndnech	-11.3421
yebha	-11.3421
▁kalo	-11.3422
hahahahahahahaha	-11.3423
nabara	-11.3423
sl	-11.3423
▁rassou	-11.3423
▁sayéb	-11.3426
▁rgui	-11.3428
▁dhalem	-11.3432
▁shab	-11.3432
ayda	-11.3433
▁keka	-11.3436
dheya	-11.3437
arra	-11.3438
▁lafta	-11.3439
▁traji	-11.344
▁hammami	-11.344
▁yekh	-11.3447
▁ag	-11.3448
▁oumourek	-11.3451
▁amouna	-11.3452
▁fere	-11.3453
▁bilhi	-11.3454
▁twalha	-11.3454
▁mortha	-11.3455
▁mahomech	-11.3455
▁doura	-11.3456
▁pffffffff	-11.3459
▁rakk	-11.3461
▁yoh	-11.3462
▁lif	-11.3464
▁lawa	-11.3464
▁kit	-11.3466
▁tawra	-11.3469
ffff	-11.3473
▁donne	-11.3475
▁yarahmo	-11.3475
hà	-11.3476
▁miboune	-11.3479
▁itta	-11.3479
▁tarji	-11.348
chri	-11.348
▁isaber	-11.348
▁karma	-11.3485
▁mardi	-11.3488
iyét	-11.349
▁galeb	-11.3491
alles	-11.3492
▁hasb	-11.3493
▁aghla	-11.3495
amalia	-11.3495
mmmmmm	-11.3495
▁leg	-11.3496
inchalah	-11.3497
▁mist	-11.3497
▁galo	-11.3498
cher	-11.3499
▁netman	-11.3502
▁tfarejt	-11.3503
▁yetna	-11.3503
▁mchat	-11.3506
achra	-11.351
▁masala	-11.351
▁blahi	-11.351
▁tfakrou	-11.3511
▁gid	-11.3511
▁bilah	-11.3513
ouuuuuuuu	-11.3518
jebkom	-11.3519
▁tkalmou	-11.352
▁yerba	-11.352
▁nef	-11.3522
▁dirai	-11.3523
▁nsal	-11.3523
▁yarhemha	-11.3527
omr	-11.3529
arik	-11.3529
▁raso	-11.353
▁rayiss	-11.3532
▁hakim	-11.3533
▁rjalha	-11.3537
▁walito	-11.3538
ille	-11.3542
▁mafamach	-11.3543
lee	-11.3544
▁hotel	-11.3547
▁fini	-11.3551
tu	-11.3551
kteb	-11.3558
▁krib	-11.356
▁kazi	-11.3561
▁omet	-11.3562
▁bravoooooooooo	-11.3562
abbi	-11.3564
▁hekom	-11.3564
▁galet	-11.3565
▁ybaki	-11.3568
one	-11.3571
▁bout	-11.3573
▁aftha	-11.3576
▁chikha	-11.3579
▁guir	-11.358
▁edda	-11.358
▁mathal	-11.3584
▁hw	-11.3587
biii	-11.3588
▁madha	-11.3591
roum	-11.3593
wiy	-11.3593
▁eg	-11.3594
mp	-11.3595
hum	-11.3597
▁dhib	-11.3598
klou	-11.36
kra	-11.3606
▁contr	-11.3607
▁touja	-11.3607
▁tnabrou	-11.3608
▁riadhi	-11.3609
▁neb	-11.3613
▁dina	-11.3613
▁habt	-11.3615
▁zen	-11.3616
èm	-11.3616
tif	-11.362
wija	-11.3621
hani	-11.3625
▁theni	-11.3627
awes	-11.3628
▁madama	-11.3629
wej	-11.363
▁bej	-11.3635
chnouwa	-11.3638
▁ynaj	-11.3638
▁ver	-11.3641
▁unis	-11.3642
areth	-11.3645
▁kdar	-11.3652
fham	-11.3654
dfa	-11.3655
uuuuuuuuuuuu	-11.3655
▁bditou	-11.3657
▁chet	-11.3658
▁takel	-11.3658
▁tarad	-11.366
▁zb	-11.366
▁ritha	-11.3662
athna	-11.3663
asse	-11.3664
▁dhid	-11.3666
▁kethba	-11.3668
▁rag	-11.3672
▁mskina	-11.3677
▁pfffffffffff	-11.3684
eeeh	-11.3686
▁awelhom	-11.3689
▁habs	-11.3691
houmch	-11.3694
▁enni	-11.3694
▁wlidi	-11.3695
afsa	-11.3697
▁mol	-11.3703
asan	-11.3703
▁yét	-11.3707
nzel	-11.3707
llahi	-11.3711
▁rask	-11.3713
▁ywasl	-11.3715
▁ahhh	-11.3717
▁wj	-11.372
jey	-11.3725
ture	-11.3736
▁nfi	-11.374
▁heja	-11.3741
▁ijtim	-11.3743
▁goub	-11.3745
▁roho	-11.3752
ensech	-11.3753
sbrou	-11.3756
▁wiou	-11.3762
▁zib	-11.3764
▁leghney	-11.3768
▁wtet	-11.3769
ssssssssssssssss	-11.3769
▁edd	-11.377
▁sahafi	-11.377
▁yanf	-11.3772
▁akahou	-11.3775
▁sakar	-11.3778
ore	-11.3779
lhi	-11.3781
▁hath	-11.3786
▁chadou	-11.3791
àk	-11.3792
▁emba	-11.3794
ô	-11.3795
▁arj	-11.3797
abek	-11.3798
dkom	-11.3801
▁klamou	-11.3803
▁khalina	-11.381
chiri	-11.3812
arabiya	-11.3812
▁tarje	-11.3814
alemm	-11.3816
ème	-11.382
▁us	-11.3822
inina	-11.3824
▁thki	-11.3827
leek	-11.3829
▁ytaba	-11.3832
deh	-11.3832
▁temchich	-11.3835
kima	-11.3841
▁lghali	-11.3842
▁see	-11.3843
▁tekh	-11.3845
▁dahra	-11.3846
▁belou	-11.3851
▁kanou	-11.3851
▁emin	-11.3856
▁jdide	-11.386
▁laf	-11.3861
helou	-11.3861
▁hammam	-11.3869
ilkom	-11.3871
chin	-11.3872
▁chrifa	-11.3874
▁rohk	-11.3875
▁ifadhl	-11.3876
▁sot	-11.3878
▁tyy	-11.388
▁fanen	-11.388
alil	-11.3883
adach	-11.3886
▁yhib	-11.3899
hez	-11.39
▁mazo	-11.39
uma	-11.3906
▁etaba	-11.3908
▁tro	-11.3909
mot	-11.3909
▁sinn	-11.391
kid	-11.3911
▁lwah	-11.3915
▁chikh	-11.3918
nyek	-11.3926
▁any	-11.3929
▁ksar	-11.3929
▁jabouh	-11.3931
anda	-11.3932
fouk	-11.3934
▁zal	-11.3936
▁bta	-11.3939
▁wfe	-11.394
▁prochaine	-11.394
zantour	-11.3941
▁chari	-11.3944
▁amem	-11.3946
chabeb	-11.3947
▁pou	-11.3947
wou	-11.3948
▁liste	-11.3953
▁mess	-11.3955
arrej	-11.3956
yab	-11.3962
▁lu	-11.3964
▁fom	-11.397
▁badlou	-11.397
saret	-11.3975
mleln	-11.3977
bn	-11.3979
nte	-11.3981
▁cor	-11.3982
▁ami	-11.3985
ibbou	-11.3986
enn	-11.3989
▁hlou	-11.3992
▁etounsia	-11.3992
▁kedhba	-11.4
faker	-11.4001
hhhhhh	-11.4001
thim	-11.4002
khali	-11.4008
ajti	-11.4013
▁esma	-11.4017
▁désolé	-11.4018
ayna	-11.402
▁notl	-11.4021
▁louke	-11.4022
▁nad	-11.4026
▁rajli	-11.4028
▁esse	-11.4032
ting	-11.4033
nter	-11.4033
▁clair	-11.4038
bih	-11.4041
▁yaaml	-11.4041
emba	-11.4042
▁why	-11.4044
▁jaybin	-11.4047
▁barnamj	-11.4047
▁sayid	-11.4048
▁pivo	-11.405
▁tenu	-11.405
douna	-11.4051
▁lfo	-11.4053
▁ily	-11.4054
▁kalma	-11.4064
zouni	-11.4066
▁ihtiram	-11.4068
▁bitawfi	-11.4069
amlouha	-11.4071
▁elfe	-11.4072
tet	-11.4072
bidi	-11.4073
▁inter	-11.4077
arfek	-11.4079
rad	-11.4081
▁oublie	-11.4085
▁amer	-11.4086
▁houta	-11.4086
▁mlay	-11.4087
ky	-11.4088
▁sayebha	-11.409
▁wyna	-11.4093
▁hil	-11.4095
ajm	-11.4096
▁comm	-11.4097
▁leo	-11.4098
▁mdrrr	-11.4098
▁concept	-11.4099
▁concour	-11.4099
▁maintenant	-11.4099
▁scénario	-11.4099
▁titrouwet	-11.4099
▁carthage	-11.4099
▁sliiiim	-11.4099
▁nabeul	-11.4099
▁story	-11.4099
▁sublime	-11.4099
▁adorable	-11.4099
▁voix	-11.4099
▁debut	-11.4099
▁plein	-11.4099
▁lemhaf	-11.4099
▁baarcha	-11.41
▁2014	-11.41
▁jbora	-11.41
▁prix	-11.41
▁drapeau	-11.41
▁source	-11.41
▁lunette	-11.41
▁football	-11.41
▁liberté	-11.4101
▁tarred	-11.4101
▁bourjouleya	-11.4101
▁yghani	-11.4101
kdim	-11.4101
▁essentie	-11.4102
▁avocat	-11.4103
▁bizarre	-11.4103
▁barnamaj	-11.4103
▁edanadik	-11.4103
▁baramij	-11.4103
▁nitmana	-11.4104
▁talifoun	-11.4105
▁tektheb	-11.4106
▁nw	-11.4106
▁jawebni	-11.4107
▁book	-11.4107
kif	-11.4107
▁recherche	-11.4108
▁wooow	-11.4108
▁bagra	-11.4108
▁barnamij	-11.4109
▁votit	-11.4109
▁coller	-11.411
▁chr	-11.411
▁moussi	-11.411
▁fawtha	-11.4111
▁championa	-11.4111
▁rwahkom	-11.4112
▁ommok	-11.4112
▁imarat	-11.4112
▁mos	-11.4113
▁eddenya	-11.4114
▁gadhefi	-11.4114
▁yfadhlek	-11.4115
▁maslaht	-11.4116
▁atamana	-11.4116
▁arjil	-11.4117
▁bisif	-11.4117
▁feri	-11.4118
▁sgir	-11.4118
▁amthelek	-11.412
▁rajjel	-11.412
▁mandhrek	-11.412
▁guerr	-11.4121
aniw	-11.4122
▁fibelou	-11.4123
▁essayed	-11.4123
stade	-11.4123
▁fahim	-11.4124
adeha	-11.4125
▁rebbi	-11.4126
▁tekber	-11.4127
▁dhhor	-11.4127
▁manajmouch	-11.4128
ayawen	-11.4128
itaire	-11.4129
▁responsable	-11.413
▁khamja	-11.4133
tlha	-11.4133
ney	-11.4134
▁ghrab	-11.4135
▁yokhrej	-11.4135
rka	-11.4135
▁jehel	-11.4135
▁bhama	-11.4136
▁lebhim	-11.4137
▁afr	-11.4138
▁btari	-11.4139
kono	-11.4139
▁noss	-11.4141
▁akhtana	-11.4141
▁sloumma	-11.4142
▁entidabet	-11.4142
▁train	-11.4142
▁continuer	-11.4145
▁yizzi	-11.4146
▁babour	-11.4147
▁mestir	-11.4149
ahra	-11.415
▁kadhab	-11.4151
▁bath	-11.4151
▁twasel	-11.4152
▁ewaf	-11.4152
▁lehin	-11.4153
▁yosref	-11.4155
▁wost	-11.4155
▁berabi	-11.4159
▁betawfik	-11.416
▁jeux	-11.4161
▁akhbar	-11.4162
▁tebni	-11.4166
▁wlid	-11.4166
▁mouchkel	-11.4168
▁tjibeln	-11.4168
▁belah	-11.4169
▁farga	-11.4169
azoni	-11.4171
iyan	-11.4172
▁tahhan	-11.4172
▁pire	-11.4172
▁nisma	-11.4175
▁seyb	-11.4176
▁yka	-11.4177
galb	-11.4181
▁mnawra	-11.4182
▁chbeb	-11.4184
sef	-11.4184
▁brbi	-11.4186
barka	-11.4187
▁bita	-11.4189
▁fthaye	-11.419
ayrou	-11.4191
▁wahadha	-11.4192
ybek	-11.4193
▁ysad	-11.4194
abna	-11.4195
less	-11.42
▁watanya	-11.42
ajam	-11.4201
▁lyouma	-11.4207
▁ychoufou	-11.4207
▁ezza	-11.421
▁challa	-11.421
▁tefhmou	-11.4211
blou	-11.4211
▁fesda	-11.4213
waten	-11.4213
▁yberek	-11.4215
fas	-11.4215
ndouch	-11.4216
iiiiiiiiiiit	-11.4217
▁yester	-11.4218
asbouna	-11.422
▁jarida	-11.4221
▁lwatani	-11.4223
▁bnaya	-11.4226
▁yekel	-11.4226
▁abonnés	-11.4228
ittt	-11.4229
lw	-11.4231
aned	-11.4233
fez	-11.4233
▁lefr	-11.4238
▁mezyana	-11.4239
▁mahoch	-11.424
▁fihoum	-11.4241
▁okhtek	-11.4243
▁marrat	-11.4244
ster	-11.4244
traba	-11.4245
▁shit	-11.4249
iiiiit	-11.425
▁mnk	-11.4254
oth	-11.4256
▁lourd	-11.4257
adedi	-11.4259
▁boos	-11.4259
▁achkel	-11.4262
▁batil	-11.4264
▁etwans	-11.4265
rage	-11.4265
line	-11.4265
▁kbiiir	-11.4266
▁nitha	-11.4267
▁talga	-11.4268
almiya	-11.4269
▁yetk	-11.4273
▁yahdina	-11.4275
▁sabrin	-11.4277
tawna	-11.4279
▁raouf	-11.4282
▁merte	-11.4284
▁lmochkl	-11.4285
kun	-11.429
haz	-11.4292
endna	-11.4294
▁mez	-11.4294
▁loulad	-11.4294
▁jaim	-11.4295
▁bhy	-11.4297
▁islim	-11.4298
▁ayam	-11.4307
rza	-11.4309
▁titer	-11.4313
▁wassa	-11.4316
dkoum	-11.4317
jrou	-11.432
alsou	-11.432
lma	-11.432
▁wraha	-11.4321
▁ahhhh	-11.4321
▁walew	-11.4323
▁prof	-11.4325
oj	-11.4327
▁lawel	-11.4329
▁kaff	-11.4329
fess	-11.4337
▁yhezou	-11.4341
zzzzzzzzzzzzzzz	-11.4344
eci	-11.4348
▁tg	-11.4349
▁lelleh	-11.4357
ytawel	-11.4358
tchouf	-11.4361
▁jebtou	-11.4361
▁aalech	-11.4362
darha	-11.4363
▁bank	-11.4364
▁carte	-11.4366
adhra	-11.4366
lsou	-11.4367
kouki	-11.4371
▁hyet	-11.4372
fakrou	-11.4377
tlo	-11.4378
▁regu	-11.4382
▁maban	-11.4383
tfrj	-11.4386
▁irak	-11.4386
▁rays	-11.4387
▁tnek	-11.4387
▁niko	-11.4388
▁khala	-11.4388
▁normalmen	-11.4393
▁tonsi	-11.4393
▁bihoum	-11.4395
▁hkeyt	-11.4403
téch	-11.4404
▁eke	-11.4405
mra	-11.4412
▁chaba	-11.4412
▁tanfa	-11.4416
▁nabar	-11.442
▁action	-11.442
▁bahin	-11.442
▁tnekt	-11.4421
bikom	-11.4425
▁kifak	-11.4442
▁ké	-11.4444
nga	-11.4445
▁tkoune	-11.4445
▁bhar	-11.4448
kour	-11.445
afs	-11.4452
▁chofna	-11.4452
lga	-11.4452
mbou	-11.4454
▁marre	-11.4457
▁islami	-11.4458
ush	-11.4458
chemch	-11.4459
▁mima	-11.4462
▁raf	-11.4466
melt	-11.4469
▁yechfiha	-11.4471
▁famach	-11.4471
▁nbi	-11.4472
afiya	-11.4472
▁chahri	-11.4473
▁gata	-11.4477
slem	-11.4478
▁chre	-11.4478
▁jbel	-11.448
▁limas	-11.4483
ndou	-11.4484
▁ghirek	-11.4486
▁arb	-11.4487
yout	-11.4488
▁tafaha	-11.4489
▁lfou	-11.449
▁lebess	-11.4492
lakhater	-11.4492
▁ino	-11.4496
▁chokr	-11.4497
kum	-11.4497
▁rasha	-11.4498
▁rake	-11.4498
sssss	-11.4498
▁rjou	-11.45
▁drama	-11.4504
▁jeu	-11.4505
▁amara	-11.4505
helna	-11.4508
▁sghira	-11.4509
▁mase	-11.4519
wadh	-11.452
▁karh	-11.452
▁hahahahahahahah	-11.4522
istes	-11.4526
▁waslou	-11.4528
ov	-11.4533
boha	-11.4533
▁flouse	-11.4537
hram	-11.4539
▁inchla	-11.454
wr	-11.4541
▁brabii	-11.4542
▁mritha	-11.4544
▁oumek	-11.4546
▁hadra	-11.4546
▁imen	-11.455
▁tham	-11.456
▁kbert	-11.4561
qui	-11.4563
▁sakr	-11.4564
▁traw	-11.4565
▁hnin	-11.4565
adhr	-11.4566
ité	-11.4566
▁selm	-11.457
tttttt	-11.457
▁awra	-11.457
teek	-11.4572
▁rebe	-11.4574
▁col	-11.4575
jebhom	-11.4577
▁ldar	-11.4577
▁ensa	-11.4579
fil	-11.4587
▁ikh	-11.459
▁entoma	-11.4592
▁tkalm	-11.4593
▁ém	-11.4596
▁kawn	-11.4598
▁masset	-11.46
▁mdrr	-11.4609
roh	-11.461
▁ykha	-11.461
▁matal	-11.4612
▁barraw	-11.4612
▁bakou	-11.4615
tarikh	-11.4616
belkom	-11.4616
▁yasta	-11.4624
nahdha	-11.4627
ltou	-11.4629
mlouha	-11.463
▁kamlou	-11.4632
litha	-11.4634
▁jor	-11.4635
▁feh	-11.4635
wo	-11.4636
nssa	-11.4641
ratia	-11.4648
hamech	-11.465
▁matchs	-11.4651
▁khalit	-11.4652
▁elleh	-11.4654
atech	-11.4657
▁ihebou	-11.466
▁fehmou	-11.4661
▁kidhb	-11.4671
indo	-11.4673
ppp	-11.4674
▁yanb	-11.4675
▁klemi	-11.4679
▁km	-11.4681
rbbi	-11.4683
▁ost	-11.4686
aila	-11.4691
▁hout	-11.4693
▁dè	-11.4693
▁mounafe	-11.4696
▁prim	-11.4696
fu	-11.47
mak	-11.4701
eeeeeeeeee	-11.4702
▁mrid	-11.4703
▁bzf	-11.4706
▁aandou	-11.4715
▁tkhaf	-11.4715
bedd	-11.4716
▁kht	-11.4719
azkom	-11.472
quand	-11.4723
lilhom	-11.4724
▁menech	-11.4724
challh	-11.4726
▁yrab	-11.4726
tiyar	-11.4727
▁sava	-11.4731
dra	-11.4737
ilia	-11.4738
▁naji	-11.4741
aaan	-11.4747
bber	-11.4749
ntouma	-11.4751
koura	-11.4757
▁winha	-11.4758
▁fera	-11.476
abdallah	-11.4762
alba	-11.4762
▁pre	-11.4763
▁tfooooo	-11.4764
▁press	-11.4767
enzel	-11.4771
▁baki	-11.4771
▁maaha	-11.4772
lllllllllll	-11.4775
bri	-11.4784
▁shn	-11.4785
▁intidab	-11.4795
dhin	-11.4796
arna	-11.4796
▁jiben	-11.4798
▁wbara	-11.48
▁yfadhal	-11.4804
dheb	-11.4805
éth	-11.4807
jaz	-11.4812
red	-11.4815
▁sbou	-11.4817
▁kadab	-11.4819
▁time	-11.4822
uuuuuu	-11.4823
▁yadh	-11.4823
▁hess	-11.4823
aylou	-11.4824
mmmmmmmmmmmmmmm	-11.4826
▁belkom	-11.4831
▁yonsor	-11.4836
athim	-11.4841
wch	-11.4844
▁dani	-11.4845
eurs	-11.4846
▁kra	-11.4846
▁mesta	-11.4848
ese	-11.4851
▁hadak	-11.4854
hhhhhhhhhhh	-11.4858
way	-11.4859
▁hop	-11.486
▁koule	-11.4862
▁bassas	-11.4864
melou	-11.4864
tra	-11.4864
tarem	-11.4865
▁bat	-11.4875
tour	-11.4875
▁etwal	-11.4877
wich	-11.4878
▁ysr	-11.4882
tansech	-11.4884
▁principe	-11.4893
awid	-11.4896
▁iwafa	-11.4898
▁abonnement	-11.49
achtna	-11.49
▁mosa	-11.4902
▁harbou	-11.4903
▁sanf	-11.4903
kitou	-11.4903
▁meak	-11.4904
mehri	-11.4907
arsa	-11.4907
▁pleur	-11.4907
azek	-11.4909
▁bless	-11.491
riahi	-11.4911
▁wledi	-11.4916
▁ilm	-11.4918
▁arrete	-11.4918
100	-11.4919
▁noumrou	-11.492
rbe	-11.4922
▁mawjoudin	-11.4924
▁wenchala	-11.4924
▁idar	-11.4925
▁tmathel	-11.4932
▁déçu	-11.4932
▁mauvais	-11.4932
▁palestine	-11.4932
▁problème	-11.4932
▁spotify	-11.4932
▁romthan	-11.4932
▁arbitrage	-11.4932
▁caméra	-11.4932
▁exactement	-11.4933
▁initiative	-11.4933
▁jarathim	-11.4933
▁lazém	-11.4933
▁miselch	-11.4933
▁adhika	-11.4933
▁azyen	-11.4933
▁prison	-11.4933
▁defenseur	-11.4933
▁kairouan	-11.4934
▁pouvoir	-11.4934
▁mwaher	-11.4934
▁seliana	-11.4934
▁clubust	-11.4934
▁torbya	-11.4935
▁hamouda	-11.4935
▁yakrhou	-11.4936
▁lasmer	-11.4936
▁bannour	-11.4936
▁finalement	-11.4937
▁elbenzarti	-11.4937
▁sayyeb	-11.4939
▁anniv	-11.4939
▁esshih	-11.494
▁zibbi	-11.494
▁essabr	-11.4941
▁mostfa	-11.4941
▁blastik	-11.4942
▁wahef	-11.4942
▁kul	-11.4942
▁torbia	-11.4942
▁marwen	-11.4943
▁elections	-11.4943
▁yaakoubi	-11.4944
▁lbnet	-11.4944
▁periode	-11.4944
▁nefdik	-11.4945
▁sehel	-11.4945
▁mnayik	-11.4946
▁impo	-11.4947
▁bébé	-11.4947
▁grinta	-11.4947
▁cause	-11.4948
▁syessa	-11.495
▁keteb	-11.4951
▁avoir	-11.4952
▁mechekel	-11.4952
▁akhaw	-11.4952
▁yonsorkom	-11.4952
▁chui	-11.4952
▁kedeb	-11.4953
▁mathwah	-11.4954
▁trou	-11.4954
▁tharba	-11.4954
raby	-11.4955
▁beklem	-11.4956
▁taktik	-11.4956
enne	-11.4957
▁ekteb	-11.4959
▁have	-11.4959
▁khan	-11.496
▁machakil	-11.4961
flos	-11.4964
▁twil	-11.4964
tej	-11.4965
▁algériens	-11.4966
▁ktib	-11.4966
▁feyda	-11.4966
rawah	-11.4966
dnc	-11.4966
▁stupid	-11.4967
▁slouuma	-11.4967
▁sahih	-11.4968
▁dhrab	-11.4968
ête	-11.4968
ouja	-11.4969
▁ltali	-11.4969
▁cheway	-11.4969
▁fakir	-11.497
▁abonner	-11.497
▁yahbet	-11.4971
▁hechm	-11.4971
▁demi	-11.4972
▁tokhrej	-11.4973
▁metrobi	-11.4974
bbbbbb	-11.4975
▁mhalem	-11.4977
▁azlam	-11.4977
▁zayid	-11.4979
wé	-11.4979
▁monaf	-11.4979
▁hassan	-11.498
▁hokm	-11.498
▁manjm	-11.4981
▁bélléh	-11.4982
▁amor	-11.4982
▁elwakil	-11.4983
▁kaies	-11.4983
▁lmedeb	-11.4984
▁ykhalil	-11.4984
▁blasset	-11.4984
▁chwiya	-11.4985
▁khayr	-11.4986
▁mafamch	-11.4987
▁laysa	-11.4987
▁tfadlik	-11.4987
▁wkhay	-11.4989
▁habtet	-11.4991
▁jolie	-11.4991
▁tfaker	-11.4991
▁len	-11.4992
rjouliya	-11.4992
▁hosni	-11.4992
▁bdé	-11.4993
liih	-11.4994
▁image	-11.4997
▁keen	-11.5
▁fils	-11.5
▁wahlek	-11.5002
▁yostorna	-11.5004
▁yosrof	-11.5004
▁chitan	-11.5006
▁ichafiha	-11.5007
▁tenbe	-11.5008
▁yjibo	-11.501
▁masakh	-11.501
abét	-11.5011
afia	-11.5011
▁berjouleya	-11.5014
▁lkleb	-11.5014
▁respects	-11.5015
▁aouet	-11.5016
▁idée	-11.5017
dmouh	-11.5017
omrk	-11.5017
▁yhot	-11.5019
▁kaly	-11.502
yna	-11.5021
▁ybark	-11.5022
▁chompion	-11.5022
▁metha	-11.5023
asnou	-11.5026
▁lkora	-11.5026
▁nchlah	-11.5028
isme	-11.5029
▁fahom	-11.5029
adir	-11.5029
akba	-11.5029
▁deniya	-11.503
▁bot	-11.5031
oma	-11.5031
▁hadher	-11.5032
▁bsi	-11.5034
▁tfarajt	-11.5035
gharbi	-11.5035
leg	-11.5037
abid	-11.5038
ndouk	-11.504
abb	-11.504
▁hethika	-11.5041
▁lahram	-11.5042
sro	-11.5044
▁rohou	-11.5044
▁iljam	-11.5046
▁thabtou	-11.5047
▁makh	-11.5048
▁elclub	-11.5048
▁jamai	-11.505
aft	-11.505
ihbi	-11.5053
ndhif	-11.5055
▁kilabou	-11.5055
▁fcb	-11.5057
awem	-11.5058
▁dziria	-11.5059
▁leader	-11.506
jè	-11.5061
ffffffff	-11.5062
▁ahaya	-11.5063
▁âm	-11.5067
▁wazir	-11.5067
▁flousk	-11.5067
▁soltani	-11.5068
▁still	-11.5068
▁ijou	-11.5068
endha	-11.5072
dddd	-11.5072
▁aura	-11.5073
kaser	-11.5074
▁ysaf	-11.5074
fech	-11.5074
▁alif	-11.5074
▁mzamra	-11.5076
▁roud	-11.5079
▁tahfouna	-11.5084
kont	-11.5084
raka	-11.5085
▁iffa	-11.5085
qou	-11.5087
▁nhot	-11.509
abra	-11.5092
▁chwaia	-11.5092
▁krahna	-11.5092
▁some	-11.5093
▁femmes	-11.5094
▁ethi	-11.5097
▁rejal	-11.5101
ès	-11.5102
▁emaak	-11.5103
aq	-11.5103
▁khalihom	-11.5104
▁rwehom	-11.5106
lougha	-11.5106
kadheb	-11.5107
inin	-11.5109
▁fthaya	-11.5111
fsad	-11.5112
▁blayes	-11.5114
▁allahomm	-11.5115
▁gam	-11.5116
▁matri	-11.5117
br	-11.512
▁nka	-11.5121
▁tafeha	-11.5122
▁lilleh	-11.5125
▁tardouh	-11.5133
▁walou	-11.5133
▁fma	-11.5134
mouu	-11.5137
arko	-11.5142
mla	-11.5142
▁fifa	-11.5143
bbi	-11.5145
▁souret	-11.5146
▁yosterna	-11.5147
kah	-11.515
▁karah	-11.5153
▁kour	-11.5154
awadhi	-11.5157
▁shouf	-11.5159
▁telheln	-11.5161
▁darhom	-11.5162
▁cherche	-11.5164
▁sormk	-11.5164
▁staf	-11.5165
kén	-11.5165
hém	-11.5167
▁chwia	-11.5167
▁mans	-11.5167
▁espere	-11.517
▁tse	-11.517
▁raykom	-11.5172
▁mekla	-11.5176
▁tabi	-11.5176
omrik	-11.5177
▁kg	-11.5179
▁ebde	-11.518
lezem	-11.5184
▁ichafi	-11.5184
▁maser	-11.5184
▁zebou	-11.519
feth	-11.5191
slouma	-11.5191
▁fihe	-11.5192
▁ejaya	-11.5195
▁manal	-11.5197
kather	-11.5197
chy	-11.52
otlek	-11.52
▁yaatikom	-11.5201
▁etlha	-11.5203
▁wnchalla	-11.5205
▁béj	-11.5209
▁manfou	-11.5213
▁iw	-11.5213
▁ayyy	-11.5215
▁liman	-11.5222
▁eslem	-11.5226
▁bdam	-11.5226
▁balik	-11.5226
▁rabha	-11.5229
▁samy	-11.523
▁fachla	-11.5231
ndkom	-11.5234
▁nchoufouh	-11.5235
▁kot	-11.5235
najamch	-11.5237
▁lemla	-11.5237
lili	-11.5239
▁allha	-11.5239
rouma	-11.524
▁mrida	-11.524
▁raditouh	-11.524
▁etari	-11.524
▁niik	-11.5241
▁serie	-11.5242
▁hadedi	-11.5245
▁ifi	-11.5246
▁machala	-11.5247
ases	-11.5247
ffffffffffff	-11.525
▁ghne	-11.525
▁yazi	-11.5255
▁thot	-11.5257
▁hahou	-11.5258
inhom	-11.5261
▁wennes	-11.5261
tlk	-11.5264
awfa	-11.5264
▁bour	-11.5269
▁assel	-11.5272
▁yjou	-11.5272
lèm	-11.5275
malch	-11.528
két	-11.528
▁yhfd	-11.5281
▁issa	-11.5282
▁wethni	-11.5285
nikom	-11.5285
boub	-11.5286
rrrrrrrrrrrrr	-11.529
édi	-11.5292
▁elwatani	-11.5296
▁prend	-11.5297
▁mchal	-11.5299
▁yfok	-11.5305
▁hazet	-11.5306
resse	-11.5307
▁esmo	-11.5307
koom	-11.5309
▁ejeya	-11.5311
▁nwa	-11.5311
▁heyy	-11.5312
mihom	-11.5313
▁more	-11.5313
▁rk	-11.5313
club	-11.5314
▁vais	-11.5314
▁ellah	-11.5316
arif	-11.5316
drou	-11.5317
osed	-11.5318
▁sabil	-11.5322
▁chku	-11.5327
▁ebni	-11.5328
▁sfar	-11.5334
▁gas	-11.5344
▁lybi	-11.5347
▁lgh	-11.5352
▁trik	-11.536
ble	-11.5361
▁dj	-11.5363
tmna	-11.5363
lllllllllllllll	-11.5368
▁fill	-11.5369
▁mani	-11.5375
alll	-11.5377
▁ysem	-11.5382
ihri	-11.5384
▁cours	-11.5385
▁probleme	-11.5386
oso	-11.5389
takom	-11.5393
char	-11.5398
▁ghall	-11.5401
▁mzia	-11.5402
▁ethe	-11.5404
▁fha	-11.5404
ghar	-11.5404
▁48	-11.5405
▁yeta	-11.5406
▁chok	-11.5406
▁lrabi	-11.5407
waya	-11.5411
▁lig	-11.5411
chabah	-11.5412
▁ira	-11.5412
akoum	-11.5412
lelkom	-11.5418
wiiii	-11.5419
▁flouso	-11.542
▁foul	-11.5424
rais	-11.5425
▁hazitou	-11.5426
jdi	-11.5427
asseb	-11.5428
▁zidhom	-11.5428
alini	-11.5429
▁yahfed	-11.5431
▁soutou	-11.5435
aaaaak	-11.5446
▁siess	-11.545
▁méch	-11.5453
dhel	-11.5456
ayat	-11.546
▁kifma	-11.5462
30	-11.5464
litou	-11.5466
indek	-11.5467
rajet	-11.5471
▁tetsam	-11.5474
▁fiik	-11.5477
▁thabt	-11.5478
▁yjii	-11.5478
▁maalam	-11.5479
jme	-11.5481
▁masri	-11.5483
wari	-11.5491
alitou	-11.5495
▁chei	-11.5501
def	-11.5503
lhaw	-11.5503
bti	-11.5504
arech	-11.5505
erie	-11.5506
dhrbou	-11.5508
▁whd	-11.5514
mlha	-11.5514
joun	-11.5517
▁etoil	-11.5517
▁elmar	-11.5518
ouul	-11.5518
ash	-11.5521
▁neja	-11.5521
refha	-11.5521
▁assa	-11.5526
jbid	-11.5527
▁btw	-11.5528
sol	-11.553
▁year	-11.5535
▁kathr	-11.5538
▁akra	-11.554
weli	-11.5547
▁amane	-11.5549
▁brk	-11.5556
▁jusqu	-11.5557
▁ejjey	-11.5559
▁likol	-11.5559
ohkem	-11.5561
▁chofo	-11.5562
▁joumhourha	-11.5562
▁chera	-11.5562
▁hammad	-11.5562
eje	-11.5562
▁dabe	-11.5563
tihad	-11.5563
kn	-11.5563
▁sabri	-11.5565
▁post	-11.5568
leeh	-11.5573
▁tfata	-11.5579
walli	-11.5579
ekdem	-11.5581
baddel	-11.5582
toha	-11.5586
kew	-11.5586
pac	-11.5586
▁raaak	-11.5587
▁isra	-11.559
choufou	-11.559
ammou	-11.5591
▁samsar	-11.5592
▁chwy	-11.5593
mchy	-11.5594
athabhom	-11.5595
libya	-11.5596
dhrou	-11.5596
akhyeb	-11.5597
▁nabbar	-11.56
▁hadaf	-11.5602
friki	-11.5602
▁mee	-11.5604
▁iraja	-11.5605
▁okra	-11.5607
aldou	-11.5607
▁mowat	-11.5612
elhoum	-11.5616
awnouh	-11.5617
▁tiiiiiiiiiiiii	-11.5618
irha	-11.5619
tine	-11.5622
nayek	-11.5628
wwwwwww	-11.5629
▁titrowet	-11.563
nel	-11.5637
ole	-11.5639
oubaa	-11.5641
dhaya	-11.5644
▁lbere	-11.5644
▁kess	-11.5652
▁thabli	-11.5653
diri	-11.5656
▁nouba	-11.5659
isaba	-11.5659
▁dhahr	-11.566
▁hip	-11.566
sob	-11.566
dék	-11.5662
ayt	-11.5665
▁takoun	-11.5667
erkeb	-11.5668
▁galia	-11.5668
yetkom	-11.5669
▁wey	-11.5675
wedi	-11.5676
lllll	-11.568
▁cot	-11.5682
ssel	-11.5682
▁msr	-11.5686
ajib	-11.5688
ible	-11.5689
▁mchoum	-11.5691
▁hakek	-11.5691
rafha	-11.5696
heya	-11.57
anawet	-11.5704
▁tabba	-11.5704
etou	-11.5706
awana	-11.5708
botola	-11.5709
gour	-11.5711
▁dhor	-11.5713
ntoma	-11.5714
oufa	-11.5714
lclub	-11.5718
▁kdheb	-11.5722
hkouma	-11.5723
▁wledha	-11.5726
▁mwa	-11.5727
ajat	-11.5727
▁meloul	-11.5729
▁alman	-11.5731
▁sayè	-11.5733
▁kaka	-11.5737
iens	-11.5737
▁dab	-11.574
yji	-11.574
los	-11.5744
ouche	-11.5749
▁khdem	-11.575
▁souf	-11.5752
▁mur	-11.5755
rga	-11.5755
▁ychfi	-11.5756
▁dhi	-11.5761
▁kayn	-11.5762
▁nd	-11.5764
▁khi	-11.5765
▁brahm	-11.5769
▁wmen	-11.5771
▁taaml	-11.5772
ssek	-11.5778
▁tbarkalla	-11.5778
▁hado	-11.5779
▁sè	-11.5786
ooooooooooooool	-11.5787
zwewla	-11.5787
barnemej	-11.5788
zwawla	-11.5792
▁fre	-11.5792
▁lbar	-11.5792
▁bz	-11.5793
▁joz	-11.5797
helhom	-11.5797
▁wsid	-11.5799
awad	-11.58
▁poubelle	-11.5802
▁dawra	-11.5803
video	-11.5811
▁vibe	-11.5813
▁sooo	-11.5813
▁tbadl	-11.5815
▁yesra	-11.5816
atous	-11.5816
atheka	-11.5821
▁temp	-11.5822
▁insi	-11.5823
▁lcha	-11.5824
erjou	-11.5827
▁contact	-11.5831
▁klou	-11.5831
▁10000000	-11.5833
teur	-11.5834
▁ju	-11.5837
▁chel	-11.5837
▁doum	-11.5839
▁charafi	-11.584
bh	-11.5841
▁dédica	-11.5841
ñ	-11.5841
▁accord	-11.5841
▁boulabyar	-11.5841
▁chribetkom	-11.5841
▁morocco	-11.5841
▁revolution	-11.5841
▁situation	-11.5841
▁vérité	-11.5841
▁cinéma	-11.5841
▁objectif	-11.5841
▁usual	-11.5841
▁mazembe	-11.5841
▁2012	-11.5841
▁zambie	-11.5841
▁otlob	-11.5841
▁paparazzi	-11.5841
▁lamouchia	-11.5842
▁dossier	-11.5842
▁labès	-11.5842
▁mwihbi	-11.5842
▁sanchez	-11.5842
▁administrat	-11.5842
▁lfekra	-11.5842
▁pls	-11.5842
▁publicité	-11.5842
▁analyse	-11.5842
▁koster	-11.5842
▁gadhafi	-11.5842
▁clott	-11.5843
▁jerdhen	-11.5843
▁tafkir	-11.5843
▁sallouma	-11.5843
▁feragh	-11.5844
▁turban	-11.5844
▁algérien	-11.5844
▁majlis	-11.5844
▁appel	-11.5844
▁yifhim	-11.5844
▁joweret	-11.5845
▁motrobi	-11.5845
mlouh	-11.5845
▁calibre	-11.5846
▁krouch	-11.5846
▁akbr	-11.5846
▁faysel	-11.5846
▁yodhor	-11.5846
eeeeeeeeeeeeee	-11.5847
tisam	-11.5847
▁kah	-11.5847
▁inqui	-11.5847
▁gaddefi	-11.5847
▁thawret	-11.5847
▁honteux	-11.5847
▁izikel	-11.5848
▁khamsa	-11.5848
▁glow	-11.5848
▁tozeur	-11.5848
▁maillot	-11.5848
▁yonssr	-11.5849
▁plusieur	-11.5849
▁borhan	-11.5849
▁2000	-11.585
▁mabroukkk	-11.585
▁metma	-11.585
▁machaa	-11.585
▁ghlat	-11.5851
▁yerhem	-11.5851
▁battel	-11.5851
▁wertani	-11.5852
▁msakin	-11.5852
▁dawedi	-11.5853
▁yichfik	-11.5853
tarachi	-11.5853
▁testanna	-11.5853
▁parent	-11.5853
▁dziriya	-11.5853
▁mabrook	-11.5854
new	-11.5854
▁etwanssa	-11.5855
▁del	-11.5855
▁djerba	-11.5856
▁grouda	-11.5856
▁mlahet	-11.5856
▁coeur	-11.5857
▁mafhamt	-11.5859
▁itkoun	-11.586
▁klèm	-11.586
cine	-11.586
▁zyed	-11.586
▁chesmha	-11.5861
▁yetbadel	-11.5861
▁ragel	-11.5861
▁habibti	-11.5861
▁malhet	-11.5862
▁miga	-11.5862
▁hedhli	-11.5862
▁yfadhelhoulek	-11.5863
▁tastour	-11.5863
▁feelings	-11.5863
▁howwa	-11.5865
▁ezwewla	-11.5865
▁zatla	-11.5865
▁yalzam	-11.5866
▁lpage	-11.5867
▁daraji	-11.5867
▁esbab	-11.5867
▁mousa	-11.5867
▁massakh	-11.5868
▁nemchiw	-11.5868
▁kaboul	-11.5868
▁tfouuh	-11.5869
▁douwal	-11.587
▁enchallh	-11.5871
▁korbi	-11.5872
▁golo	-11.5873
▁youssel	-11.5874
▁yejbed	-11.5875
▁fibali	-11.5875
▁alwakil	-11.5875
▁mosalsel	-11.5875
▁raihi	-11.5876
▁matefhem	-11.5877
almo	-11.5877
▁baramj	-11.5877
▁sourya	-11.5877
doo	-11.5877
éééé	-11.5878
▁hatten	-11.5878
asdewi	-11.5878
▁ikoul	-11.5879
▁braveau	-11.5879
▁zaama	-11.588
▁prog	-11.588
▁inheb	-11.5881
▁salifou	-11.5881
▁tarbya	-11.5881
yee	-11.5882
atil	-11.5882
▁gharbiya	-11.5882
▁fadhel	-11.5882
▁ahzeb	-11.5883
▁yetkallem	-11.5883
▁hammem	-11.5884
tarja	-11.5885
▁lazam	-11.5885
▁gloubna	-11.5886
▁rte	-11.5886
▁home	-11.5886
▁enssen	-11.5887
fikom	-11.5887
▁tounseya	-11.5888
▁tsayer	-11.5889
▁birjouliya	-11.5889
▁mizan	-11.5889
▁avenir	-11.589
▁confirme	-11.5891
▁mathloum	-11.5892
▁bikol	-11.5894
▁couple	-11.5896
▁kouret	-11.5897
▁znat	-11.5898
▁lklab	-11.5899
▁jihad	-11.5899
wk	-11.5899
▁cherif	-11.59
▁nechala	-11.5901
▁dhan	-11.5902
▁01	-11.5902
anha	-11.5906
▁latrab	-11.5907
▁ejay	-11.5908
▁tansech	-11.5909
lyh	-11.5909
riii	-11.591
bèd	-11.5913
▁tenjah	-11.5914
▁gab	-11.5914
▁aide	-11.5915
▁nahkiw	-11.5916
vision	-11.5916
▁tichri	-11.5916
▁hanen	-11.5919
▁gued	-11.5919
▁nstan	-11.592
▁rajioun	-11.5921
ïs	-11.5921
▁korh	-11.5921
▁lassad	-11.5922
▁nkawrou	-11.5922
▁oo	-11.5922
▁manta	-11.5924
▁khair	-11.5925
toulna	-11.5926
▁bus	-11.5926
▁og	-11.5927
▁yekdem	-11.5928
▁rwé	-11.593
rass	-11.5931
▁jwa	-11.5932
▁elgalia	-11.5934
▁sen	-11.5934
raaaaa	-11.5934
▁kartha	-11.5934
▁echeb	-11.5936
▁yssa	-11.5937
▁madhrouba	-11.5937
▁about	-11.594
allew	-11.594
▁apart	-11.5941
▁fani	-11.5942
abitou	-11.5942
rate	-11.5942
lig	-11.5944
▁travaille	-11.5946
▁wejhi	-11.5946
nk	-11.5947
▁rahy	-11.5948
▁msayeb	-11.5949
▁its	-11.595
▁élli	-11.5952
hchi	-11.5952
▁daraja	-11.5953
▁yog	-11.5953
ction	-11.5954
▁tenfa	-11.5954
▁zaw	-11.5955
▁choiya	-11.5955
darna	-11.5955
▁menghir	-11.5956
iyat	-11.5959
▁yedd	-11.5962
88	-11.5964
▁talka	-11.5966
▁foug	-11.5966
aterha	-11.5968
aaab	-11.5969
▁wjouhom	-11.597
▁master	-11.5975
▁alma	-11.5979
▁mbarka	-11.5983
tfarj	-11.5988
▁lahkaya	-11.5989
▁tetrach	-11.599
▁tza	-11.599
roudh	-11.599
▁ikal	-11.5991
▁hmar	-11.5992
▁masse	-11.5993
aleha	-11.5996
▁jibo	-11.5997
▁wtounes	-11.5998
addedi	-11.6
kkkkkkkk	-11.6
ibik	-11.6001
▁rakm	-11.6005
▁galbek	-11.6006
▁haf	-11.6006
▁yesre	-11.6007
▁menah	-11.6007
▁mazilt	-11.6008
▁looooool	-11.6008
▁prv	-11.601
▁elflous	-11.6012
awnouni	-11.6012
▁taflim	-11.6014
▁eddine	-11.6015
▁ismek	-11.6016
khamem	-11.6018
oudou	-11.6019
▁khitab	-11.6019
adin	-11.6021
awnouk	-11.6022
ssine	-11.6023
▁mdak	-11.6023
▁dayra	-11.6027
sod	-11.6029
▁fiiik	-11.6035
▁yarhim	-11.6036
▁hbiba	-11.6036
▁liflouss	-11.6039
▁yahfad	-11.604
▁mec	-11.604
▁ekbir	-11.604
▁lmout	-11.6041
▁ykol	-11.6042
▁ychaj	-11.6045
▁bennesb	-11.6046
ardou	-11.6046
adro	-11.6048
jebnich	-11.6051
aza	-11.6051
abha	-11.6063
sident	-11.6063
mme	-11.6068
liiik	-11.6069
▁khli	-11.6069
▁mine	-11.607
▁sloumaaaa	-11.6074
edet	-11.6077
▁izi	-11.6077
▁tlab	-11.6078
▁ennad	-11.6079
souch	-11.608
abib	-11.6081
tiik	-11.6084
rgou	-11.6086
▁damm	-11.6093
▁nhibou	-11.6094
yethom	-11.6094
▁hewa	-11.6094
ché	-11.6096
▁charika	-11.6096
▁agh	-11.6097
khas	-11.6102
▁baro	-11.6104
▁idou	-11.6105
▁bahiya	-11.6105
▁fesh	-11.6105
▁darkom	-11.6105
▁kolle	-11.6106
▁wnes	-11.6109
▁jaben	-11.611
▁innes	-11.6111
▁galbou	-11.6111
aww	-11.6112
▁yaf	-11.6113
▁safha	-11.6113
▁ylzm	-11.6119
▁dah	-11.6119
▁sui	-11.6122
▁yaani	-11.6124
▁yos	-11.6125
▁cet	-11.6125
▁yetsam	-11.6126
taha	-11.6127
adeya	-11.6128
▁kolchi	-11.6129
▁fark	-11.613
▁ywaliw	-11.6133
▁last	-11.6134
▁fomk	-11.6136
▁mett	-11.6137
▁menes	-11.6137
▁achab	-11.6137
▁kalbi	-11.6137
ebk	-11.6142
rtou	-11.6142
▁twila	-11.6142
▁binzarti	-11.6143
▁wagt	-11.6144
fakar	-11.6145
hrin	-11.6145
▁pffffffffffff	-11.6146
▁think	-11.6147
hahahahahahahah	-11.6147
▁mali	-11.6148
rjel	-11.6148
chew	-11.615
sert	-11.6151
iiid	-11.6154
bine	-11.6156
fouf	-11.6156
▁keb	-11.6158
▁tsawr	-11.616
ebtek	-11.6161
▁sweb	-11.6164
afo	-11.6167
▁cent	-11.6167
▁ghorba	-11.6167
▁chwi	-11.6173
▁tkal	-11.6175
▁nchoufek	-11.6176
▁abay	-11.6176
syasa	-11.6176
aaaaage	-11.6177
▁aker	-11.6179
asil	-11.6182
▁rik	-11.6182
▁eltaw	-11.6182
▁khirlek	-11.6183
adik	-11.6184
▁hamra	-11.6185
▁toh	-11.6188
▁sabat	-11.6189
▁farhan	-11.619
▁nansa	-11.619
▁fasad	-11.6192
hourin	-11.6192
yess	-11.6193
▁tsam	-11.6194
▁tarba	-11.6195
mmmmmmmmmm	-11.6196
▁nhibo	-11.6197
aridh	-11.6199
kharej	-11.6201
ebbouk	-11.6202
▁kenza	-11.6202
masa	-11.6204
▁yhibou	-11.6214
▁serek	-11.6216
chiw	-11.6218
▁wmala	-11.622
aydi	-11.6221
hort	-11.6225
lèhi	-11.6225
▁etounssi	-11.6229
aaaar	-11.6231
▁farina	-11.6233
rym	-11.6234
▁siassa	-11.6237
ltof	-11.6238
▁khaliw	-11.6239
▁wbin	-11.6242
bess	-11.6244
yine	-11.6246
▁laisse	-11.625
nda	-11.6251
allih	-11.6253
▁erie	-11.6257
▁hazou	-11.6258
▁wjh	-11.626
▁sayr	-11.626
▁bayn	-11.6264
▁esaha	-11.6267
stenes	-11.6267
saraha	-11.6271
wasel	-11.6273
▁videos	-11.6276
▁balhi	-11.6277
osd	-11.6279
uur	-11.6279
▁hazin	-11.6279
▁mounefi	-11.6285
athra	-11.6289
▁doun	-11.629
▁toub	-11.629
▁parfait	-11.6296
▁dfa	-11.6297
▁jon	-11.6298
emlo	-11.6303
▁zabi	-11.6303
loubkom	-11.6303
▁insha	-11.6304
abtou	-11.6304
▁ghirha	-11.6308
touns	-11.6308
eli	-11.6311
▁yeee	-11.6313
▁yetren	-11.6313
▁fen	-11.6316
jareb	-11.6317
▁berk	-11.6318
▁insa	-11.6324
▁fakar	-11.6325
▁katl	-11.6325
mlin	-11.633
wla	-11.633
▁stag	-11.6331
▁jbal	-11.6332
ytou	-11.6334
▁vr	-11.6334
▁heth	-11.6335
raha	-11.6337
▁ames	-11.6337
▁hadhr	-11.6339
▁blk	-11.634
▁habou	-11.634
amij	-11.635
bbbbbbbbbbbbbbbb	-11.6351
▁tahar	-11.6355
▁asil	-11.636
likk	-11.636
▁khalih	-11.6361
▁yehmih	-11.6363
▁yen	-11.6364
nsew	-11.6364
▁dakhlou	-11.6365
▁meye	-11.6367
▁shay	-11.6368
dhem	-11.6379
rkou	-11.6379
▁khlifi	-11.6383
esma	-11.6383
▁ichri	-11.6391
habit	-11.6392
lui	-11.6393
▁pfffffff	-11.6396
▁khlif	-11.6397
▁brav	-11.6398
najém	-11.6399
▁tebe	-11.64
▁tesre	-11.64
anét	-11.64
▁bant	-11.6402
abss	-11.6405
▁kb	-11.6408
mfach	-11.6409
▁wij	-11.6412
per	-11.6419
gna	-11.642
▁bre	-11.6421
ssib	-11.6423
▁tahiyat	-11.6423
dour	-11.6431
▁bnat	-11.6433
▁chouka	-11.644
▁rahm	-11.644
▁patr	-11.6444
▁tesra	-11.6445
▁yensa	-11.6446
▁kari	-11.6446
▁én	-11.645
ix	-11.6451
damna	-11.6451
▁merc	-11.646
▁bikri	-11.646
▁barchaaa	-11.6462
awenha	-11.6463
▁tafah	-11.6464
hél	-11.6466
▁chadet	-11.6472
ndna	-11.6473
▁weldih	-11.6474
8888888888888888	-11.6474
▁chraf	-11.6475
allet	-11.6476
chhar	-11.6479
titou	-11.648
katar	-11.648
fdhah	-11.6481
▁dafa	-11.6484
▁konto	-11.6492
rod	-11.6492
asses	-11.6493
benza	-11.6494
▁mousi	-11.6497
▁tensa	-11.6498
haded	-11.6498
réj	-11.65
▁wsol	-11.6502
▁bdan	-11.6506
▁nin	-11.651
▁wfee	-11.6511
▁noura	-11.6511
▁tbiba	-11.6514
▁kham	-11.6516
ça	-11.6518
ip	-11.6518
▁belhom	-11.6518
iyè	-11.6519
amlt	-11.652
▁nkar	-11.6523
▁atraf	-11.6526
▁enc	-11.6527
▁nist	-11.6529
▁hir	-11.653
▁ekh	-11.6534
▁hour	-11.6536
▁chm	-11.6539
indou	-11.6539
ibara	-11.6539
darja	-11.6541
morkom	-11.6542
fadlik	-11.6546
▁aza	-11.6548
▁roi	-11.6551
nék	-11.6552
mék	-11.6552
athtl	-11.6553
obbi	-11.6555
▁sallem	-11.6555
mkom	-11.6556
▁nko	-11.6557
ress	-11.656
alsin	-11.6561
▁vd	-11.6561
adhar	-11.6561
eyr	-11.6562
oria	-11.6564
▁siwa	-11.6565
▁alor	-11.6565
▁parce	-11.6566
▁fah	-11.6566
wajah	-11.6567
▁mzel	-11.6567
binha	-11.6574
fased	-11.6574
▁yets	-11.6578
hhhhhhhhh	-11.6579
kazi	-11.658
deha	-11.6581
▁shy	-11.6581
▁sbar	-11.6586
▁gue	-11.6586
olit	-11.659
▁wchkoun	-11.6591
arrr	-11.6591
rfouha	-11.6591
▁yaaaa	-11.6594
nahtha	-11.6596
inaya	-11.6598
asib	-11.6599
▁félicitation	-11.6601
▁ghrib	-11.6602
▁dinou	-11.6602
▁entrain	-11.6602
▁fadhi	-11.6606
▁hok	-11.6606
▁100000000	-11.6607
alayh	-11.6609
▁tfas	-11.6612
▁radouh	-11.6612
▁ilmou	-11.6615
▁wslim	-11.6617
▁gen	-11.6617
afta	-11.6621
idd	-11.6622
▁hade	-11.6622
▁yasr	-11.6626
▁gi	-11.6628
▁raz	-11.6634
▁ychafi	-11.6636
rof	-11.6636
▁yeki	-11.6639
amlouch	-11.6643
fles	-11.6644
▁ebki	-11.6649
▁amén	-11.6652
▁massi	-11.6652
fch	-11.6658
ller	-11.6658
▁yhfdk	-11.6659
▁zby	-11.667
▁kant	-11.6672
akkkk	-11.6673
▁ec	-11.6674
assatan	-11.6675
▁mita	-11.6677
▁khalle	-11.6681
rhmou	-11.6681
haja	-11.6681
▁soci	-11.6683
▁hib	-11.6684
▁metwa	-11.6684
▁wasat	-11.6685
achti	-11.6686
awm	-11.6689
▁lwatan	-11.669
doh	-11.6691
▁hanou	-11.6691
allihom	-11.6701
embre	-11.6705
▁120	-11.6711
▁jim	-11.6712
rouk	-11.6712
▁tog	-11.6713
á	-11.6715
▁diar	-11.6716
addd	-11.6721
▁yaslim	-11.6725
fama	-11.6729
▁mmm	-11.6731
iwha	-11.6737
▁ind	-11.6738
ouloul	-11.6741
▁rata	-11.6741
ayib	-11.6742
▁sadda	-11.6742
maryoul	-11.6743
▁lelah	-11.6746
▁elja	-11.6748
▁center	-11.6748
ajel	-11.6751
▁tafih	-11.6753
▁zebiii	-11.6754
zr	-11.6755
▁yekoun	-11.6761
bib	-11.6765
melch	-11.6767
▁sofien	-11.677
▁erja	-11.677
tlhe	-11.6771
shi	-11.6771
▁petrol	-11.6773
▁koull	-11.6773
chim	-11.6778
▁beyn	-11.6783
▁kf	-11.6784
▁tarach	-11.6785
▁moslmin	-11.679
ity	-11.6791
yssa	-11.6792
▁hen	-11.6792
▁bzaf	-11.6793
▁bc	-11.6793
▁wladi	-11.6797
▁sayee	-11.6797
sso	-11.6798
▁yeswa	-11.6798
▁habtel	-11.6799
rawa	-11.6799
▁tarjaa	-11.68
▁fthi	-11.6802
▁lakom	-11.6803
9999	-11.6806
▁bettawfi	-11.6806
▁siyas	-11.6806
▁makhyb	-11.6811
▁dahk	-11.6814
tarajji	-11.6815
jich	-11.6815
▁chouk	-11.6815
▁bombe	-11.6817
tanbir	-11.6822
lob	-11.6822
jamahir	-11.6822
▁lebl	-11.6825
▁aswat	-11.6825
▁lekbira	-11.6828
bli	-11.6829
▁tati	-11.6831
twal	-11.6831
sebet	-11.6831
sabat	-11.6832
enech	-11.6835
▁nsaw	-11.6838
▁elmarzou	-11.6838
▁milk	-11.6838
néch	-11.6839
▁mayhem	-11.6841
▁exact	-11.6841
▁sponsor	-11.6841
ÿ	-11.6841
▁conclu	-11.6841
▁cœur	-11.6841
▁decision	-11.6841
▁lmoncef	-11.6841
▁penalty	-11.6841
▁système	-11.6841
▁matériel	-11.6841
▁voyage	-11.6841
▁ouertani	-11.6841
▁perfect	-11.6841
▁boudourou	-11.6841
▁volley	-11.6841
▁service	-11.6841
▁pratique	-11.6842
▁andhef	-11.6842
▁welcome	-11.6842
▁nigga	-11.6842
▁pretty	-11.6842
▁ticket	-11.6842
▁agerbi	-11.6842
▁concer	-11.6842
▁touzgar	-11.6842
▁dabagh	-11.6842
▁sérieux	-11.6842
▁sorry	-11.6842
▁berrassmi	-11.6842
▁naoufel	-11.6842
▁yotlob	-11.6842
▁khanchour	-11.6842
▁ministre	-11.6842
▁jaafour	-11.6842
▁silence	-11.6842
▁malheur	-11.6843
▁lghalya	-11.6843
rythme	-11.6843
▁2017	-11.6843
▁animateur	-11.6843
▁produit	-11.6843
▁ysam	-11.6843
▁idiot	-11.6843
benzer	-11.6844
wlou	-11.6844
▁marché	-11.6844
▁akrem	-11.6844
▁nuit	-11.6844
▁borjouleya	-11.6844
enario	-11.6845
ccident	-11.6845
▁ysabber	-11.6845
▁facile	-11.6845
▁obama	-11.6845
▁comprend	-11.6845
▁track	-11.6846
▁mabroook	-11.6846
▁khawti	-11.6847
▁faycel	-11.6847
▁mayfout	-11.6847
▁sloumà	-11.6847
wini	-11.6848
▁esprit	-11.6848
▁chlaka	-11.6848
▁old	-11.6848
▁dawela	-11.6848
riode	-11.6849
▁khamej	-11.6849
▁dirrab	-11.6849
▁sadakni	-11.6849
▁azlem	-11.6849
▁yelezm	-11.685
adhibhom	-11.685
▁tasjil	-11.685
▁plaisir	-11.685
▁genre	-11.6851
aled	-11.6851
▁okhrin	-11.6851
▁testahel	-11.6852
▁clochard	-11.6852
▁ejoueur	-11.6853
▁changer	-11.6853
▁élection	-11.6853
▁mous	-11.6854
▁hethouma	-11.6855
alij	-11.6856
▁osket	-11.6857
▁lbarnamej	-11.6857
▁erachwa	-11.6857
▁local	-11.6857
▁ifriqui	-11.6858
▁younsrek	-11.6858
▁borjolia	-11.6858
ourou	-11.6858
▁haykel	-11.6859
▁machaalah	-11.6859
▁fc	-11.6859
▁yostr	-11.686
▁ennahtha	-11.686
▁programe	-11.686
▁hmoum	-11.6861
▁zman	-11.6861
▁faregh	-11.6861
▁ettaraji	-11.6862
▁politiciens	-11.6862
▁tfoo	-11.6862
ankouch	-11.6862
▁yahdikoum	-11.6862
▁tetraba	-11.6863
▁kroz	-11.6863
▁sektin	-11.6864
▁mnhom	-11.6864
oussa	-11.6864
▁tohkom	-11.6865
▁jabal	-11.6865
▁money	-11.6866
▁wijhik	-11.6866
▁marque	-11.6866
▁zabor	-11.6866
▁leklab	-11.6866
▁makanech	-11.6867
▁asrar	-11.6867
▁kother	-11.6867
▁yekdheb	-11.6868
sence	-11.6869
rafnek	-11.6869
fre	-11.687
▁tkallem	-11.687
▁younsi	-11.687
▁bsahtek	-11.6871
▁dkhili	-11.6871
▁ahawa	-11.6872
▁labés	-11.6872
mous	-11.6872
▁mafhoum	-11.6873
▁bander	-11.6873
▁zidane	-11.6873
▁inajmou	-11.6873
▁ibaki	-11.6873
▁gamra	-11.6873
▁ché	-11.6874
▁saloma	-11.6874
▁iblad	-11.6874
▁selma	-11.6874
▁chère	-11.6874
▁arjouk	-11.6875
▁zbala	-11.6877
▁hawya	-11.6877
▁brima	-11.6877
▁intidabat	-11.6878
▁joon	-11.6878
▁ekleb	-11.6879
▁nefta	-11.6879
▁mamnou	-11.6879
orm	-11.688
▁sketch	-11.6881
▁fahmoun	-11.6881
▁laho	-11.6881
▁vibes	-11.6882
▁maaloul	-11.6882
▁terikh	-11.6882
▁nechallah	-11.6883
▁rachid	-11.6883
issa	-11.6884
▁yfaraj	-11.6885
▁tetnek	-11.6885
▁rzin	-11.6886
▁gbel	-11.6887
▁chnaya	-11.6887
▁douz	-11.6887
▁jedan	-11.6887
▁barca	-11.6888
▁jouerette	-11.6888
▁nikomik	-11.6888
▁nebil	-11.6888
▁hayat	-11.6888
▁ltunis	-11.6889
▁hond	-11.6889
▁hahha	-11.6889
▁clubistya	-11.689
▁yetfaraj	-11.6893
▁mouhim	-11.6894
▁lelbled	-11.6894
▁tomber	-11.69
▁tistana	-11.6901
▁700	-11.6903
▁bouhali	-11.6904
▁ezzab	-11.6904
▁elkor	-11.6905
▁ashab	-11.6905
▁nermine	-11.6906
▁matbadel	-11.6906
▁fitna	-11.6907
▁wmazel	-11.6907
▁commenter	-11.6908
tounsi	-11.6909
▁moda	-11.6909
▁farha	-11.691
▁joli	-11.6912
nadi	-11.6913
▁mchakel	-11.6913
▁come	-11.6914
▁billeh	-11.6914
rvé	-11.6915
▁iwari	-11.6917
▁yenfa	-11.6917
▁èl	-11.6918
▁jayebha	-11.6918
▁faragh	-11.6919
kdhbou	-11.692
cia	-11.6921
▁bllhi	-11.6921
▁metrach	-11.6922
▁tarika	-11.6923
▁tachri	-11.6923
▁mnayak	-11.6923
achech	-11.6924
▁nadhaf	-11.6925
▁chebi	-11.6925
ssé	-11.6925
▁amwal	-11.6926
▁fahmi	-11.6926
▁hsan	-11.6929
▁hope	-11.6931
▁yahdikom	-11.6932
fef	-11.6933
▁thebo	-11.6934
▁woujoud	-11.6936
▁siassi	-11.6937
fé	-11.6937
▁dife	-11.6938
▁arte	-11.6938
▁trak	-11.694
▁resultats	-11.6942
wra	-11.6942
mjarma	-11.6942
▁ect	-11.6942
▁mouham	-11.6943
arjo	-11.6945
▁ranna	-11.6947
▁os	-11.6947
loulek	-11.6949
lew	-11.695
▁lkool	-11.695
50	-11.695
▁kemch	-11.6951
achtne	-11.6952
mèl	-11.6952
▁tanbah	-11.6952
▁idour	-11.6953
oukoumet	-11.6953
▁dzid	-11.6953
ettre	-11.6954
abber	-11.6955
▁nitfarj	-11.6956
▁disc	-11.6957
▁syasa	-11.6957
▁yedou	-11.6958
▁bisou	-11.6958
▁fibeli	-11.6959
sawet	-11.6959
them	-11.696
▁riche	-11.6961
▁yekhy	-11.6961
▁masrouf	-11.6962
lwahra	-11.6966
▁fog	-11.6966
▁continu	-11.6966
oool	-11.6968
▁nektha	-11.6969
izkom	-11.697
▁yitrab	-11.697
▁nkoulou	-11.6971
▁khoudh	-11.6971
▁bardo	-11.6976
insi	-11.6977
▁bkolhom	-11.6979
▁louga	-11.6981
▁bande	-11.6982
▁garnabou	-11.6983
▁yij	-11.6984
sakh	-11.6984
rouna	-11.6984
miha	-11.6985
▁mnyk	-11.6986
▁barak	-11.6986
▁doit	-11.6987
▁khas	-11.6988
▁ghol	-11.699
doun	-11.6993
▁saieb	-11.6993
fra	-11.6995
▁bledkom	-11.6995
hret	-11.6996
▁queen	-11.7001
sakar	-11.7002
▁nahdhawi	-11.7003
▁marak	-11.7003
▁ctt	-11.7004
eryen	-11.7005
▁lkalba	-11.7009
▁assl	-11.7009
▁wantom	-11.701
▁khti	-11.7021
foot	-11.7021
nafti	-11.7022
▁dime	-11.7022
demt	-11.7024
heir	-11.7028
▁berjouly	-11.7032
▁adem	-11.7033
▁riy	-11.7034
▁hyeti	-11.7036
▁bitch	-11.7038
▁khrit	-11.7038
éli	-11.7039
▁seule	-11.7039
▁3000	-11.7039
batel	-11.704
▁bec	-11.7042
▁kalik	-11.7043
wef	-11.7044
▁pfffffffff	-11.7046
wadha	-11.7052
aycho	-11.7052
▁jomla	-11.7052
▁zede	-11.7053
▁yraw	-11.7053
amen	-11.7057
yf	-11.7059
eau	-11.7063
▁tefhm	-11.7064
▁hui	-11.7064
▁pt	-11.7067
▁alkilab	-11.707
isabet	-11.7071
ley	-11.7072
klèb	-11.7072
▁kayes	-11.7073
ayit	-11.7074
lèd	-11.7075
adara	-11.7076
oudha	-11.7081
▁pere	-11.7083
▁winchala	-11.7084
gt	-11.7087
rgui	-11.7087
▁elhal	-11.7087
▁zoo	-11.7089
zoul	-11.7092
▁personnelle	-11.7093
▁meilleure	-11.7098
▁avai	-11.7101
▁riha	-11.7102
awej	-11.7102
▁invi	-11.7102
yib	-11.7105
wh	-11.7105
abya	-11.7105
▁oumourou	-11.7106
▁naks	-11.7107
▁drabou	-11.7111
▁sahri	-11.7111
▁comentaire	-11.7114
▁atwa	-11.7121
▁mars	-11.7121
▁fathi	-11.7122
▁ghadh	-11.7123
gher	-11.7125
▁bine	-11.7126
▁oumourna	-11.713
▁farch	-11.713
▁milliar	-11.713
▁kram	-11.7132
▁ekip	-11.7133
hd	-11.7136
nous	-11.7139
▁bella	-11.714
▁uu	-11.714
altek	-11.714
▁kach	-11.7141
▁mnaykine	-11.7143
▁jebhom	-11.7143
▁byh	-11.7143
▁ilma	-11.7147
rassmi	-11.7149
ayek	-11.7152
▁bnjr	-11.7155
neyet	-11.7156
ytna	-11.7156
oulich	-11.7157
▁kader	-11.7158
▁haddedi	-11.716
ilm	-11.7163
njem	-11.7164
▁tachkil	-11.7167
▁prive	-11.7167
▁roha	-11.7168
▁barri	-11.717
nidham	-11.7172
▁dari	-11.7175
ssiya	-11.7178
sartek	-11.7179
jbik	-11.718
rrrrrrrrr	-11.7181
▁moust	-11.7181
▁nyk	-11.7183
haba	-11.7184
▁nhebkom	-11.7188
farrej	-11.7188
tlek	-11.7189
▁fdhy	-11.719
lahou	-11.7191
bnou	-11.7193
▁jarbou	-11.7194
▁tamma	-11.7194
mloulha	-11.7195
ssaber	-11.7197
uuuuuuuuuuuuuu	-11.7197
lhoum	-11.7198
▁tru	-11.7199
▁braavo	-11.72
▁nfa	-11.7201
▁fiere	-11.7204
▁franc	-11.7207
▁meche	-11.7207
▁pc	-11.7208
eeeeeeeee	-11.7209
nnnnnn	-11.7217
▁sok	-11.7217
erfo	-11.7219
beth	-11.722
wiii	-11.722
hbat	-11.722
thek	-11.7221
▁amiin	-11.7222
▁hazz	-11.7233
up	-11.7234
▁amthal	-11.7234
▁chwa	-11.7235
▁miz	-11.7239
▁makar	-11.724
twenssa	-11.724
▁tkaf	-11.7242
▁echbik	-11.7242
con	-11.7242
▁ahou	-11.7243
ele	-11.7245
▁fakat	-11.7247
zit	-11.7249
▁echnow	-11.7253
▁afra	-11.7257
▁klmt	-11.7258
▁torh	-11.726
▁cont	-11.7261
mlet	-11.7263
▁souhait	-11.7264
▁lidha	-11.7266
eyetna	-11.7268
iiiiiir	-11.7269
▁horra	-11.7271
rith	-11.7271
▁mga	-11.7276
▁rassoul	-11.7279
leeem	-11.728
▁moutha	-11.7281
▁salli	-11.7283
0000	-11.7286
tfaraj	-11.7287
ajbet	-11.7289
ndra	-11.7293
▁yous	-11.7295
ejbo	-11.7297
thawra	-11.7299
ilet	-11.7299
▁ahly	-11.7302
▁tawla	-11.7304
▁maynajem	-11.7306
aless	-11.7306
▁lka	-11.7308
▁tozz	-11.731
▁hej	-11.731
echeri	-11.7314
▁zahi	-11.7321
yetou	-11.7323
▁did	-11.7325
rap	-11.7326
▁tewa	-11.7326
nf	-11.7327
▁mounas	-11.7342
▁machkou	-11.7344
▁hakika	-11.7344
▁senin	-11.7347
▁baraw	-11.7354
roufin	-11.7356
▁yhdik	-11.7356
▁giv	-11.7357
tkalem	-11.736
jèl	-11.7364
▁dakhla	-11.7365
gol	-11.7365
▁sac	-11.7367
▁mostaw	-11.7368
sawir	-11.7368
▁mawa	-11.7371
▁team	-11.7371
pro	-11.7374
kleb	-11.7375
alena	-11.7379
▁mamst	-11.7383
stan	-11.7385
▁hahahahahaha	-11.7386
moto	-11.7389
asoud	-11.739
thika	-11.7391
yyyyyyy	-11.7393
▁mafiha	-11.7399
rrrrrrrrrrrrrr	-11.74
▁afar	-11.7404
alew	-11.7406
lboutoula	-11.741
alif	-11.7411
▁bare	-11.7419
▁rabye	-11.7422
▁ua	-11.7422
▁thah	-11.7428
000	-11.7432
fhmou	-11.7436
ark	-11.744
ollo	-11.744
▁ake	-11.744
▁kebr	-11.7443
▁teheb	-11.7447
▁zama	-11.7447
▁ntay	-11.7448
rby	-11.7449
▁hassit	-11.7449
▁mun	-11.7451
▁mohaj	-11.7452
▁makach	-11.7455
▁sni	-11.7459
▁ytl	-11.746
▁klit	-11.7462
▁nhebk	-11.7468
cherek	-11.7469
▁sol	-11.747
tttttttttttttttt	-11.747
▁yachfi	-11.747
étna	-11.7471
nhi	-11.7471
imad	-11.7473
awan	-11.7474
agh	-11.7486
allemm	-11.7487
stathmer	-11.7488
assas	-11.7489
▁nistan	-11.749
▁kabira	-11.7496
addeh	-11.7497
▁chedi	-11.7497
redh	-11.75
▁itab	-11.7503
▁dawar	-11.7506
ner	-11.7506
abla	-11.7512
▁safir	-11.7516
zk	-11.7521
hedha	-11.7523
▁dourou	-11.7524
▁tesm	-11.7525
bél	-11.7528
▁isar	-11.7529
mmmmmmmmmmm	-11.7532
afich	-11.7533
rafna	-11.7533
olto	-11.7535
▁yetf	-11.7539
▁ykalik	-11.7539
elch	-11.7545
▁hedhou	-11.7546
moo	-11.7546
▁où	-11.7547
▁klb	-11.7547
dhet	-11.7548
eddine	-11.7552
▁khba	-11.7555
assel	-11.7559
▁daf	-11.7559
▁charf	-11.756
obb	-11.7561
▁yodh	-11.7562
▁bladek	-11.7563
▁azouz	-11.7563
atheb	-11.7565
▁ooo	-11.7566
ages	-11.7566
meha	-11.7567
▁firas	-11.7573
mathal	-11.7576
▁ahwk	-11.7577
▁mayal	-11.7578
▁yrhm	-11.7581
ihim	-11.7582
oufi	-11.7582
▁hachm	-11.7583
abin	-11.7584
▁alahou	-11.7587
onya	-11.7591
▁ydef	-11.7594
aychak	-11.7595
▁lebs	-11.7596
▁bellh	-11.7605
▁jal	-11.7613
▁fdhay	-11.7618
▁monef	-11.762
▁wéld	-11.7624
▁rec	-11.7625
stanew	-11.7636
▁igoul	-11.7637
how	-11.7641
▁trabelsia	-11.7642
mlt	-11.7644
rcha	-11.7649
▁yosra	-11.765
oho	-11.7652
jbek	-11.7653
▁akhir	-11.7654
▁moufid	-11.7654
▁wllah	-11.7655
▁neheb	-11.7656
▁lhad	-11.7658
▁fikou	-11.7658
laf	-11.7659
elhew	-11.766
▁isma	-11.7663
▁chnw	-11.767
▁krim	-11.767
▁leleh	-11.7671
▁his	-11.7672
jbtni	-11.7677
taraji	-11.768
▁hiye	-11.768
▁abdelk	-11.7681
▁dharbou	-11.7682
▁balak	-11.7683
▁ajli	-11.7686
▁bidey	-11.769
indhom	-11.769
▁aale	-11.7694
asser	-11.7694
▁puis	-11.7696
▁beta	-11.7697
tef	-11.7697
oukoum	-11.77
▁bkoul	-11.7702
▁boukom	-11.7709
▁info	-11.771
nahda	-11.7711
imchiw	-11.7719
▁enadi	-11.7719
ebtou	-11.7723
déch	-11.7725
fahm	-11.7728
▁chye	-11.7732
awik	-11.7734
▁mafhimt	-11.7734
mouna	-11.7734
▁chan	-11.7738
▁life	-11.7738
yez	-11.7742
▁aghlat	-11.7746
▁tsada	-11.7747
itkom	-11.7749
▁kwi	-11.775
dhrab	-11.7751
▁jouwer	-11.7752
hay	-11.7753
yetik	-11.7758
▁lben	-11.7761
▁brovo	-11.7763
markom	-11.7766
sayeb	-11.7768
zb	-11.7771
▁hao	-11.7773
▁almou	-11.7778
outa	-11.778
amhoum	-11.7783
▁dhia	-11.7783
▁zer	-11.7784
aten	-11.7787
arajt	-11.7787
lle	-11.7793
▁makchouf	-11.7793
nthaf	-11.7799
▁tkas	-11.7801
▁wasal	-11.7802
▁gra	-11.7803
ezaweli	-11.7806
lami	-11.7806
▁sadik	-11.7807
▁bichar	-11.7807
▁jebo	-11.7808
mét	-11.781
alof	-11.781
▁metkhal	-11.7811
lkora	-11.7813
▁group	-11.7819
▁nata	-11.7822
wken	-11.7823
rafet	-11.7828
▁nasi	-11.7829
brk	-11.7831
▁lmosta	-11.7832
▁dhourouf	-11.7835
▁yeheb	-11.7835
jej	-11.7835
allas	-11.7837
▁red	-11.7837
▁doc	-11.7839
▁seybou	-11.784
athli	-11.7842
mlen	-11.7844
ilt	-11.7846
khdmou	-11.7849
▁vol	-11.7853
chkel	-11.7854
▁benet	-11.7855
andekch	-11.7857
▁mounefe	-11.7858
▁tahhana	-11.7859
hahhahah	-11.7861
ichri	-11.7865
kanet	-11.7866
eblou	-11.7871
▁ryous	-11.7872
brek	-11.7873
▁birth	-11.7873
▁yhb	-11.7874
thé	-11.7875
▁matham	-11.7876
▁lokhrin	-11.7876
▁inas	-11.7876
don	-11.7877
▁nermin	-11.7882
▁maghroum	-11.7883
amim	-11.7887
▁general	-11.7888
▁danc	-11.7889
▁zedou	-11.7891
▁ht	-11.7896
▁nfar	-11.7896
lkorsi	-11.7897
tofla	-11.7897
▁habta	-11.7897
bouni	-11.7898
osref	-11.7899
7777	-11.79
▁etajamo	-11.7901
ajeb	-11.7901
▁wilaya	-11.7902
bét	-11.7903
efcha	-11.7905
▁sahb	-11.7906
▁dabl	-11.7908
▁hajt	-11.7916
▁yebni	-11.7916
bate	-11.7916
▁pfffffffffffff	-11.7918
hej	-11.792
▁statu	-11.792
▁iza	-11.792
çh	-11.7921
ras	-11.7922
1920	-11.7922
osn	-11.7923
alioun	-11.7925
▁mare	-11.7925
▁aand	-11.7927
▁dyar	-11.7928
mabrouk	-11.793
ketha	-11.7931
▁protege	-11.7932
▁fdhaye	-11.7934
hdi	-11.7935
▁essiyass	-11.7937
▁blast	-11.7941
loubhom	-11.7941
linha	-11.7942
▁syb	-11.7943
kresi	-11.7944
miboun	-11.7944
▁lmousalsel	-11.7945
medeb	-11.7947
▁sliiiiiiiiiiii	-11.795
▁prince	-11.795
guer	-11.7951
niii	-11.7952
ã	-11.7952
▁awesome	-11.7952
▁disappoint	-11.7952
▁festival	-11.7952
▁mfabrka	-11.7952
▁réponse	-11.7952
▁vulgaire	-11.7952
▁aprés	-11.7952
▁dabbegh	-11.7952
▁entourage	-11.7952
▁ettounssi	-11.7952
▁creative	-11.7952
▁ugtt	-11.7952
▁2018	-11.7953
▁zéro	-11.7953
▁repond	-11.7953
▁chérie	-11.7953
▁eddanadik	-11.7953
▁montsar	-11.7953
▁jumia	-11.7953
▁mousalsil	-11.7953
▁critique	-11.7953
▁venu	-11.7953
▁production	-11.7953
▁playoff	-11.7953
▁bissif	-11.7953
▁lundi	-11.7953
▁nbadlou	-11.7953
▁bazzoula	-11.7953
▁ezikel	-11.7953
▁dakhil	-11.7953
▁oxygen	-11.7953
▁atfah	-11.7953
▁gaddafi	-11.7953
▁adooooore	-11.7953
▁cinema	-11.7953
▁lebtala	-11.7954
▁termtou	-11.7954
▁alliance	-11.7954
▁majit	-11.7954
▁khyyr	-11.7954
▁musik	-11.7954
▁montasser	-11.7954
▁bkodret	-11.7954
▁600	-11.7954
▁kasdaoui	-11.7954
▁contraire	-11.7954
▁inspir	-11.7954
▁meryem	-11.7954
▁telifoun	-11.7954
▁peace	-11.7955
▁winners	-11.7955
▁tozgar	-11.7955
▁thawedi	-11.7955
▁tzour	-11.7955
▁occasion	-11.7955
▁itwensa	-11.7955
▁hannibal	-11.7956
▁bientot	-11.7956
sket	-11.7956
▁biensur	-11.7956
▁essolta	-11.7957
▁severe	-11.7957
▁birjoulia	-11.7957
▁buon	-11.7957
▁ylem	-11.7957
▁bahloul	-11.7957
▁mimto	-11.7957
▁800	-11.7958
▁birrasmi	-11.7958
▁morsi	-11.7958
adaw	-11.7958
▁maitre	-11.7958
▁delice	-11.7958
▁arfaoui	-11.7959
▁mkachekh	-11.7959
▁dostour	-11.7959
▁tmchi	-11.7959
▁innahdha	-11.7959
▁dhaharli	-11.7959
▁afdal	-11.796
▁youster	-11.796
▁maymouna	-11.796
thing	-11.796
▁zbela	-11.7961
▁boug	-11.7961
▁osktou	-11.7961
▁halebled	-11.7961
▁joker	-11.7962
▁ooredoo	-11.7962
▁manouba	-11.7962
afata	-11.7962
▁lbenzarti	-11.7962
▁lmatch	-11.7962
▁rjeel	-11.7962
bour	-11.7963
▁tatwij	-11.7963
▁discours	-11.7963
▁ganouchi	-11.7963
▁minutes	-11.7963
▁zamalek	-11.7963
▁hekeka	-11.7963
▁catv	-11.7964
▁jalsa	-11.7965
▁ifadhal	-11.7965
▁lmarsa	-11.7965
rgiba	-11.7965
▁elbarnamej	-11.7965
▁lefriqi	-11.7965
▁ezzouz	-11.7965
ghanni	-11.7966
▁fannen	-11.7966
▁lifriqui	-11.7966
▁netfarjo	-11.7966
▁chihab	-11.7966
▁toussel	-11.7966
▁zantor	-11.7966
▁decembr	-11.7967
▁floos	-11.7967
▁tfouuuuh	-11.7967
▁wsnin	-11.7967
▁dyma	-11.7967
▁ultras	-11.7967
▁ennabbara	-11.7967
▁lekrasi	-11.7967
▁dekhel	-11.7968
▁matensech	-11.7968
▁bakawn	-11.7968
▁tetbadel	-11.7968
▁cool	-11.7968
▁limkach	-11.7968
▁forstou	-11.7969
▁khiiir	-11.7969
▁vert	-11.797
▁netsawrou	-11.797
wilayet	-11.7971
▁ihiz	-11.7971
▁dholm	-11.7973
btik	-11.7973
▁médecine	-11.7974
▁kharya	-11.7974
▁lahkika	-11.7974
▁thenya	-11.7974
▁dwla	-11.7975
▁pute	-11.7975
▁melyoun	-11.7975
▁ijdid	-11.7976
brima	-11.7977
▁kressi	-11.7978
▁fhmt	-11.7978
▁berjoli	-11.798
▁tendances	-11.798
▁tremkom	-11.798
▁winty	-11.7981
▁irjal	-11.7982
▁canada	-11.7982
▁werteni	-11.7983
▁gagner	-11.7983
▁khmaj	-11.7983
▁mrakz	-11.7983
▁lyom	-11.7983
▁tfakir	-11.7983
7777777777777777	-11.7985
▁physique	-11.7985
▁trois	-11.7986
▁tetmana	-11.7986
▁nsawtou	-11.7987
▁eblad	-11.7987
▁ziid	-11.7987
ayelto	-11.7988
▁ysoun	-11.7988
▁enafti	-11.7988
▁macheri	-11.7989
▁klami	-11.7989
là	-11.799
▁nahnou	-11.7991
▁eslam	-11.7991
▁ezwawla	-11.7992
▁tifhim	-11.7994
▁takrim	-11.7994
▁kemil	-11.7995
irrr	-11.7995
▁bettawfik	-11.7995
▁yhiz	-11.7995
▁bkani	-11.7995
▁human	-11.7996
▁racha	-11.7996
▁yjazik	-11.7996
▁belaid	-11.7997
▁layamet	-11.7997
▁lelclub	-11.7997
rice	-11.7999
▁etoiliste	-11.7999
nard	-11.8
▁chrik	-11.8
▁abhem	-11.8
▁isahel	-11.8001
▁ethabt	-11.8002
▁omoro	-11.8002
▁nase	-11.8002
▁ksouri	-11.8002
▁yahmikom	-11.8002
▁stif	-11.8003
▁yerj	-11.8004
▁mneyek	-11.8004
▁contente	-11.8005
▁rwah	-11.8005
dakhlou	-11.8005
▁tirba	-11.8005
▁twassel	-11.8006
▁machro	-11.8006
iyitna	-11.8006
adina	-11.8007
▁mkabch	-11.8007
▁waldikom	-11.8009
▁khatir	-11.801
▁niheya	-11.8011
▁yasmine	-11.8013
▁mafhemtch	-11.8013
▁inhib	-11.8015
▁yetrach	-11.8015
▁nikomk	-11.8015
▁yefhim	-11.8015
▁wlidha	-11.8016
éme	-11.8017
▁dark	-11.8017
▁hyetek	-11.8018
▁ywasel	-11.8019
▁elkaleb	-11.802
▁nejah	-11.8022
▁ane	-11.8023
▁haho	-11.8025
illa	-11.8026
mmmmmmm	-11.8026
▁tarbah	-11.8026
achekom	-11.8026
▁yoser	-11.8028
▁moulena	-11.8028
▁lmaryoul	-11.8031
▁tfarrej	-11.8031
yech	-11.8031
▁mounir	-11.8032
▁loukan	-11.8032
▁brave	-11.8032
▁petrole	-11.8033
▁tzoul	-11.8035
▁samu	-11.8035
▁taffi	-11.8035
▁eljana	-11.8035
hadha	-11.8035
▁ekbess	-11.8037
▁elfol	-11.8038
khbar	-11.8038
▁essif	-11.8038
▁tehchi	-11.8039
▁cact	-11.804
▁mokhek	-11.8041
▁ejaw	-11.8041
▁edhaw	-11.8043
▁techki	-11.8043
▁questions	-11.8044
▁iwalli	-11.8044
yit	-11.8045
▁rohik	-11.8047
tarou	-11.8048
rc	-11.8049
▁bleed	-11.8051
▁sb	-11.8052
▁huma	-11.8052
▁chifa	-11.8052
▁barchaloun	-11.8053
▁wajhou	-11.8053
▁tafihom	-11.8055
▁tekdem	-11.8055
▁hél	-11.8055
iyen	-11.8056
▁cheri	-11.8056
▁tasfi	-11.8057
▁mafamma	-11.8057
▁donya	-11.8058
▁tsaker	-11.8058
▁akhta	-11.8059
▁jarima	-11.806
▁alifriki	-11.8061
▁ichkoun	-11.8063
morhom	-11.8063
▁yfi	-11.8064
▁licha	-11.8064
▁nabrou	-11.8064
▁brjouliya	-11.8065
▁hier	-11.8066
touu	-11.8066
imti	-11.8068
▁aalina	-11.807
▁lkouki	-11.8072
▁messkina	-11.8073
▁hachem	-11.8073
▁eched	-11.8074
asbo	-11.8075
▁stars	-11.8076
▁personnes	-11.8081
sebsi	-11.8082
▁elkleb	-11.8083
▁wleed	-11.8083
80	-11.8084
▁nyek	-11.8085
lpage	-11.8087
▁tfa	-11.8087
▁lta	-11.8087
▁sabeb	-11.8088
▁mould	-11.8089
▁dhay	-11.8089
▁leur	-11.8091
▁fihem	-11.8092
▁colle	-11.8094
lesh	-11.8095
asset	-11.8096
▁barnemjou	-11.8096
▁meaak	-11.8098
ico	-11.8099
▁yiziw	-11.81
▁ygoulou	-11.8102
▁ebled	-11.8102
▁ebn	-11.8103
nnes	-11.8104
▁kateb	-11.8104
▁tester	-11.8104
▁tjibo	-11.8105
▁minnik	-11.8106
▁tounesna	-11.8107
alité	-11.8108
chabab	-11.8109
onar	-11.811
▁zaaa	-11.8111
▁makhlou	-11.8111
ayra	-11.8115
kili	-11.8116
▁siyassi	-11.8118
▁ayari	-11.8119
▁nesha	-11.812
▁amwel	-11.8121
▁bsif	-11.8121
▁lakher	-11.8121
▁kolli	-11.8122
lifriki	-11.8122
▁mabroukkkk	-11.8122
▁lv	-11.8122
▁hokouma	-11.8126
▁mim	-11.8127
▁abe	-11.8127
▁belflous	-11.8128
▁raiiis	-11.8128
▁famili	-11.8129
ps	-11.8129
▁bili	-11.8131
14	-11.8133
▁nsh	-11.8133
▁minaj	-11.8133
lebled	-11.8134
amline	-11.8136
▁anahou	-11.8138
▁erta	-11.8143
▁warrin	-11.8143
tiraf	-11.8145
▁making	-11.8146
▁nerte	-11.8146
▁chaw	-11.8148
athira	-11.8149
▁nimport	-11.8149
▁yfout	-11.815
▁loubna	-11.8151
blad	-11.8151
▁dec	-11.8154
▁yewaf	-11.8154
▁tweli	-11.8154
▁serbi	-11.8155
▁thema	-11.8157
kari	-11.8157
▁wejeb	-11.8158
▁kein	-11.8158
ayil	-11.816
youb	-11.8164
▁tatl	-11.8165
▁basam	-11.8165
▁garbi	-11.8166
dhaw	-11.8168
▁emena	-11.817
imar	-11.8172
itech	-11.8173
kalam	-11.8177
asker	-11.8179
▁oumourha	-11.8179
▁rep	-11.8181
▁hkit	-11.8181
▁ç	-11.8181
▁machri	-11.8181
▁chere	-11.8182
▁nwalli	-11.8182
▁mahri	-11.8182
▁qal	-11.8183
▁choui	-11.8184
▁lekhra	-11.8185
wsem	-11.8188
▁bared	-11.8188
▁betta	-11.8192
indik	-11.8193
▁hassi	-11.8194
▁done	-11.8194
famma	-11.8195
▁maykoun	-11.8195
jabni	-11.8196
ssab	-11.8198
▁tarb	-11.8199
▁tamme	-11.8199
▁tethas	-11.8199
▁ansar	-11.8201
▁fasda	-11.8201
▁ked	-11.8202
▁ethin	-11.8203
hiva	-11.8204
▁edi	-11.8204
▁bouch	-11.8205
▁rabta	-11.8205
▁kharjou	-11.8206
▁ihab	-11.8207
atef	-11.8207
▁sabir	-11.8208
▁jabit	-11.8209
baaa	-11.8209
éni	-11.821
▁kifha	-11.8211
▁attack	-11.8215
▁machia	-11.8219
▁nidal	-11.822
▁chafi	-11.8221
▁karar	-11.8225
▁yousl	-11.8225
▁nistana	-11.8226
▁étai	-11.8226
▁oooo	-11.8227
▁choufo	-11.8229
▁tiiit	-11.823
▁bash	-11.8232
▁echril	-11.8234
▁ant	-11.8235
▁fyy	-11.8236
ned	-11.8236
ure	-11.8238
▁hena	-11.8238
▁tousil	-11.8242
▁gadi	-11.8244
▁tasta	-11.8246
hada	-11.8246
▁ense	-11.8248
▁wall	-11.8248
get	-11.8248
adhab	-11.8252
▁intikab	-11.8254
ghat	-11.8257
osbor	-11.8258
iiiiiiiiiiir	-11.8258
▁jareb	-11.8258
▁robe	-11.8259
▁sebb	-11.8259
▁jina	-11.8259
attt	-11.826
▁nansh	-11.8262
▁khlah	-11.8262
▁eljem	-11.8263
▁jaloul	-11.8263
▁sn	-11.8264
lelhom	-11.8265
ghira	-11.8268
nawel	-11.8271
▁mezal	-11.8278
▁mabda	-11.828
▁ikol	-11.828
chfou	-11.828
▁wosl	-11.8281
arrat	-11.8283
▁contra	-11.8284
eher	-11.8285
▁mousal	-11.8286
port	-11.8287
▁yassir	-11.8288
ude	-11.8289
smo	-11.829
▁wassal	-11.829
alekher	-11.8291
▁fiiih	-11.8291
▁achbih	-11.8292
▁kalmou	-11.8293
tane	-11.8293
▁yassin	-11.8294
naber	-11.8294
denia	-11.8297
▁horr	-11.8303
▁dabb	-11.8304
▁karhoun	-11.8305
▁arous	-11.8306
▁ihibou	-11.8307
ica	-11.8307
▁faker	-11.8308
▁samsara	-11.8311
▁habtin	-11.8313
▁ennah	-11.8313
▁kain	-11.8315
ewi	-11.8315
▁tsala	-11.8316
▁hadhou	-11.8321
▁golt	-11.8323
▁mere	-11.8325
▁taslim	-11.8325
▁paget	-11.8327
▁nafer	-11.8331
▁esh	-11.8332
okhrej	-11.8335
chlh	-11.8335
▁hbb	-11.8338
▁zaim	-11.8339
▁boun	-11.834
iiih	-11.834
tisadi	-11.8343
douni	-11.8344
krim	-11.8348
▁tali	-11.8348
▁chakhs	-11.8349
souri	-11.835
▁mafra	-11.8352
farh	-11.8355
▁antoum	-11.8356
▁konti	-11.8356
elnech	-11.8357
mli	-11.8359
mltou	-11.8359
▁takt	-11.836
▁woh	-11.836
▁nhbo	-11.8361
▁khobz	-11.8365
▁hayla	-11.8369
▁tkounou	-11.8369
▁trabi	-11.8372
mark	-11.8372
▁innou	-11.8377
▁wfé	-11.8379
▁mère	-11.8381
▁inni	-11.8381
otli	-11.8385
▁ejtim	-11.8385
sghar	-11.8385
gggggggggggggggg	-11.8386
youm	-11.8391
▁lahna	-11.8392
▁aaml	-11.8397
win	-11.8398
jir	-11.8399
▁tè	-11.8399
▁trè	-11.84
▁mahk	-11.8401
▁kly	-11.8402
▁gadd	-11.8403
▁jiboul	-11.8404
▁asyad	-11.8404
adebhom	-11.8405
lefri	-11.8406
▁tjeb	-11.8408
▁alkol	-11.8409
▁ytha	-11.8409
▁esme	-11.841
▁ysebou	-11.8412
▁mathel	-11.8412
izik	-11.8413
▁mèt	-11.8414
▁limla	-11.8414
ezk	-11.8414
▁ichid	-11.8416
▁matans	-11.8418
iiiiiit	-11.8419
▁blado	-11.842
arth	-11.8428
▁syad	-11.8429
alitna	-11.843
▁twafa	-11.8431
defe	-11.8431
nehom	-11.8432
▁cé	-11.8433
▁adra	-11.8434
pport	-11.8435
▁yfad	-11.8435
thaher	-11.8436
▁chéd	-11.8437
▁labed	-11.8438
▁amie	-11.8438
aji	-11.8439
nesba	-11.844
▁marzouk	-11.8441
▁isebou	-11.8442
sabek	-11.8451
ward	-11.8452
itfarij	-11.8453
▁desol	-11.8455
▁aslo	-11.8455
elkol	-11.8458
diha	-11.8459
isant	-11.846
▁dekhl	-11.8463
▁wallaw	-11.8464
▁hahahahahahah	-11.8464
▁sei	-11.8464
▁haseb	-11.8465
▁blédi	-11.8466
▁ksara	-11.8468
▁long	-11.8469
▁makif	-11.8469
mén	-11.847
aaay	-11.8476
▁yfarh	-11.8476
zeyed	-11.8479
jay	-11.8479
atrik	-11.8482
▁majet	-11.8483
abl	-11.8484
▁nifak	-11.8486
▁arbia	-11.8487
▁jedou	-11.8487
▁fekr	-11.8488
▁hakk	-11.8494
▁tzidou	-11.8497
▁zaab	-11.8499
▁tkha	-11.8501
▁shem	-11.8501
looo	-11.8503
▁shyh	-11.8511
ayn	-11.8513
ouloulou	-11.8515
▁hadho	-11.8516
rabech	-11.8516
▁filastine	-11.8517
▁zit	-11.8517
▁yadf	-11.8519
jbk	-11.8524
▁hasbia	-11.8527
ammi	-11.8527
abba	-11.853
333333333333333	-11.8532
▁mchaw	-11.8534
▁jenna	-11.8536
lid	-11.8537
▁minhoum	-11.8543
ejbek	-11.8545
mohem	-11.8548
▁sidou	-11.8552
▁problem	-11.8553
rwe	-11.8553
▁tahet	-11.8554
▁trem	-11.8554
▁yseb	-11.8555
▁tejr	-11.8556
▁bflous	-11.8557
mnt	-11.8557
endo	-11.8557
▁kem	-11.8557
houlik	-11.8558
▁metfa	-11.8559
▁syed	-11.8559
▁support	-11.8562
▁souria	-11.8563
▁heureuse	-11.8564
syassa	-11.8566
▁lele	-11.8566
sabbar	-11.8566
mosta	-11.8568
▁narja	-11.857
▁swab	-11.8571
▁lajn	-11.8571
▁bihem	-11.8571
▁kahw	-11.8571
mahsoub	-11.8572
hadarja	-11.8573
▁log	-11.8573
▁hede	-11.8574
tadher	-11.8575
▁yahmih	-11.8582
▁tsaf	-11.8583
▁shah	-11.8585
ibek	-11.8585
▁wmin	-11.8587
ndre	-11.8594
khtar	-11.8595
▁heke	-11.8596
▁shi	-11.8599
hhhhhhhhhh	-11.86
▁aimer	-11.8601
siin	-11.8602
▁hédhou	-11.8602
▁sahbii	-11.8604
farij	-11.8606
▁yézi	-11.8607
zebi	-11.8609
▁mehou	-11.8609
toulou	-11.8613
ajra	-11.8613
▁ghaza	-11.8614
biha	-11.8614
anen	-11.8614
tissam	-11.8615
ncer	-11.8616
lyana	-11.8616
▁keyen	-11.8617
aydou	-11.8618
▁yasna	-11.8619
▁erbe	-11.8624
oudhou	-11.8624
▁nahit	-11.8626
karah	-11.8627
ajj	-11.8628
agel	-11.8634
▁yahfd	-11.8638
▁wale	-11.8639
▁khaw	-11.8644
▁chat	-11.8645
▁netfe	-11.8645
ssara	-11.8647
▁hssin	-11.8648
cheh	-11.8649
▁kesa	-11.8652
▁www	-11.8658
habet	-11.8659
▁sabar	-11.866
▁zaid	-11.8661
imtou	-11.8661
ahr	-11.8663
▁pag	-11.8663
▁kalet	-11.8663
▁bomay	-11.8665
▁cl	-11.8665
elim	-11.8667
adew	-11.8667
stanaw	-11.8668
dhaka	-11.8669
▁ijb	-11.867
▁omat	-11.8671
adde	-11.8672
ouhech	-11.8673
▁waldiha	-11.8674
▁yarhamo	-11.8674
thit	-11.8674
fiin	-11.8675
iyr	-11.8676
now	-11.8677
mment	-11.8678
wd	-11.8678
▁zom	-11.8678
▁fess	-11.8679
▁line	-11.8683
kho	-11.8684
▁hà	-11.8688
▁meri	-11.8691
asir	-11.8694
lghalia	-11.8698
▁must	-11.8699
▁mots	-11.8704
▁lahya	-11.8705
rjoulya	-11.8708
▁akka	-11.8709
▁wiw	-11.8709
3333	-11.8711
▁karam	-11.8712
▁thezz	-11.8714
▁kap	-11.8718
bayer	-11.8719
yde	-11.872
▁arais	-11.8723
houk	-11.8725
▁adam	-11.8726
▁aljam	-11.8729
▁rakez	-11.8737
ary	-11.8738
arfet	-11.8741
iyk	-11.8742
▁hokom	-11.8747
ì	-11.8748
tiii	-11.8748
▁rz	-11.8749
▁ntal	-11.8749
▁nektou	-11.875
bdaw	-11.875
▁jeweb	-11.8751
▁chalb	-11.8755
▁band	-11.8757
▁hamaj	-11.8758
bdeli	-11.8758
ajba	-11.8758
▁radit	-11.876
dhé	-11.8763
▁tahdid	-11.8765
▁aaaaa	-11.8765
▁lrou	-11.8765
thouma	-11.8767
▁masel	-11.8767
▁tsar	-11.8771
lastine	-11.8774
fareg	-11.8776
▁cheni	-11.878
▁sfa	-11.8782
olm	-11.8789
mj	-11.8793
liy	-11.8794
fffffffffff	-11.8795
▁marfou	-11.8795
doussi	-11.8796
▁tkaw	-11.8798
▁dhab	-11.8799
endhom	-11.88
▁kamalt	-11.88
▁elham	-11.8802
wir	-11.8802
▁ykal	-11.8804
jibelna	-11.8804
▁alkab	-11.8811
▁fthay	-11.8812
▁fine	-11.8815
▁salle	-11.882
▁hbib	-11.8822
bér	-11.8823
▁foll	-11.8824
yatek	-11.8825
▁chda	-11.8826
stehl	-11.8827
▁maynajmou	-11.8831
iiiiiiiiiiiiiiim	-11.8831
▁resp	-11.8832
▁mkh	-11.8833
▁enchouf	-11.8834
jaj	-11.8838
▁madhi	-11.884
▁gou	-11.8841
▁fours	-11.8844
yaaa	-11.8844
wetna	-11.8845
▁amm	-11.8845
▁mdrrrrr	-11.8846
▁kml	-11.8849
iliya	-11.885
▁signal	-11.885
ves	-11.8853
tlab	-11.886
itouh	-11.886
▁hid	-11.8862
▁wara	-11.8864
dich	-11.8864
sare	-11.8865
▁ibde	-11.8868
attou	-11.887
thbet	-11.8871
fha	-11.8871
eyed	-11.8873
▁awledou	-11.8875
▁bell	-11.8876
▁hag	-11.8877
▁mkachkh	-11.8882
for	-11.8884
yetha	-11.8886
olya	-11.8887
▁ahli	-11.8887
▁talkah	-11.8888
▁chko	-11.8893
▁aaaaaa	-11.8893
▁elgh	-11.8896
barik	-11.8897
▁berra	-11.8897
▁wahn	-11.8898
dhba	-11.8902
▁ejme	-11.8905
▁teta	-11.8905
▁mayest	-11.891
▁andkom	-11.8912
▁bouhom	-11.8914
▁yezzik	-11.8915
rfoch	-11.8919
▁sabra	-11.8922
nejim	-11.8924
▁tmani	-11.8926
taja	-11.8927
▁abdi	-11.8927
roc	-11.8928
chnak	-11.8928
▁chic	-11.8931
▁xdd	-11.8931
atli	-11.8932
fthou	-11.8935
hallah	-11.8938
ssssssssss	-11.8939
▁ethan	-11.8939
kmo	-11.894
▁tahchi	-11.8945
▁dok	-11.8945
arer	-11.8946
▁mary	-11.8946
▁tdh	-11.8948
▁yid	-11.895
▁rir	-11.8954
arfine	-11.8957
machi	-11.8958
▁khar	-11.8958
▁fass	-11.8959
▁der	-11.8962
lifa	-11.8963
▁sbay	-11.8969
▁dinek	-11.8969
▁tart	-11.8969
▁sawtou	-11.8973
▁khouk	-11.8973
▁ayya	-11.8976
adhir	-11.8981
ndhomch	-11.8982
▁nawa	-11.8984
▁netf	-11.8985
lement	-11.8986
▁nafr	-11.8989
tidhar	-11.8989
▁tchad	-11.8991
obek	-11.8992
echrou	-11.8992
vid	-11.8992
▁nente	-11.8993
▁wtal	-11.8993
▁nwal	-11.8995
▁chrin	-11.8996
▁safe	-11.8996
▁fly	-11.8996
otouh	-11.8997
▁hoa	-11.8999
▁bazoul	-11.8999
▁tabarka	-11.9
nse	-11.9002
▁chwey	-11.9004
▁jém	-11.9005
▁tmed	-11.9006
stannew	-11.9009
àw	-11.9009
▁issm	-11.901
▁bdaw	-11.9013
▁haba	-11.9014
mber	-11.9017
▁maalim	-11.902
▁yehlik	-11.9021
wli	-11.9021
▁bli	-11.9021
berk	-11.9022
meni	-11.9022
▁brv	-11.9024
▁sor	-11.903
wahch	-11.9031
rci	-11.9032
▁tag	-11.9034
▁tkar	-11.9036
▁zebii	-11.9036
▁eriya	-11.9039
▁pcq	-11.9039
nz	-11.904
▁tbal	-11.904
kolo	-11.904
▁tfouuu	-11.9041
▁tbarkal	-11.9042
▁yanja	-11.9043
▁fav	-11.9044
▁toooooop	-11.9045
alti	-11.9045
oooooooo	-11.9046
▁bazz	-11.9047
ounik	-11.9051
▁tore	-11.9056
oulia	-11.9057
echef	-11.9058
ally	-11.9059
liti	-11.9059
▁waj	-11.906
zok	-11.9061
▁raies	-11.9061
gage	-11.9061
farah	-11.9063
▁brch	-11.9065
▁latra	-11.9067
omen	-11.9072
▁erras	-11.9073
ahbet	-11.9073
▁khallit	-11.9078
abineha	-11.9079
▁need	-11.9081
▁add	-11.9084
libia	-11.9085
emchi	-11.9086
▁itla	-11.9088
▁zedt	-11.909
▁waaaw	-11.9093
eeeb	-11.9093
bilna	-11.9095
elo	-11.9096
▁croi	-11.9096
wlad	-11.9097
▁nawr	-11.9098
▁thod	-11.9099
adlou	-11.91
alii	-11.9102
▁wtab	-11.9109
▁majab	-11.9113
▁nhebouh	-11.9114
▁haddad	-11.9114
▁gga	-11.9116
▁tork	-11.9117
▁chfa	-11.9119
▁hanna	-11.9122
▁zboub	-11.9123
ybk	-11.9123
zrou	-11.9124
htou	-11.9124
tklm	-11.9126
▁yorz	-11.9129
▁likes	-11.913
▁loi	-11.913
▁etjib	-11.9131
▁name	-11.9132
▁europ	-11.9135
adat	-11.9135
▁ftha	-11.9138
oskon	-11.9139
yti	-11.9139
▁yg	-11.9139
▁tfouuuh	-11.9141
▁mosals	-11.9141
▁gob	-11.9143
▁mnawar	-11.9143
dhaher	-11.9144
▁nese	-11.9146
ß	-11.9148
▁hk	-11.9148
azez	-11.9151
ibich	-11.9152
wassel	-11.9152
▁wele	-11.9152
▁moslim	-11.9154
dhb	-11.9154
coup	-11.9155
▁ichouf	-11.9156
▁diplom	-11.916
▁loo	-11.9161
▁echbi	-11.9163
▁bsayes	-11.9163
▁sabab	-11.9164
abrou	-11.9164
▁bittawfi	-11.9165
▁ghi	-11.9166
liii	-11.9169
▁blasit	-11.9169
▁nen	-11.9171
athem	-11.9171
zboubna	-11.9173
wiw	-11.9173
belha	-11.9175
nedi	-11.9175
talbou	-11.9176
▁chwe	-11.9179
amdoula	-11.9181
tgoul	-11.9181
▁lieu	-11.9182
▁hd	-11.9182
agar	-11.919
mmmmmmmmmmmm	-11.9191
anka	-11.9191
▁beth	-11.9192
rfik	-11.9192
asbin	-11.9194
▁marzo	-11.9194
▁mzya	-11.9194
dikom	-11.9194
afna	-11.9194
ochreb	-11.9197
nathef	-11.9198
▁regard	-11.9198
ikch	-11.92
▁report	-11.9201
ø	-11.9202
▁taye	-11.9202
▁spécial	-11.9202
▁choqué	-11.9202
▁dègaaaaaaaa	-11.9202
▁pevot	-11.9202
▁professionel	-11.9202
▁solidaire	-11.9202
▁expérience	-11.9202
▁qualifi	-11.9202
▁refrain	-11.9202
▁titulair	-11.9202
▁désabonne	-11.9203
▁enjoy	-11.9203
▁arsenal	-11.9203
▁rodbelek	-11.9203
▁entikhabet	-11.9203
▁tztm	-11.9203
▁metrobya	-11.9203
▁doctour	-11.9203
▁japon	-11.9203
▁lamthalou	-11.9203
▁novembre	-11.9203
▁prisident	-11.9203
▁sécuri	-11.9203
▁yfadhalhoulek	-11.9203
▁preparation	-11.9203
▁7050	-11.9203
▁mahjoub	-11.9203
▁yézzi	-11.9203
▁tosrof	-11.9203
▁akéka	-11.9203
▁defence	-11.9203
▁cluub	-11.9203
▁jenjoun	-11.9203
▁syria	-11.9203
▁nouweb	-11.9203
▁ratcho	-11.9203
▁kbiiiir	-11.9203
▁akahw	-11.9203
▁dmg	-11.9203
▁ostoura	-11.9203
▁younser	-11.9203
▁klip	-11.9204
▁jawbni	-11.9204
▁erriehi	-11.9204
▁erryahi	-11.9204
▁elmatch	-11.9204
▁saktin	-11.9204
▁esolta	-11.9204
▁ysabrek	-11.9204
▁propre	-11.9204
▁dayouth	-11.9204
▁manetsawer	-11.9204
▁couver	-11.9204
▁pardon	-11.9204
▁creativity	-11.9205
▁beauty	-11.9205
▁défenseur	-11.9205
▁ezzin	-11.9205
▁again	-11.9205
▁elmoncef	-11.9205
▁inchalleh	-11.9205
▁attaquent	-11.9205
▁methayel	-11.9205
▁cristiano	-11.9205
▁bjanb	-11.9205
▁yonsro	-11.9206
▁boucle	-11.9206
▁rouissi	-11.9206
syir	-11.9206
▁bientôt	-11.9206
▁lahas	-11.9207
▁mouselsel	-11.9207
▁samaket	-11.9208
▁tholm	-11.9208
▁madrs	-11.9208
▁dzair	-11.9208
▁savoir	-11.9208
▁khiiit	-11.9208
▁mashalah	-11.9209
▁mazbalat	-11.9209
▁mounachet	-11.9209
▁ednadik	-11.921
▁joumhor	-11.921
▁sramkom	-11.921
▁dhabout	-11.921
▁aytam	-11.9211
▁faible	-11.9211
▁kohb	-11.9212
▁tekdeb	-11.9212
▁looooooooooool	-11.9212
▁mohsen	-11.9213
▁dowal	-11.9213
▁ljana	-11.9213
▁toktel	-11.9213
▁culture	-11.9213
▁ymathel	-11.9213
odra	-11.9214
▁fibelek	-11.9214
▁ileyhi	-11.9214
▁neth	-11.9214
▁chohada	-11.9215
▁maydoum	-11.9215
▁enchla	-11.9215
farha	-11.9215
saybou	-11.9215
▁jaridet	-11.9215
▁lebnet	-11.9215
▁hatt	-11.9216
▁lmot	-11.9216
▁metanbir	-11.9216
▁foutre	-11.9216
tachghil	-11.9216
▁bolden	-11.9216
▁nomro	-11.9216
▁mayzid	-11.9216
▁lézm	-11.9217
▁woow	-11.9217
▁pluto	-11.9217
▁tistahil	-11.9217
▁bravau	-11.9217
▁habib	-11.9217
▁div	-11.9217
▁mefhemt	-11.9217
▁catastrophe	-11.9217
▁leblasa	-11.9217
▁kaskrout	-11.9218
▁khebra	-11.9218
▁salafiste	-11.9218
▁kazoni	-11.9218
▁nayyek	-11.9219
▁lebléd	-11.9219
ayawan	-11.9219
▁presidant	-11.922
▁chribtek	-11.922
▁abonnez	-11.922
zl	-11.922
▁chiyeb	-11.9221
▁mostakbel	-11.9221
▁koffar	-11.9221
▁stress	-11.9221
▁fastatir	-11.9221
arda	-11.9221
▁errasmi	-11.9222
▁oilad	-11.9222
▁ychawhou	-11.9222
▁nsé	-11.9223
▁nadhif	-11.9223
▁lilli	-11.9224
▁tfare	-11.9224
▁nje	-11.9224
▁doute	-11.9224
▁yrham	-11.9224
▁lefsed	-11.9224
▁continuez	-11.9224
▁netfarrej	-11.9224
▁melekher	-11.9224
▁tabdil	-11.9225
▁hachetna	-11.9225
▁eng	-11.9225
oreya	-11.9225
▁cadre	-11.9225
▁choisi	-11.9226
▁ikawer	-11.9226
▁njiw	-11.9226
▁akrmi	-11.9226
▁enchlah	-11.9227
▁dzey	-11.9228
▁yéchfih	-11.9228
▁inajim	-11.9228
▁ktef	-11.9229
▁kelmt	-11.923
sore	-11.923
▁nick	-11.923
▁tetfarrej	-11.923
▁nech	-11.923
▁nched	-11.9231
▁wedhnou	-11.9231
▁mizen	-11.9231
▁terain	-11.9232
nejjem	-11.9232
▁lzim	-11.9232
aies	-11.9232
▁essayer	-11.9232
▁mamest	-11.9233
▁46	-11.9233
ayelti	-11.9233
sif	-11.9234
▁serv	-11.9234
rayri	-11.9234
▁wente	-11.9234
▁suite	-11.9235
▁nbravo	-11.9235
▁mahab	-11.9235
kthor	-11.9236
▁jaza	-11.9236
ouuuuuuuuu	-11.9237
▁marine	-11.9237
▁moyen	-11.9237
▁yerahmou	-11.9237
▁bonn	-11.9237
▁yorid	-11.9238
▁krasi	-11.9238
▁baladiya	-11.9238
tmout	-11.9239
▁makrouh	-11.9239
▁fesid	-11.924
rzougui	-11.924
▁ynaykou	-11.9241
akber	-11.9241
▁farra	-11.9241
▁nhezzou	-11.9242
▁drous	-11.9243
▁sereg	-11.9243
▁every	-11.9243
alouh	-11.9243
▁lmarzouki	-11.9243
▁enahtha	-11.9245
▁libhim	-11.9245
▁tezha	-11.9245
▁toilette	-11.9246
▁touchante	-11.9246
▁nkouno	-11.9247
▁wetta	-11.9248
▁koffa	-11.9248
▁yodher	-11.9249
▁yamchi	-11.9249
uv	-11.9249
▁liklab	-11.9249
▁ablah	-11.925
adith	-11.925
▁karahba	-11.925
▁chiba	-11.925
▁seter	-11.9252
▁yhanni	-11.9252
▁06	-11.9253
▁rouskom	-11.9253
tahki	-11.9253
▁ybarak	-11.9254
oyez	-11.9255
ooom	-11.9255
tawfi	-11.9256
▁stanin	-11.9256
▁echkon	-11.9256
▁sahtek	-11.9257
nabrou	-11.9257
▁ywassel	-11.9258
▁abonnements	-11.9258
amalya	-11.9259
▁inayek	-11.9259
abhom	-11.9259
▁yaslah	-11.9259
▁elifriki	-11.926
▁mafem	-11.926
▁khalles	-11.926
▁entidab	-11.9261
▁verra	-11.9261
▁omék	-11.9261
▁zhar	-11.9262
▁kariha	-11.9262
▁nasiha	-11.9262
▁ntfrj	-11.9264
▁yosel	-11.9264
▁restera	-11.9264
▁tfakar	-11.9265
oooom	-11.9267
hezzou	-11.9267
▁belhy	-11.927
▁idikom	-11.9271
▁hamami	-11.9271
▁manaseb	-11.9271
fodh	-11.9271
▁tare	-11.9272
alouli	-11.9272
mjanin	-11.9272
▁ryousna	-11.9273
▁rakzou	-11.9274
▁enne	-11.9275
kiou	-11.9276
▁ykhi	-11.9276
▁rkhis	-11.9277
▁mastour	-11.9277
fah	-11.9279
▁offre	-11.928
▁ymathlou	-11.9282
▁auto	-11.9282
izeb	-11.9282
▁tnja	-11.9282
taleb	-11.9284
▁adm	-11.9284
youh	-11.9284
▁font	-11.9284
▁yetmany	-11.9285
▁soure	-11.9286
▁tets	-11.9286
▁karwi	-11.9286
▁miliar	-11.9287
▁ynayek	-11.9287
▁hseb	-11.9288
isation	-11.9288
▁anest	-11.9288
▁machalh	-11.9289
fkar	-11.9289
▁bnt	-11.9289
fayda	-11.9289
▁hazen	-11.9289
▁eltounes	-11.929
▁ytb	-11.9291
bird	-11.9291
▁sawar	-11.9292
▁ltouns	-11.9294
▁kachf	-11.9294
▁lijam	-11.9294
atlo	-11.9294
▁rbo	-11.9294
▁sayedi	-11.9295
bid	-11.9296
▁seyasa	-11.9297
▁yakra	-11.9298
▁elbarra	-11.9298
▁hamem	-11.93
bitha	-11.93
▁louwel	-11.9301
▁wmezel	-11.9302
▁saad	-11.9303
▁kerch	-11.9303
▁guid	-11.9306
▁wawww	-11.931
sssssssssssss	-11.931
▁yarhmha	-11.931
▁tnejem	-11.9311
▁barnemjek	-11.9311
▁beflousou	-11.9312
▁lehou	-11.9312
▁04	-11.9312
▁liklam	-11.9313
▁nhaar	-11.9316
▁elbatal	-11.9319
▁irye	-11.932
sawar	-11.9321
▁fdaya	-11.9321
▁ysaybou	-11.9321
awadi	-11.9322
▁ydor	-11.9323
▁nsee	-11.9323
bhou	-11.9324
▁ywf	-11.9324
▁mtee	-11.9325
▁sayf	-11.9326
▁twelli	-11.9326
mohim	-11.9327
▁ahbet	-11.9328
▁mayhemek	-11.9328
▁meziena	-11.9328
▁eklem	-11.9328
▁benour	-11.933
▁efhmou	-11.9332
web	-11.9332
orba	-11.9334
▁tekil	-11.9335
▁yath	-11.9336
▁ghayrin	-11.9337
▁dawi	-11.9337
▁fsa	-11.9337
sér	-11.9337
▁offf	-11.9338
ifhmou	-11.9339
▁lerhab	-11.934
▁lamine	-11.934
▁nees	-11.9342
andak	-11.9342
▁balti	-11.9342
▁tarbia	-11.9343
▁fuk	-11.9343
▁tnjm	-11.9343
▁ù	-11.9344
▁naiek	-11.9345
▁izidek	-11.9346
▁yihdi	-11.9348
sme	-11.935
▁yahdihom	-11.9351
▁amalna	-11.9351
eeeeeel	-11.9354
erba	-11.9355
▁sorak	-11.9355
▁dance	-11.9355
▁ball	-11.9356
▁sorra	-11.9357
▁maysir	-11.9357
▁aandek	-11.9357
▁masouli	-11.9358
▁sabouk	-11.9358
awj	-11.936
▁meyji	-11.936
▁eria	-11.9361
▁yahafdo	-11.9362
▁talbin	-11.9362
▁etji	-11.9363
▁yatma	-11.9365
▁héka	-11.9365
▁brahmi	-11.9366
▁basas	-11.9367
majd	-11.9367
rati	-11.9368
▁sobhanou	-11.9368
▁yssir	-11.9371
fif	-11.9371
ode	-11.9372
blèd	-11.9375
▁nssit	-11.9375
aychik	-11.9376
alèm	-11.9377
▁ihebo	-11.9379
wdhou	-11.938
▁galta	-11.938
▁sakk	-11.9381
▁yehdihom	-11.9382
▁badalt	-11.9382
▁garn	-11.9383
▁loujayn	-11.9383
▁chofou	-11.9383
▁béha	-11.9384
kolkom	-11.9385
▁cava	-11.9385
▁artiste	-11.9386
▁now	-11.9386
▁logha	-11.9387
▁nzido	-11.9388
▁hajem	-11.9389
▁sv	-11.9389
mojrom	-11.9389
zed	-11.939
▁yaslouma	-11.9391
▁binou	-11.9393
▁aadi	-11.9394
▁ykhales	-11.9394
▁goum	-11.9395
▁lowel	-11.9395
awth	-11.9395
orbet	-11.9396
▁tetkal	-11.9396
▁jemi	-11.9398
rayti	-11.9398
▁chakar	-11.9399
▁yhemek	-11.94
▁libye	-11.9401
▁wizar	-11.9403
▁tetfarjou	-11.9404
bè	-11.9404
▁ikamel	-11.9406
hadad	-11.9408
▁bléch	-11.9411
▁hett	-11.9411
▁merciii	-11.9412
▁syasi	-11.9412
▁milion	-11.9412
mechi	-11.9414
▁equipet	-11.9415
▁mochekl	-11.9416
▁lequipe	-11.9417
lan	-11.9417
▁skand	-11.9417
▁hmid	-11.9418
fous	-11.942
▁reg	-11.942
sartou	-11.942
▁hne	-11.9421
▁thney	-11.9423
▁bossss	-11.9425
▁tete	-11.9425
taoufik	-11.9426
▁beled	-11.9429
aaaaah	-11.9431
▁khle	-11.9431
▁khot	-11.9431
▁menik	-11.9433
▁irhabi	-11.9433
▁bazaf	-11.9435
▁fathel	-11.9437
▁hedek	-11.9437
▁wekef	-11.9439
▁kawla	-11.9439
ennes	-11.9441
▁kime	-11.9441
▁deep	-11.9441
hajem	-11.9442
▁inikou	-11.9443
▁ghani	-11.9445
▁sisi	-11.9446
▁chla	-11.9446
▁nent	-11.945
▁ibda	-11.945
▁ici	-11.945
hedhi	-11.9451
▁compl	-11.9451
houdi	-11.9452
▁lbes	-11.9452
▁choufen	-11.9454
koi	-11.9455
▁inhar	-11.9459
▁sawer	-11.9465
▁tbda	-11.9467
▁hadd	-11.9468
tarmo	-11.9468
stahil	-11.9469
▁entren	-11.947
▁lkl	-11.9474
awwel	-11.9476
ablo	-11.9478
adek	-11.948
suissi	-11.948
mloulek	-11.948
▁side	-11.9482
▁oumouri	-11.9483
▁kanit	-11.9484
▁nulle	-11.9487
aragi	-11.9489
▁mano	-11.9492
▁idi	-11.9494
▁elibiya	-11.9494
▁farda	-11.9494
abouch	-11.9495
▁jayech	-11.9496
rrrrrr	-11.9496
fen	-11.9499
▁soltan	-11.95
dmt	-11.95
gie	-11.9503
▁mahech	-11.9503
▁sormou	-11.9504
▁fassa	-11.9504
▁nchoufo	-11.9504
sayib	-11.9507
▁emes	-11.9508
▁res	-11.9509
▁rida	-11.9509
▁lehya	-11.951
▁fadi	-11.9512
▁emsa	-11.9513
yette	-11.9514
▁ghal	-11.9514
awent	-11.9514
jarbou	-11.9515
▁ykhalih	-11.9516
▁safa	-11.9517
▁sub	-11.9519
batal	-11.952
▁bani	-11.9521
▁rasik	-11.9523
héch	-11.9525
beha	-11.9525
▁dhah	-11.9526
▁kadh	-11.9528
▁ouiiii	-11.9531
arjouh	-11.9534
stahel	-11.9536
▁matnajem	-11.9538
▁hon	-11.9541
▁slimmmm	-11.9542
▁yis	-11.9542
▁tilha	-11.9543
▁waaw	-11.9543
▁mettha	-11.9544
▁lahn	-11.9548
▁insane	-11.9549
massi	-11.9549
▁asa	-11.955
▁mabroukkkkkk	-11.9551
zy	-11.9552
▁nasr	-11.9552
▁klayy	-11.9553
edhika	-11.9553
▁asyed	-11.9554
▁wrakom	-11.9555
dhrob	-11.9556
▁tabki	-11.9557
▁bient	-11.9559
asef	-11.9559
▁leble	-11.9559
ytek	-11.9563
tzid	-11.9563
▁rayhom	-11.9564
▁pis	-11.9564
▁aalikom	-11.9564
▁von	-11.9564
rakez	-11.9565
▁bkh	-11.9567
lkoum	-11.957
▁bebe	-11.9571
▁bdat	-11.9575
▁zedet	-11.9575
iltou	-11.9576
▁moun	-11.9577
▁bilha	-11.9578
▁essaf	-11.9579
ktheb	-11.9579
▁basem	-11.958
olék	-11.9583
federation	-11.9584
▁rayen	-11.9584
▁klil	-11.9586
▁ramdhan	-11.9586
mkach	-11.9588
▁tnajemch	-11.959
▁bij	-11.9591
▁khorm	-11.9591
▁nrak	-11.9592
nnik	-11.9594
zart	-11.9595
▁tarka	-11.9601
nendmou	-11.9602
▁tesir	-11.9602
▁likbar	-11.9602
hareb	-11.9603
▁yberk	-11.9605
▁yekoul	-11.9609
▁presk	-11.961
▁ghaz	-11.9611
louu	-11.9611
wez	-11.9614
▁mandhr	-11.9615
ajil	-11.9615
▁forme	-11.9615
kér	-11.9616
zor	-11.9617
▁omrou	-11.9617
ouuuuuuuuuuu	-11.9618
▁doula	-11.962
▁harr	-11.9623
bouhom	-11.9625
▁finou	-11.9625
▁mabad	-11.9626
▁labs	-11.9629
▁zant	-11.9629
▁rim	-11.963
bravo	-11.963
▁fatou	-11.9631
▁ntman	-11.9631
titha	-11.9632
bayen	-11.9632
seur	-11.9635
léé	-11.9636
css	-11.9637
▁tlev	-11.964
▁fyk	-11.964
▁saibou	-11.9642
▁rabiiiii	-11.9642
▁mokhi	-11.9643
barkallah	-11.9643
▁ijaw	-11.9644
▁marou	-11.9645
innn	-11.9645
▁ruh	-11.9647
rék	-11.9648
awnouna	-11.965
▁wldi	-11.9651
▁rb	-11.9656
▁fem	-11.9659
▁hloua	-11.9661
▁ydin	-11.9661
▁alaho	-11.9662
lho	-11.9669
ochkrou	-11.9669
▁fassad	-11.9669
▁layla	-11.967
itch	-11.9673
arrjou	-11.9674
▁via	-11.9682
atlet	-11.9682
▁ychfik	-11.9682
alouma	-11.9683
isé	-11.9683
▁tayeh	-11.9686
▁raya	-11.9687
▁jedd	-11.9688
▁edde	-11.9689
ayelt	-11.9691
▁jeyeb	-11.9695
▁lghalia	-11.9696
slema	-11.9696
▁essna	-11.9697
jém	-11.9699
akher	-11.97
achit	-11.97
▁winchalla	-11.9701
▁madm	-11.9702
▁shar	-11.9702
▁vite	-11.9702
▁jmla	-11.9705
▁ndha	-11.9705
▁essahaf	-11.9705
▁voul	-11.9714
▁hja	-11.9715
riib	-11.9722
▁nj	-11.9723
▁bassass	-11.9723
jil	-11.9724
▁moula	-11.9725
atna	-11.9725
▁nakra	-11.973
tfakrou	-11.9731
awrou	-11.9732
▁charif	-11.9737
bag	-11.9738
▁ihot	-11.9738
beji	-11.9739
▁biled	-11.9739
komech	-11.9743
▁tfoooh	-11.9746
▁bayer	-11.9747
▁lemer	-11.9748
▁diz	-11.975
assou	-11.975
▁loooooo	-11.975
▁pd	-11.9751
▁laz	-11.9751
iiiiiiiiiiiiiiit	-11.9755
▁mental	-11.9756
▁wji	-11.9759
▁chto	-11.976
▁ador	-11.9761
▁moto	-11.9762
▁sahbou	-11.9763
passé	-11.9766
▁show	-11.9766
hzou	-11.9767
▁galek	-11.9771
▁yakoubi	-11.9771
▁tchedou	-11.9771
hader	-11.9773
▁profite	-11.9775
▁nafsek	-11.9778
nemchou	-11.9781
bedh	-11.9782
azina	-11.9787
achou	-11.9787
▁appare	-11.9788
▁fhimt	-11.9789
jhek	-11.9791
▁khalet	-11.9791
▁ny	-11.9792
▁milad	-11.9793
▁nchal	-11.9793
▁elbe	-11.9797
▁yetwa	-11.9797
roumin	-11.9798
dakhel	-11.9799
▁lass	-11.9801
▁balkom	-11.9801
▁maahom	-11.9805
▁chkou	-11.9805
ibna	-11.9809
▁alwatani	-11.981
khlou	-11.9813
jahl	-11.9814
▁htha	-11.9818
▁tét	-11.982
▁alikoum	-11.9821
ordh	-11.9823
▁kadha	-11.9824
▁partir	-11.9825
klab	-11.9826
▁diri	-11.9828
▁yesm	-11.9832
asaf	-11.9836
iiiiin	-11.9838
▁yben	-11.984
▁mefih	-11.9844
▁ac	-11.9845
alat	-11.9847
▁rza	-11.9849
▁ndef	-11.985
najmou	-11.9852
▁imes	-11.9854
▁yehmi	-11.9854
▁gla	-11.9855
idmit	-11.9856
▁touch	-11.9857
monta	-11.9857
rrrrrrrr	-11.9862
▁amthel	-11.9863
▁kabes	-11.9863
▁wadhe	-11.9864
ahira	-11.9866
▁wenes	-11.9867
▁norm	-11.9868
999	-11.9868
ibech	-11.9869
aaad	-11.9873
sey	-11.9873
louf	-11.9878
▁liik	-11.9879
▁idih	-11.9885
slama	-11.9886
▁lkbira	-11.9886
▁lmortaz	-11.9887
▁lfe	-11.9888
imtek	-11.9888
fouha	-11.9889
mmmmmmmmmmmmmm	-11.9894
▁yhoud	-11.9896
▁wijha	-11.9898
▁yafdh	-11.99
oltef	-11.99
00	-11.9902
▁hyati	-11.9902
athara	-11.9907
aloulou	-11.9913
▁billi	-11.9915
▁erria	-11.9918
▁jemaa	-11.9919
fahri	-11.9922
▁galib	-11.9926
▁chwar	-11.9927
iiiiiiiiiiiiiit	-11.9927
adto	-11.9928
▁dami	-11.9929
▁yhdi	-11.9929
▁bru	-11.993
falmou	-11.9941
▁arabi	-11.9946
mlk	-11.9946
antha	-11.9947
▁mezzel	-11.9948
▁yarfa	-11.9948
tes	-11.9951
▁kafa	-11.9951
hih	-11.9954
khaf	-11.9955
leem	-11.9955
▁kbel	-11.9961
▁kiff	-11.9968
adhiy	-11.997
assra	-11.9971
srouh	-11.9971
▁fous	-11.9972
yama	-11.9974
▁yaati	-11.9975
▁brab	-11.9976
afik	-11.9979
▁hadad	-11.998
▁eyyy	-11.9981
udi	-11.9981
▁eser	-11.9982
▁jeyebh	-11.9984
▁four	-11.9987
▁kabr	-11.9987
▁wlaw	-11.9988
zghar	-11.9988
rbhou	-11.999
rir	-11.999
cle	-11.9991
▁matnajm	-11.9991
▁hate	-11.9991
60	-11.9992
▁nath	-11.9997
▁seri	-11.9998
▁nebda	-12
oche	-12.0001
▁djaboo	-12.0001
▁jeme	-12.0002
▁lafri	-12.0003
▁raper	-12.0007
▁yachfik	-12.0008
▁eddar	-12.0011
▁yhoudi	-12.0012
milha	-12.0019
▁dher	-12.0023
▁certain	-12.0025
▁tekthb	-12.0028
khedh	-12.0031
idhom	-12.0035
akhlek	-12.0037
▁natl	-12.0037
▁ando	-12.0037
▁akil	-12.004
▁chaft	-12.0043
▁ghon	-12.0043
▁yestad	-12.0045
▁mdam	-12.0046
▁yfas	-12.0046
baraka	-12.005
▁woi	-12.0054
rà	-12.0054
▁bchay	-12.0055
gaw	-12.0055
▁kkkk	-12.006
▁naar	-12.0062
▁asaf	-12.0068
▁jéb	-12.0068
▁twarri	-12.0069
yadet	-12.007
mta	-12.0071
▁spe	-12.0074
ante	-12.0074
▁irou	-12.0075
▁tsalla	-12.0077
▁edam	-12.0078
▁erre	-12.008
▁ith	-12.0081
wj	-12.0082
thb	-12.0085
amli	-12.0086
▁marwa	-12.0086
▁aamlou	-12.0088
▁salha	-12.0089
barra	-12.0089
abeya	-12.009
bii	-12.009
tfahmou	-12.0091
▁nahdhaoui	-12.0091
kalmek	-12.0094
wasil	-12.0098
▁yahf	-12.0101
▁gars	-12.0102
▁mabna	-12.0103
jim	-12.0104
▁frer	-12.0107
yyyyyy	-12.0107
bank	-12.0108
▁mimtk	-12.0114
▁yiz	-12.0114
khrou	-12.0124
tilha	-12.0127
dama	-12.013
atyet	-12.0132
▁hbelt	-12.0137
▁elkolkom	-12.0139
▁gharb	-12.0141
gua	-12.0142
▁tethal	-12.0143
▁hadom	-12.0144
▁selimi	-12.0146
▁lfer	-12.0149
afefa	-12.0154
adika	-12.0155
▁belg	-12.0159
tounes	-12.0159
esbou	-12.0159
▁yem	-12.016
amr	-12.016
▁28	-12.0161
ayche	-12.0161
abo	-12.0162
trm	-12.0162
amed	-12.0163
▁béb	-12.0164
abli	-12.0165
▁oujouh	-12.0166
▁kallou	-12.0167
▁mej	-12.0168
▁sede	-12.0173
▁hard	-12.0173
▁idh	-12.0173
▁zaba	-12.0174
ettt	-12.0177
▁lbou	-12.0184
▁kabar	-12.0184
▁limin	-12.0185
tari	-12.0185
lbo	-12.0186
telkom	-12.0189
èdi	-12.0189
▁floss	-12.0194
▁caaaaaaaaaaa	-12.0195
iyit	-12.0195
▁charr	-12.0198
imhom	-12.0199
tkhafich	-12.02
leech	-12.0202
tared	-12.0202
etkallem	-12.0204
indha	-12.0208
kab	-12.0213
▁fadhl	-12.0213
rasoul	-12.0214
▁taamlou	-12.0214
tchabah	-12.0214
▁agr	-12.0214
ktbou	-12.0215
thha	-12.0216
▁takhra	-12.0217
▁alehom	-12.0217
gata	-12.0221
achtou	-12.0221
ffffffffffffff	-12.0221
▁iste	-12.0224
▁amalt	-12.0225
▁nsib	-12.0231
fffffffffffff	-12.0232
abro	-12.0233
▁dhki	-12.0234
▁officielle	-12.0234
avo	-12.0234
oriyet	-12.0236
ttttt	-12.0237
iten	-12.0237
▁taoua	-12.0239
▁wiouuu	-12.0239
▁yjihom	-12.0241
dhouma	-12.0244
ayrin	-12.0245
▁oki	-12.0248
eeen	-12.0248
fchel	-12.0249
naaa	-12.0249
▁jalta	-12.025
mail	-12.0254
▁yarjaa	-12.0254
lok	-12.0254
▁ghat	-12.0256
ktib	-12.0256
▁nawar	-12.0259
▁wlahi	-12.0261
▁assal	-12.0262
▁tgou	-12.0262
akhla	-12.0263
▁tfouuuuuu	-12.0265
333333333	-12.0265
▁jema	-12.0266
▁imte	-12.0267
néya	-12.0268
ysi	-12.0268
tiyou	-12.0268
▁wyah	-12.0269
▁esab	-12.0271
chouh	-12.0271
▁essem	-12.0272
tirameti	-12.0273
▁taati	-12.0274
onser	-12.0282
star	-12.0286
pl	-12.0289
mchet	-12.0291
▁yjibouh	-12.0291
rbah	-12.0294
▁hell	-12.0296
izz	-12.0296
▁mahlah	-12.0297
▁yhfdh	-12.0298
▁mish	-12.03
▁tinja	-12.0301
▁sexy	-12.0303
tttttttttttt	-12.0303
▁erou	-12.0307
adil	-12.031
adkom	-12.0315
karez	-12.0315
▁matou	-12.0315
▁mogh	-12.0317
▁diii	-12.0318
erte	-12.0319
▁mazél	-12.0322
anech	-12.0331
▁braaavo	-12.0332
fti	-12.0335
tta	-12.0337
▁filli	-12.0339
amdoullah	-12.0346
rgi	-12.0351
▁tahfoun	-12.0356
▁zabbour	-12.0356
aweda	-12.0358
rique	-12.036
chhed	-12.036
▁hamdl	-12.0362
▁ommi	-12.0369
▁mouse	-12.0371
ousef	-12.0372
▁samh	-12.0374
helk	-12.0376
echbah	-12.0377
▁snee	-12.0377
▁pffffffffffffff	-12.038
▁taww	-12.0381
▁hol	-12.0381
▁bedmou	-12.0384
tandid	-12.0386
▁mezyan	-12.0388
▁moura	-12.0391
njeh	-12.0392
▁mochta	-12.0395
▁wyo	-12.0396
assim	-12.0396
▁fatha	-12.0396
▁nchlhh	-12.0398
▁ychi	-12.04
yeet	-12.0403
▁nssa	-12.0404
▁â	-12.0408
▁tfatt	-12.041
▁algerien	-12.0411
fitna	-12.0411
▁bouzink	-12.0411
jmi	-12.0411
▁hobb	-12.0413
▁osb	-12.0415
ying	-12.0415
▁ouii	-12.0416
▁aaaa	-12.0418
irath	-12.0423
mawdhou	-12.0426
▁elghali	-12.0426
▁tmar	-12.0426
▁choum	-12.0427
mlouli	-12.0431
touhech	-12.0431
▁jeye	-12.0431
▁takw	-12.0432
etli	-12.0433
élha	-12.0433
▁barro	-12.0433
▁teint	-12.0434
▁doi	-12.0434
chawah	-12.0436
▁masm	-12.0436
tlouch	-12.0438
illi	-12.0441
asima	-12.0444
bith	-12.0445
▁mouwaf	-12.0445
tunis	-12.0447
▁yefhm	-12.045
▁manti	-12.045
▁essiass	-12.0454
▁rij	-12.0455
▁jeyin	-12.0456
▁lisa	-12.0456
alib	-12.0458
ééééé	-12.046
lelna	-12.046
▁nistano	-12.0461
lkk	-12.0462
▁mabr	-12.0465
▁450	-12.0466
▁yahfadh	-12.0469
ejem	-12.0471
lta	-12.0471
eyt	-12.0473
ekhdmou	-12.0475
▁hadda	-12.048
iiiik	-12.048
gur	-12.0481
khdim	-12.0482
yyyyy	-12.0487
▁ekb	-12.0491
▁help	-12.0492
pper	-12.0493
▁tista	-12.0494
▁lawej	-12.0495
lllllllll	-12.0496
ehseb	-12.0496
▁raye	-12.0498
▁lawla	-12.0499
▁khab	-12.05
onnar	-12.0501
omer	-12.0502
weth	-12.0503
▁jerjis	-12.0503
▁itlha	-12.0506
▁stil	-12.051
▁tbarka	-12.051
▁mawe	-12.0511
▁yetl	-12.0511
▁tfok	-12.0511
baba	-12.0514
▁déc	-12.0516
▁stylo	-12.0518
▁zebbii	-12.052
▁alaf	-12.0521
▁hann	-12.0523
wad	-12.0526
souf	-12.0526
▁irr	-12.0527
nne	-12.0528
▁lawe	-12.0529
arraji	-12.0531
▁jetou	-12.0533
▁matnajam	-12.0534
ppppp	-12.0534
▁yeth	-12.0539
ochrob	-12.0539
▁gl	-12.0542
rwan	-12.0543
▁najam	-12.0545
erheb	-12.0547
▁waled	-12.0548
off	-12.055
oulk	-12.0552
▁thak	-12.0553
▁evi	-12.0554
▁oumr	-12.0555
▁gratuit	-12.0556
▁tfat	-12.0556
jiha	-12.0557
▁manajm	-12.0558
▁arth	-12.0559
▁err	-12.0559
▁dy	-12.0561
coun	-12.0561
adhia	-12.0562
▁wink	-12.0563
▁yetra	-12.0564
ntidabet	-12.0564
▁makoun	-12.0566
ehchem	-12.0569
▁netfarj	-12.0569
▁tnayk	-12.0571
▁yst	-12.0574
ntakhab	-12.0576
esbo	-12.0577
zanatir	-12.0578
uuuuuuuuu	-12.0579
allouch	-12.058
▁ostor	-12.0581
▁dos	-12.0583
▁mzl	-12.0584
▁chwai	-12.0588
▁elhor	-12.0588
▁yetfarjo	-12.0589
ankom	-12.0589
▁bdee	-12.0592
▁resulta	-12.0593
▁habba	-12.0593
▁congratulation	-12.0594
▁yz	-12.0594
▁netla	-12.0594
▁dodger	-12.0595
▁tendance	-12.0595
▁feeling	-12.0596
maghrib	-12.0598
jboura	-12.0599
▁fyha	-12.0599
▁ghayr	-12.06
awdh	-12.0602
▁seyes	-12.0605
▁wjibou	-12.0606
▁lmnayk	-12.061
mazal	-12.0611
▁waldi	-12.0612
▁porn	-12.0613
kressi	-12.0615
feyda	-12.0616
kdeb	-12.0616
▁tenba	-12.0617
melyarat	-12.0617
adhiya	-12.0618
ejra	-12.0619
▁alaah	-12.0623
asss	-12.0623
▁vit	-12.0625
▁cravat	-12.0627
▁ijew	-12.0628
▁styl	-12.063
▁fedi	-12.063
í	-12.0631
ö	-12.0631
▁chakchouka	-12.0631
▁exception	-12.0631
▁grimace	-12.0631
▁ohandza	-12.0631
▁photoshop	-12.0631
▁révolution	-12.0631
▁succès	-12.0631
▁xnxx	-12.0631
▁boulabiar	-12.0631
▁junior	-12.0631
▁telfza	-12.0631
▁numéro	-12.0631
▁absolu	-12.0631
▁caravan	-12.0631
▁dictature	-12.0631
▁minimum	-12.0631
▁thaoira	-12.0631
▁malhouta	-12.0631
▁ebrahim	-12.0631
▁mizirya	-12.0631
▁frequence	-12.0631
▁janjoon	-12.0631
▁slooma	-12.0631
▁srarfi	-12.0631
▁voiture	-12.0631
▁information	-12.0631
▁eneramo	-12.0631
▁ettounisia	-12.0631
▁réussi	-12.0631
▁taftoufa	-12.0631
▁brjelha	-12.0631
▁karrahtou	-12.0631
▁lézim	-12.0631
▁mrigel	-12.0631
▁sincèrement	-12.0631
▁couloir	-12.0632
▁elfehri	-12.0632
▁filistin	-12.0632
▁présent	-12.0632
▁zwina	-12.0632
▁avril	-12.0632
▁abord	-12.0632
▁medecin	-12.0632
▁kharaman	-12.0632
▁gathafi	-12.0632
▁chimda	-12.0632
▁agrebi	-12.0632
▁béléhi	-12.0632
▁nahno	-12.0632
▁akrimi	-12.0632
▁iwafkek	-12.0632
▁tafhin	-12.0632
▁reyahi	-12.0632
▁jorret	-12.0633
▁changement	-12.0633
▁jaafar	-12.0633
▁mézél	-12.0633
guerden	-12.0633
▁ramdan	-12.0633
▁drogu	-12.0633
▁republique	-12.0633
▁hamhama	-12.0633
▁mkhader	-12.0633
▁lébléd	-12.0633
mshy	-12.0633
▁ecoute	-12.0633
▁fierté	-12.0633
▁feregh	-12.0634
▁nayeek	-12.0634
wahid	-12.0634
▁diable	-12.0634
▁retraite	-12.0634
▁reponse	-12.0634
▁confience	-12.0634
▁sadkouni	-12.0634
▁tostor	-12.0634
▁bouheli	-12.0634
▁fadlka	-12.0634
▁nihayet	-12.0635
▁kolibali	-12.0635
▁ziyed	-12.0635
▁wkhw	-12.0635
▁dimokratia	-12.0635
▁asbeb	-12.0635
▁amarika	-12.0635
▁zbob	-12.0635
▁resto	-12.0636
▁ifadhel	-12.0636
▁zaiem	-12.0636
▁bedhabet	-12.0636
▁reportage	-12.0636
hili	-12.0636
▁attaquan	-12.0636
▁mwaben	-12.0637
▁tahky	-12.0637
▁lokhra	-12.0637
▁zaborom	-12.0637
▁tfouuuuuuuuuh	-12.0637
▁bethabt	-12.0637
▁john	-12.0638
▁seulement	-12.0638
▁yohmil	-12.0638
▁hypocrite	-12.0638
▁étranger	-12.0638
▁maslahet	-12.0638
▁lfaza	-12.0638
▁yestahel	-12.0638
▁algérienne	-12.0638
▁kilmit	-12.0638
▁tataouin	-12.0638
▁ranni	-12.0639
▁lpetrol	-12.0639
▁makrem	-12.0639
▁lkahba	-12.0639
▁nakfou	-12.064
kaychi	-12.064
▁netsawar	-12.064
alfin	-12.064
▁dzayar	-12.064
▁chwereb	-12.0641
▁waaaaw	-12.0641
▁bejbouj	-12.0641
▁zwit	-12.0641
atkoum	-12.0642
▁awbech	-12.0642
wjoud	-12.0642
▁ykasrou	-12.0642
▁nerta	-12.0642
▁jalgh	-12.0642
▁bol	-12.0642
▁dawlit	-12.0642
▁yonsrak	-12.0643
▁jtm	-12.0643
▁matansach	-12.0643
▁jabry	-12.0643
▁netrach	-12.0643
▁yechki	-12.0643
▁touché	-12.0643
▁famous	-12.0643
▁ilyom	-12.0643
▁wncha	-12.0644
keychi	-12.0644
▁ohhhhh	-12.0644
jebtni	-12.0644
▁rapper	-12.0644
▁anno	-12.0644
▁mostawayet	-12.0644
▁nendebhom	-12.0644
karim	-12.0644
▁mithel	-12.0644
▁arabs	-12.0644
▁zbour	-12.0645
mtha	-12.0645
▁babouch	-12.0645
▁gadhoum	-12.0645
▁nayék	-12.0645
▁tibki	-12.0646
▁mafammech	-12.0646
▁ysabar	-12.0646
▁manajemtech	-12.0646
▁abset	-12.0646
▁hlektha	-12.0647
▁fhamt	-12.0647
▁aboné	-12.0647
tob	-12.0647
▁nerbhou	-12.0647
▁wagtech	-12.0648
▁echahid	-12.0648
pline	-12.0649
▁luxe	-12.0649
▁elotf	-12.0649
▁khdma	-12.0649
▁lirheb	-12.0649
▁sodfa	-12.0649
▁khchin	-12.0649
▁kath	-12.0649
àlà	-12.065
▁abjel	-12.065
▁tahmich	-12.065
▁niveaux	-12.065
▁psg	-12.0651
▁salifo	-12.0651
▁btbi	-12.0651
▁almania	-12.0652
▁emnayek	-12.0652
▁yonsrou	-12.0653
▁majorité	-12.0653
▁mousiba	-12.0654
▁nosken	-12.0654
▁karyouka	-12.0654
▁ataquant	-12.0654
thabt	-12.0654
▁mawtana	-12.0655
▁borgiba	-12.0655
▁lilifriki	-12.0656
▁ahnna	-12.0656
zez	-12.0657
▁wataneya	-12.0657
▁sinario	-12.0657
▁ferga	-12.0657
▁tlf	-12.0657
▁moussiba	-12.0658
▁gros	-12.0658
▁tnadhef	-12.0659
▁mariam	-12.0659
▁publique	-12.0659
▁brjoulia	-12.0659
▁voice	-12.0659
lllllll	-12.066
adafi	-12.066
▁jowaret	-12.066
▁awél	-12.0661
thil	-12.0662
▁efforts	-12.0662
▁ethaw	-12.0662
▁dhahir	-12.0663
▁echnia	-12.0664
▁louben	-12.0664
▁kilmet	-12.0664
▁ragad	-12.0665
lehoum	-12.0665
▁azza	-12.0665
10	-12.0665
▁ahdef	-12.0666
▁mojar	-12.0666
▁hafedh	-12.0666
▁dhhar	-12.0666
▁taaraf	-12.0666
▁yektheb	-12.0667
▁brooo	-12.0667
▁tnoufi	-12.0667
▁interactiv	-12.0667
▁blasto	-12.0667
▁dodgers	-12.0668
▁tarmi	-12.0668
baramej	-12.0668
▁chahr	-12.0668
▁woooh	-12.0668
lgadafi	-12.0668
▁lghaliya	-12.0669
▁btoul	-12.0669
▁bagla	-12.0669
▁forja	-12.067
awyin	-12.067
▁techwi	-12.0671
▁kdeb	-12.0671
▁enned	-12.0671
chelek	-12.0671
▁dewla	-12.0672
▁khyt	-12.0672
▁ftour	-12.0672
▁hazez	-12.0672
▁thnin	-12.0673
▁nathef	-12.0673
▁trabelssi	-12.0673
▁voit	-12.0674
▁khalifa	-12.0674
▁izza	-12.0674
▁alizi	-12.0675
▁bomba	-12.0675
▁sibsi	-12.0676
▁chkara	-12.0676
▁trasil	-12.0676
▁lwalidin	-12.0677
▁nebdew	-12.0677
▁age	-12.0678
▁itounsi	-12.0679
▁gang	-12.0679
▁chabiba	-12.0679
▁riht	-12.0679
▁mouder	-12.0679
ayiltou	-12.068
▁twahacht	-12.068
▁tfiih	-12.0682
▁afdhal	-12.0682
mloha	-12.0682
▁nichri	-12.0684
▁endhif	-12.0684
▁helkou	-12.0685
▁elpage	-12.0685
▁lilbled	-12.0685
▁lbléd	-12.0686
▁lotof	-12.0686
▁chehed	-12.0687
▁ktheb	-12.0688
▁roushom	-12.0688
▁jewebni	-12.0689
jazik	-12.0689
▁haut	-12.069
▁chhour	-12.069
▁under	-12.069
▁copi	-12.0691
▁6000	-12.0691
▁wejam	-12.0692
▁jortou	-12.0692
askom	-12.0692
▁supporter	-12.0693
awini	-12.0693
▁psy	-12.0694
wada	-12.0694
ouuuuuuu	-12.0694
▁tetmany	-12.0696
uuuuh	-12.0696
▁miziria	-12.0696
▁houda	-12.0697
▁zabourom	-12.0699
▁hadeka	-12.07
▁rjouliya	-12.07
▁bitawfik	-12.07
▁essiyessa	-12.0701
▁kiféch	-12.0702
▁zamen	-12.0702
▁dude	-12.0703
▁hello	-12.0704
afni	-12.0704
kkkkkkkkkkkkkk	-12.0704
ort	-12.0706
▁bessah	-12.0706
▁katy	-12.0707
▁richa	-12.0707
▁hkya	-12.0707
▁amiiin	-12.0707
▁mleyka	-12.0708
▁caché	-12.0709
▁ejbed	-12.071
iiiiiim	-12.071
▁nhess	-12.0712
▁ykamlou	-12.0712
▁tathir	-12.0713
▁ywef	-12.0714
▁ghalib	-12.0714
achbeh	-12.0714
▁sahbek	-12.0714
▁tatbi	-12.0716
▁sormik	-12.0719
▁damna	-12.0719
sedent	-12.0719
jdid	-12.0721
moumen	-12.0721
▁hazineh	-12.0723
▁sf	-12.0723
▁bgalb	-12.0723
▁elhoukoum	-12.0724
▁maoik	-12.0724
▁kalmet	-12.0725
kraheb	-12.0725
▁kili	-12.0726
chalah	-12.0727
adeth	-12.0728
▁fsad	-12.0728
▁yessir	-12.0728
▁jiti	-12.0729
▁ghaltin	-12.073
▁yerhamha	-12.073
▁rajeel	-12.073
▁bikhir	-12.073
▁zag	-12.0731
asilo	-12.0731
▁ezzine	-12.0732
zizty	-12.0733
▁ebkol	-12.0733
▁mfaberka	-12.0733
▁lwad	-12.0733
▁lwahid	-12.0734
▁msayba	-12.0734
amlouh	-12.0735
▁turkia	-12.0736
▁héz	-12.0737
▁tkoum	-12.0738
▁moulana	-12.0738
▁bllh	-12.0738
▁sabbat	-12.074
▁erro	-12.074
ejbet	-12.074
tesh	-12.0741
▁sfih	-12.0741
▁archi	-12.0742
▁idawla	-12.0742
▁ikbir	-12.0742
▁fechil	-12.0742
▁tlawj	-12.0743
▁chare	-12.0744
▁matkoun	-12.0745
▁7000	-12.0745
▁slimmmmm	-12.0745
▁torbiya	-12.0746
mthil	-12.075
▁mouzi	-12.075
▁nadhf	-12.0751
▁ijibo	-12.0753
▁dirab	-12.0753
▁krahtek	-12.0753
▁intro	-12.0753
▁waktach	-12.0754
play	-12.0754
glayeb	-12.0755
▁tst	-12.0755
▁dakhlet	-12.0755
bade	-12.0756
▁majach	-12.0758
▁janah	-12.0758
▁essour	-12.0758
orgod	-12.0758
▁eff	-12.0759
orb	-12.076
▁samhoun	-12.0762
▁wajha	-12.0763
▁mkarez	-12.0763
fesed	-12.0763
▁résultats	-12.0764
asis	-12.0766
▁ktar	-12.0766
▁lewled	-12.0766
addit	-12.0767
▁inc	-12.0767
▁eki	-12.0767
madab	-12.0768
▁thawri	-12.0769
▁attends	-12.0769
▁skat	-12.0772
anatich	-12.0772
▁asra	-12.0772
▁mohim	-12.0773
raftech	-12.0775
▁wajhek	-12.0776
▁africa	-12.0776
▁habibi	-12.0777
▁assi	-12.0778
▁chekh	-12.0779
▁faites	-12.078
▁nadhoula	-12.078
yne	-12.078
elkoum	-12.0781
▁sawrou	-12.0782
▁change	-12.0783
▁jnaya	-12.0784
issaba	-12.0786
▁hlow	-12.0786
▁mohtar	-12.0787
▁yhezek	-12.0787
▁soon	-12.0787
▁haza	-12.0791
▁jnab	-12.0791
wléd	-12.0793
hsin	-12.0794
▁rteh	-12.0794
▁ayouha	-12.0795
aaaak	-12.0796
▁coran	-12.0796
mloulkom	-12.0797
▁hassine	-12.0799
▁sakit	-12.0799
▁makén	-12.0799
▁elfriki	-12.0799
▁wijhou	-12.0799
▁pure	-12.08
▁fahmouni	-12.0801
▁omourha	-12.0802
zeh	-12.0803
▁tahch	-12.0806
▁cri	-12.0806
▁mino	-12.0806
▁wldik	-12.0806
wejh	-12.0807
▁itaya	-12.0807
houna	-12.0807
▁court	-12.0807
hér	-12.0807
laih	-12.0808
▁tamb	-12.081
▁kalleb	-12.081
▁seys	-12.0812
▁makanch	-12.0815
▁koki	-12.0816
▁mzelt	-12.0816
ahzeb	-12.0816
▁khadem	-12.0816
dhéb	-12.0818
▁hlal	-12.0818
tkalm	-12.0819
nsrek	-12.0821
riyehi	-12.0822
▁meilleurs	-12.0822
leu	-12.0823
wafi	-12.0824
diin	-12.0825
▁hajat	-12.0827
▁personelle	-12.0828
dhit	-12.0829
▁habineh	-12.0829
▁kebd	-12.083
▁nbara	-12.0831
ooooow	-12.0831
▁midou	-12.0831
betha	-12.0831
nsén	-12.0832
▁fhemna	-12.0832
▁rali	-12.0836
▁mayst	-12.0837
▁yarhemhom	-12.0837
inikom	-12.084
▁olh	-12.0842
▁wayeh	-12.0843
▁mgarb	-12.0843
▁ettahana	-12.0843
▁sarlou	-12.0843
afya	-12.0844
uuuur	-12.0844
sous	-12.0845
▁wè	-12.0847
▁siyassiya	-12.0848
11	-12.0848
▁erk	-12.085
▁loum	-12.0851
▁tnafe	-12.0852
▁mora	-12.0852
▁ziin	-12.0853
niiii	-12.0854
▁kof	-12.0855
▁zinik	-12.0855
kkkkkkkkkkkkk	-12.0856
▁ahd	-12.0856
▁capooo	-12.0856
dinar	-12.0857
▁alekher	-12.0858
sayab	-12.0859
▁vasi	-12.086
▁laaaaaa	-12.086
assef	-12.0861
▁lady	-12.0861
▁izidou	-12.0863
▁wnta	-12.0864
fjou	-12.0864
▁jawe	-12.0865
ifri	-12.0866
iiiid	-12.0867
aliyou	-12.0867
▁sassi	-12.0867
▁aady	-12.0868
▁khouna	-12.0869
▁mamstik	-12.087
▁mansad	-12.087
▁bako	-12.087
▁ayeltou	-12.087
▁akhw	-12.0873
▁afri	-12.0874
▁tsou	-12.0875
nsaw	-12.0876
einte	-12.0877
▁ichfih	-12.0878
▁chahriya	-12.088
▁pan	-12.088
▁tsib	-12.0881
tyk	-12.0881
▁ng	-12.0881
bis	-12.0882
▁ichedha	-12.0883
▁neik	-12.0883
▁emas	-12.0883
▁ahwel	-12.0884
▁thara	-12.0884
wanji	-12.0885
▁lbas	-12.0885
▁tklm	-12.0885
▁100000000000	-12.0885
▁sayef	-12.0886
▁react	-12.0886
▁wija	-12.0888
▁draj	-12.0889
▁tjiw	-12.0891
▁ahem	-12.0893
froukh	-12.0893
▁srafet	-12.0894
▁tfouhhh	-12.0894
▁edhou	-12.0894
▁roma	-12.0894
ellem	-12.0897
adhi	-12.0898
yetk	-12.09
alitha	-12.0902
▁total	-12.0902
▁hlo	-12.0902
▁amrik	-12.0903
▁ismo	-12.0905
▁yakfi	-12.0905
clubistiya	-12.0907
▁rajaa	-12.0907
▁seyesa	-12.0907
oume	-12.0907
▁nmouto	-12.0907
▁fehe	-12.0909
achar	-12.0909
antra	-12.091
▁enedi	-12.0914
▁yestehlou	-12.0918
omrha	-12.092
hahahahah	-12.092
▁nkamel	-12.092
▁sec	-12.0921
▁hayaa	-12.0921
rayeth	-12.0921
▁thala	-12.0923
omma	-12.0925
faraj	-12.0927
▁siyad	-12.0929
▁yfadhelhel	-12.0931
▁fér	-12.0932
▁arta	-12.0932
isaber	-12.0933
▁narr	-12.0935
▁makbar	-12.0936
▁telh	-12.0936
fathel	-12.0937
khfou	-12.0938
▁hahahahahha	-12.0939
▁ymed	-12.0941
ghirou	-12.0941
▁rach	-12.0941
▁chaddou	-12.0942
▁irh	-12.0943
etwensa	-12.0944
▁diniya	-12.0945
▁lamthel	-12.0947
▁msaker	-12.0949
7777777777777	-12.095
ayl	-12.0951
▁jiit	-12.0951
▁role	-12.0951
▁saybouhom	-12.0952
▁stal	-12.0953
nu	-12.0953
▁arrive	-12.0957
▁nafra	-12.0958
▁khof	-12.0959
▁asas	-12.0961
▁buts	-12.0962
galya	-12.0963
eeq	-12.0963
▁mobd	-12.0963
▁shame	-12.0964
▁dawa	-12.0965
ralo	-12.0966
▁imaak	-12.0967
▁wrahom	-12.0969
▁tchedha	-12.097
▁nfas	-12.0972
og	-12.0975
douda	-12.0975
▁yestanna	-12.0977
▁mastin	-12.0978
▁lifr	-12.0978
▁nationale	-12.098
wleed	-12.0982
▁borjoul	-12.0982
▁sifa	-12.0987
▁entraine	-12.0987
fifa	-12.0988
▁yeziii	-12.099
jadid	-12.0992
▁zour	-12.0993
daber	-12.0993
▁fière	-12.0994
kika	-12.0995
rahmou	-12.0995
houlhom	-12.0996
▁meken	-12.0997
▁yansa	-12.0999
▁riasa	-12.1002
▁wallitou	-12.1003
lelha	-12.1008
asm	-12.1015
fffffffff	-12.1016
▁abad	-12.1018
▁mazalou	-12.1019
▁trait	-12.102
▁ejamia	-12.1022
▁msak	-12.1024
ltouch	-12.1025
▁azebi	-12.1026
▁balk	-12.1026
▁manate	-12.1027
▁billéhi	-12.1029
▁nehar	-12.103
ejri	-12.103
▁wafe	-12.1031
▁balb	-12.1033
▁tfooo	-12.1033
▁biz	-12.1034
▁lbeb	-12.1034
èèk	-12.1034
▁akhle	-12.1035
▁tahn	-12.1036
amdoulah	-12.1036
▁matheb	-12.1039
▁méchi	-12.104
▁etor	-12.1042
owata	-12.1042
▁rihi	-12.1043
talni	-12.1049
atrk	-12.1052
▁elbere	-12.1052
wassil	-12.1053
▁garde	-12.1055
ndik	-12.1055
ssaref	-12.1055
▁hamdel	-12.1058
▁ndhi	-12.1058
chef	-12.106
▁hayawan	-12.1073
▁nv	-12.1073
▁weldikom	-12.1075
cef	-12.1077
foth	-12.1077
aklia	-12.1078
▁qad	-12.1081
▁hakda	-12.1082
llo	-12.1084
loch	-12.1085
▁lmet	-12.1085
▁lenna	-12.1088
eeed	-12.1089
▁vot	-12.109
khal	-12.109
traji	-12.1093
▁hathy	-12.1096
▁tekss	-12.1097
dhouch	-12.11
▁dan	-12.1101
▁enfa	-12.1101
boy	-12.1102
▁yafta	-12.1105
▁koub	-12.1106
étha	-12.1108
▁kelam	-12.1108
▁abna	-12.1109
alaw	-12.1111
▁itar	-12.1113
▁bezz	-12.1114
▁batt	-12.1114
▁onsor	-12.1114
akid	-12.1116
▁sallam	-12.1116
touhom	-12.1117
weti	-12.1118
ethhom	-12.1123
▁hamel	-12.1125
nèt	-12.1126
▁tethak	-12.113
kolna	-12.113
▁jeben	-12.1131
▁44	-12.1132
▁zokk	-12.1133
pis	-12.1133
enda	-12.1134
▁klach	-12.1136
▁akt	-12.1136
▁kedb	-12.1137
yched	-12.1137
▁sye	-12.114
▁ijaya	-12.1141
▁ybous	-12.1142
▁stylek	-12.1143
gul	-12.1144
▁lough	-12.1144
asbaaa	-12.1146
▁hadou	-12.1147
▁zahy	-12.1149
▁igol	-12.1151
guar	-12.1153
lbeji	-12.1153
▁eja	-12.1155
malou	-12.1156
▁kanoun	-12.1156
akda	-12.1157
▁niktoul	-12.1159
▁sarf	-12.1166
▁many	-12.1168
ndif	-12.1171
▁haaka	-12.1176
▁tawel	-12.1179
▁wzed	-12.118
▁ynj	-12.118
▁tombe	-12.1181
▁mhaf	-12.1181
outhala	-12.1182
addes	-12.1182
khel	-12.1182
▁ommet	-12.1185
elah	-12.1186
▁layss	-12.1187
▁feel	-12.1189
almia	-12.119
ayich	-12.1191
chich	-12.1191
▁wesleti	-12.1191
▁igoulou	-12.1192
hoo	-12.1193
▁farhana	-12.1194
▁leblade	-12.1196
bén	-12.1196
▁lwak	-12.1201
▁bounto	-12.1201
dekk	-12.1201
▁walk	-12.1203
▁aalihom	-12.1203
▁damar	-12.1204
▁wlidet	-12.1206
▁maka	-12.1209
▁rjoulit	-12.121
aylit	-12.1212
▁yete	-12.1213
ademtou	-12.1214
andu	-12.1214
▁bikoum	-12.1214
idara	-12.1217
karwi	-12.1219
uuuuuuuuuuuuuuh	-12.1219
▁monefe	-12.122
▁enik	-12.1224
▁anf	-12.1225
haaaaaaa	-12.1228
▁taiba	-12.1228
▁kamlo	-12.1228
▁tetsala	-12.1229
▁wkhalli	-12.1229
▁martin	-12.123
lilkom	-12.1231
bien	-12.1232
eeees	-12.1232
too	-12.1233
ezra	-12.1235
▁lnes	-12.1235
▁harba	-12.1236
▁neg	-12.1236
▁walhh	-12.1236
▁manch	-12.1239
▁chritou	-12.124
▁tzah	-12.124
iiiiir	-12.1241
▁dkhalt	-12.1243
▁tosel	-12.1244
▁sorek	-12.1245
▁visa	-12.1246
ktek	-12.1247
sehel	-12.1251
▁bileh	-12.1252
▁merta	-12.1254
widh	-12.1255
▁emmas	-12.1255
▁elkir	-12.1257
▁mabroukk	-12.1258
▁kre	-12.1258
▁yekd	-12.1259
leeek	-12.1262
mouuu	-12.1262
sajel	-12.1264
▁khad	-12.1265
▁mac	-12.1267
bees	-12.1268
assma	-12.1269
rri	-12.127
▁fanan	-12.1274
▁kind	-12.1274
mina	-12.1277
▁waww	-12.1278
iiiiiin	-12.1282
▁jalou	-12.1283
tkalim	-12.1283
▁nabda	-12.1285
▁seme	-12.1286
▁naaml	-12.1286
jmhour	-12.1286
▁djaf	-12.1287
zzzzzzzzzzzzzz	-12.1287
atwa	-12.129
uhom	-12.1296
ghel	-12.1297
uz	-12.1297
fadhl	-12.1299
akhrawlou	-12.1302
oudoud	-12.1303
▁ninsa	-12.1306
▁fett	-12.1307
▁fata	-12.1307
▁mahleee	-12.1308
▁sér	-12.1312
dil	-12.1313
▁jekom	-12.1315
▁elfou	-12.1315
non	-12.1316
▁mayta	-12.1316
▁tp	-12.1317
édh	-12.132
▁tfouhh	-12.132
lefriki	-12.1321
kthbou	-12.1321
▁thoma	-12.1322
▁ithib	-12.1323
▁yista	-12.1323
nother	-12.1329
▁yassou	-12.1331
▁écr	-12.1331
▁salif	-12.1332
▁aljami	-12.1334
▁yesma	-12.1336
▁ital	-12.1336
asiya	-12.1339
sdou	-12.134
nawir	-12.134
▁niya	-12.1344
▁lehna	-12.1344
▁hend	-12.1345
▁rabek	-12.1346
▁litar	-12.1346
▁attaquants	-12.1346
alamine	-12.135
yiin	-12.1351
atiw	-12.1354
▁haaaa	-12.1355
ful	-12.1355
erja	-12.1355
▁tjam	-12.1356
ziwna	-12.1358
▁fda	-12.1363
▁firen	-12.1364
▁yalla	-12.1365
▁yahfdek	-12.1365
▁spo	-12.1366
▁fai	-12.1366
eeeeeeeeeeeee	-12.1368
▁tnadi	-12.1372
yba	-12.138
▁fro	-12.1381
yda	-12.1384
▁lisar	-12.1385
▁ziad	-12.1387
▁mca	-12.1387
▁tiiii	-12.1389
▁fawk	-12.1389
▁bizar	-12.1389
alayhi	-12.139
▁haje	-12.139
▁jamiaa	-12.1391
skout	-12.1391
▁saliha	-12.1396
adath	-12.1396
▁bouma	-12.1397
arouch	-12.1399
▁rend	-12.14
▁ychafik	-12.1402
▁tkaml	-12.1407
keleb	-12.1409
zibi	-12.141
▁ilfa	-12.1411
▁arrier	-12.1412
▁iraw	-12.1412
fthaya	-12.1413
▁mochkolt	-12.1414
▁hayel	-12.1415
atrouss	-12.1417
▁enk	-12.1418
eltou	-12.1418
pression	-12.1419
▁kwa	-12.1419
llam	-12.1422
▁trio	-12.1422
▁fate	-12.1422
▁use	-12.1423
ahbi	-12.1425
▁héd	-12.1428
▁kire	-12.143
▁riath	-12.1432
▁tél	-12.1433
▁arka	-12.1435
▁lga	-12.1439
rge	-12.144
▁jbin	-12.1441
▁moussa	-12.1443
silna	-12.1444
▁essah	-12.1446
[...]
