{
  "version": "1.0",
  "truncation": null,
  "padding": null,
  "added_tokens": [
    {
      "id": 0,
      "content": "[UNK]",
      "single_word": false,
      "lstrip": false,
      "rstrip": false,
      "normalized": false,
      "special": true
    },
    {
      "id": 1,
      "content": "[CLS]",
      "single_word": false,
      "lstrip": false,
      "rstrip": false,
      "normalized": false,
      "special": true
    },
    {
      "id": 2,
      "content": "[SEP]",
      "single_word": false,
      "lstrip": false,
      "rstrip": false,
      "normalized": false,
      "special": true
    },
    {
      "id": 3,
      "content": "[PAD]",
      "single_word": false,
      "lstrip": false,
      "rstrip": false,
      "normalized": false,
      "special": true
    },
    {
      "id": 4,
      "content": "[MASK]",
      "single_word": false,
      "lstrip": false,
      "rstrip": false,
      "normalized": false,
      "special": true
    }
  ],
  "normalizer": null,
  "pre_tokenizer": {
    "type": "Whitespace"
  },
  "post_processor": null,
  "decoder": null,
  "model": {
    "type": "BPE",
    "dropout": null,
    "unk_token": "[UNK]",
    "continuing_subword_prefix": null,
    "end_of_word_suffix": null,
    "fuse_unk": false,
    "byte_fallback": false,
    "ignore_merges": false,
    "vocab": {
      "[UNK]": 0,
      "[CLS]": 1,
      "[SEP]": 2,
      "[PAD]": 3,
      "[MASK]": 4,
      "'": 5,
      "-": 6,
      ".": 7,
      "0": 8,
      "1": 9,
      "2": 10,
      "3": 11,
      "4": 12,
      "5": 13,
      "6": 14,
      "7": 15,
      "8": 16,
      "9": 17,
      "?": 18,
      "_": 19,
      "a": 20,
      "b": 21,
      "c": 22,
      "d": 23,
      "e": 24,
      "f": 25,
      "g": 26,
      "h": 27,
      "i": 28,
      "j": 29,
      "k": 30,
      "l": 31,
      "m": 32,
      "n": 33,
      "o": 34,
      "p": 35,
      "q": 36,
      "r": 37,
      "s": 38,
      "t": 39,
      "u": 40,
      "v": 41,
      "w": 42,
      "x": 43,
      "y": 44,
      "z": 45,
      "²": 46,
      "³": 47,
      "¹": 48,
      "ß": 49,
      "à": 50,
      "á": 51,
      "â": 52,
      "ã": 53,
      "ä": 54,
      "å": 55,
      "æ": 56,
      "ç": 57,
      "è": 58,
      "é": 59,
      "ê": 60,
      "ë": 61,
      "ì": 62,
      "í": 63,
      "î": 64,
      "ï": 65,
      "ñ": 66,
      "ò": 67,
      "ó": 68,
      "ô": 69,
      "õ": 70,
      "ö": 71,
      "ø": 72,
      "ù": 73,
      "ú": 74,
      "û": 75,
      "ü": 76,
      "ý": 77,
      "ÿ": 78,
      "ā": 79,
      "ă": 80,
      "ć": 81,
      "ď": 82,
      "đ": 83,
      "ĕ": 84,
      "ė": 85,
      "ę": 86,
      "ě": 87,
      "į": 88,
      "ı": 89,
      "ķ": 90,
      "ĺ": 91,
      "ļ": 92,
      "ł": 93,
      "ő": 94,
      "œ": 95,
      "ŕ": 96,
      "ş": 97,
      "ǻ": 98,
      "ǿ": 99,
      "ȝ": 100,
      "ə": 101,
      "١": 102,
      "٧": 103,
      "ệ": 104,
      "﻿": 105,
      "ou": 106,
      "ha": 107,
      "ma": 108,
      "ra": 109,
      "la": 110,
      "el": 111,
      "ch": 112,
      "li": 113,
      "na": 114,
      "ya": 115,
      "ta": 116,
      "3a": 117,
      "en": 118,
      "le": 119,
      "bi": 120,
      "wa": 121,
      "fi": 122,
      "ba": 123,
      "in": 124,
      "et": 125,
      "sa": 126,
      "om": 127,
      "es": 128,
      "ek": 129,
      "er": 130,
      "cha": 131,
      "ti": 132,
      "hi": 133,
      "ka": 134,
      "ed": 135,
      "si": 136,
      "ri": 137,
      "7a": 138,
      "ja": 139,
      "fa": 140,
      "em": 141,
      "hh": 142,
      "ech": 143,
      "ki": 144,
      "eb": 145,
      "lah": 146,
      "on": 147,
      "lou": 148,
      "di": 149,
      "da": 150,
      "ni": 151,
      "tou": 152,
      "al": 153,
      "rabi": 154,
      "ol": 155,
      "lim": 156,
      "m3a": 157,
      "slim": 158,
      "il": 159,
      "mou": 160,
      "re": 161,
      "9a": 162,
      "hom": 163,
      "bou": 164,
      "te": 165,
      "rou": 166,
      "kol": 167,
      "hou": 168,
      "kou": 169,
      "mi": 170,
      "ye": 171,
      "kom": 172,
      "ca": 173,
      "bra": 174,
      "vo": 175,
      "me": 176,
      "ss": 177,
      "mo": 178,
      "5a": 179,
      "hhh": 180,
      "3i": 181,
      "men": 182,
      "ne": 183,
      "bar": 184,
      "de": 185,
      "bravo": 186,
      "za": 187,
      "is": 188,
      "be": 189,
      "lem": 190,
      "or": 191,
      "ji": 192,
      "we": 193,
      "th": 194,
      "bel": 195,
      "lik": 196,
      "aa": 197,
      "tha": 198,
      "nes": 199,
      "dha": 200,
      "to": 201,
      "mel": 202,
      "llah": 203,
      "bech": 204,
      "ken": 205,
      "zi": 206,
      "ro": 207,
      "3la": 208,
      "rab": 209,
      "7i": 210,
      "wel": 211,
      "ir": 212,
      "ta3": 213,
      "lo": 214,
      "dh": 215,
      "m3ak": 216,
      "dou": 217,
      "pa": 218,
      "min": 219,
      "allah": 220,
      "ga": 221,
      "chi": 222,
      "lu": 223,
      "ii": 224,
      "kh": 225,
      "slou": 226,
      "jou": 227,
      "eli": 228,
      "oo": 229,
      "mar": 230,
      "an": 231,
      "fou": 232,
      "fe": 233,
      "jam": 234,
      "kha": 235,
      "ent": 236,
      "slouma": 237,
      "raj": 238,
      "enti": 239,
      "ama": 240,
      "3li": 241,
      "tu": 242,
      "qu": 243,
      "3an": 244,
      "lek": 245,
      "lla": 246,
      "you": 247,
      "wi": 248,
      "lh": 249,
      "challah": 250,
      "3b": 251,
      "ak": 252,
      "koun": 253,
      "ho": 254,
      "ge": 255,
      "led": 256,
      "clu": 257,
      "se": 258,
      "yet": 259,
      "9i": 260,
      "je": 261,
      "9ou": 262,
      "ya3": 263,
      "ma3": 264,
      "nou": 265,
      "hed": 266,
      "3am": 267,
      "yar": 268,
      "rabbi": 269,
      "ur": 270,
      "mab": 271,
      "3ala": 272,
      "a7": 273,
      "chou": 274,
      "ter": 275,
      "ria": 276,
      "7eb": 277,
      "ah": 278,
      "kif": 279,
      "fil": 280,
      "sou": 281,
      "fih": 282,
      "dem": 283,
      "tek": 284,
      "00": 285,
      "ena": 286,
      "fri": 287,
      "les": 288,
      "barcha": 289,
      "tawa": 290,
      "taw": 291,
      "man": 292,
      "jam3i": 293,
      "mal": 294,
      "id": 295,
      "ve": 296,
      "it": 297,
      "mabrou": 298,
      "zou": 299,
      "tounes": 300,
      "haha": 301,
      "club": 302,
      "pr": 303,
      "ssa": 304,
      "bo": 305,
      "gha": 306,
      "ce": 307,
      "no": 308,
      "mat": 309,
      "he": 310,
      "dima": 311,
      "ke": 312,
      "mabrouk": 313,
      "ber": 314,
      "bara": 315,
      "ine": 316,
      "fel": 317,
      "nis": 318,
      "dek": 319,
      "elli": 320,
      "mouch": 321,
      "tar": 322,
      "bon": 323,
      "flou": 324,
      "leb": 325,
      "wa7": 326,
      "wla": 327,
      "5ir": 328,
      "far": 329,
      "win": 330,
      "chay": 331,
      "ana": 332,
      "ben": 333,
      "met": 334,
      "ok": 335,
      "tr": 336,
      "3al": 337,
      "vi": 338,
      "ar": 339,
      "3ou": 340,
      "riahi": 341,
      "che": 342,
      "mer": 343,
      "3lik": 344,
      "ala": 345,
      "hem": 346,
      "ham": 347,
      "lé": 348,
      "yo": 349,
      "wala": 350,
      "kan": 351,
      "lel": 352,
      "say": 353,
      "hir": 354,
      "mala": 355,
      "ess": 356,
      "ncha": 357,
      "mil": 358,
      "bla": 359,
      "ali": 360,
      "ba3": 361,
      "ta7": 362,
      "ci": 363,
      "a3": 364,
      "na3": 365,
      "do": 366,
      "brabi": 367,
      "mta3": 368,
      "ko": 369,
      "heb": 370,
      "ff": 371,
      "tna": 372,
      "ili": 373,
      "tra": 374,
      "wen": 375,
      "rajel": 376,
      "au": 377,
      "cha3b": 378,
      "inti": 379,
      "9o": 380,
      "chkoun": 381,
      "gh": 382,
      "est": 383,
      "yek": 384,
      "bet": 385,
      "net": 386,
      "st": 387,
      "7ou": 388,
      "may": 389,
      "mech": 390,
      "fik": 391,
      "let": 392,
      "wal": 393,
      "9al": 394,
      "rak": 395,
      "ssi": 396,
      "lkol": 397,
      "la3": 398,
      "hal": 399,
      "mon": 400,
      "bal": 401,
      "3ad": 402,
      "pe": 403,
      "flous": 404,
      "mas": 405,
      "ran": 406,
      "ze": 407,
      "tet": 408,
      "mn": 409,
      "bled": 410,
      "que": 411,
      "har": 412,
      "tta": 413,
      "con": 414,
      "zem": 415,
      "kima": 416,
      "m3alem": 417,
      "het": 418,
      "bir": 419,
      "ik": 420,
      "mah": 421,
      "ja3": 422,
      "am": 423,
      "lil": 424,
      "thi": 425,
      "tal": 426,
      "ref": 427,
      "tan": 428,
      "nchallah": 429,
      "wali": 430,
      "wa9": 431,
      "so": 432,
      "yes": 433,
      "la7": 434,
      "wah": 435,
      "tt": 436,
      "jem": 437,
      "bil": 438,
      "hek": 439,
      "haw": 440,
      "had": 441,
      "3le": 442,
      "kal": 443,
      "tah": 444,
      "dik": 445,
      "as": 446,
      "tion": 447,
      "ya7": 448,
      "a7na": 449,
      "san": 450,
      "our": 451,
      "te3": 452,
      "yi": 453,
      "ez": 454,
      "inchallah": 455,
      "yy": 456,
      "hour": 457,
      "wlh": 458,
      "hak": 459,
      "tik": 460,
      "ab": 461,
      "mek": 462,
      "3ar": 463,
      "jam3iya": 464,
      "7aja": 465,
      "5dem": 466,
      "m3": 467,
      "oi": 468,
      "kk": 469,
      "mais": 470,
      "yah": 471,
      "uu": 472,
      "haka": 473,
      "nek": 474,
      "ll": 475,
      "alah": 476,
      "nah": 477,
      "ma7": 478,
      "rej": 479,
      "5i": 480,
      "kel": 481,
      "ai": 482,
      "bes": 483,
      "chouf": 484,
      "khir": 485,
      "tech": 486,
      "toun": 487,
      "fama": 488,
      "fiha": 489,
      "7o": 490,
      "kla": 491,
      "sel": 492,
      "tre": 493,
      "howa": 494,
      "yed": 495,
      "sar": 496,
      "mes": 497,
      "par": 498,
      "rai": 499,
      "ram": 500,
      "jel": 501,
      "sh": 502,
      "tel": 503,
      "un": 504,
      "mak": 505,
      "7a9": 506,
      "sta": 507,
      "pres": 508,
      "m3al": 509,
      "rah": 510,
      "din": 511,
      "bik": 512,
      "mé": 513,
      "5ali": 514,
      "com": 515,
      "cou": 516,
      "fri9i": 517,
      "zel": 518,
      "5al": 519,
      "po": 520,
      "7ata": 521,
      "cha3": 522,
      "ej": 523,
      "va": 524,
      "9oul": 525,
      "rr": 526,
      "sba": 527,
      "kar": 528,
      "wallah": 529,
      "3lina": 530,
      "moch": 531,
      "gu": 532,
      "tunis": 533,
      "illi": 534,
      "ment": 535,
      "incha": 536,
      "zid": 537,
      "000": 538,
      "raw": 539,
      "3ay": 540,
      "des": 541,
      "chwa": 542,
      "kin": 543,
      "ret": 544,
      "3bed": 545,
      "ay": 546,
      "jo": 547,
      "3in": 548,
      "kon": 549,
      "cho": 550,
      "dhi": 551,
      "tin": 552,
      "jeb": 553,
      "for": 554,
      "sen": 555,
      "mr": 556,
      "tounis": 557,
      "nik": 558,
      "houm": 559,
      "wer": 560,
      "dé": 561,
      "té": 562,
      "nisi": 563,
      "sid": 564,
      "jam3ia": 565,
      "ser": 566,
      "maa": 567,
      "rek": 568,
      "med": 569,
      "nn": 570,
      "marzou": 571,
      "ef": 572,
      "enta": 573,
      "merci": 574,
      "eur": 575,
      "klem": 576,
      "lam": 577,
      "mlou": 578,
      "bien": 579,
      "rana": 580,
      "dawla": 581,
      "bek": 582,
      "yé": 583,
      "mte3": 584,
      "5ou": 585,
      "3lih": 586,
      "mara": 587,
      "9ad": 588,
      "yar7": 589,
      "ble": 590,
      "7ad": 591,
      "houma": 592,
      "5ater": 593,
      "wil": 594,
      "ia": 595,
      "bih": 596,
      "bé": 597,
      "mm": 598,
      "5er": 599,
      "ched": 600,
      "walla": 601,
      "dar": 602,
      "hel": 603,
      "mna": 604,
      "ras": 605,
      "koul": 606,
      "lia": 607,
      "raji": 608,
      "3ed": 609,
      "bin": 610,
      "tunisi": 611,
      "mch": 612,
      "fo": 613,
      "jom": 614,
      "pour": 615,
      "7ek": 616,
      "9ol": 617,
      "lha": 618,
      "tes": 619,
      "yel": 620,
      "koum": 621,
      "wet": 622,
      "sara": 623,
      "ale": 624,
      "ach": 625,
      "jib": 626,
      "presid": 627,
      "yna": 628,
      "ta7a": 629,
      "war": 630,
      "yeb": 631,
      "belle": 632,
      "jam3": 633,
      "pas": 634,
      "lna": 635,
      "hedha": 636,
      "n7eb": 637,
      "pro": 638,
      "né": 639,
      "barra": 640,
      "haja": 641,
      "ma3a": 642,
      "3id": 643,
      "nin": 644,
      "bravooo": 645,
      "feh": 646,
      "seb": 647,
      "jet": 648,
      "yer": 649,
      "sami": 650,
      "5ra": 651,
      "ad": 652,
      "bna": 653,
      "im": 654,
      "tab": 655,
      "ee": 656,
      "mana": 657,
      "walah": 658,
      "president": 659,
      "yen": 660,
      "yara": 661,
      "kil": 662,
      "ra2": 663,
      "eda": 664,
      "raf": 665,
      "ste": 666,
      "houwa": 667,
      "lk": 668,
      "3aw": 669,
      "ila": 670,
      "20": 671,
      "maw": 672,
      "maak": 673,
      "ire": 674,
      "vou": 675,
      "jdi": 676,
      "sah": 677,
      "ml": 678,
      "3and": 679,
      "ina": 680,
      "wenti": 681,
      "sal": 682,
      "wl": 683,
      "liya": 684,
      "hata": 685,
      "hiya": 686,
      "tounsi": 687,
      "hab": 688,
      "malla": 689,
      "bad": 690,
      "qui": 691,
      "hm": 692,
      "nchalah": 693,
      "wled": 694,
      "twa": 695,
      "s7i": 696,
      "yeh": 697,
      "1000": 698,
      "oui": 699,
      "7am": 700,
      "fer": 701,
      "sa7a": 702,
      "bonne": 703,
      "ket": 704,
      "3mal": 705,
      "nch": 706,
      "yech": 707,
      "yem": 708,
      "go": 709,
      "ness": 710,
      "lin": 711,
      "mor": 712,
      "ut": 713,
      "nhar": 714,
      "su": 715,
      "3ab": 716,
      "ahna": 717,
      "her": 718,
      "tfa": 719,
      "we7": 720,
      "m3allem": 721,
      "vrai": 722,
      "vive": 723,
      "rahou": 724,
      "tron": 725,
      "fhem": 726,
      "ns": 727,
      "res": 728,
      "dit": 729,
      "hmou": 730,
      "lahi": 731,
      "bach": 732,
      "t7": 733,
      "rais": 734,
      "t7eb": 735,
      "9bal": 736,
      "tir": 737,
      "ther": 738,
      "patron": 739,
      "eya": 740,
      "fr": 741,
      "ey": 742,
      "him": 743,
      "by": 744,
      "ooo": 745,
      "sur": 746,
      "don": 747,
      "wra": 748,
      "ba3d": 749,
      "bbi": 750,
      "3o": 751,
      "ywa": 752,
      "clubi": 753,
      "3ma": 754,
      "ten": 755,
      "br": 756,
      "bch": 757,
      "nas": 758,
      "nt": 759,
      "fran": 760,
      "pi": 761,
      "taraji": 762,
      "ms": 763,
      "zeb": 764,
      "dam": 765,
      "yezi": 766,
      "lot": 767,
      "7al": 768,
      "vous": 769,
      "at": 770,
      "afri": 771,
      "sa7": 772,
      "jomhour": 773,
      "saha": 774,
      "yal": 775,
      "fin": 776,
      "weld": 777,
      "leh": 778,
      "sir": 779,
      "koura": 780,
      "der": 781,
      "rahi": 782,
      "hada": 783,
      "tak": 784,
      "tfou": 785,
      "pré": 786,
      "macha": 787,
      "touma": 788,
      "kem": 789,
      "hay": 790,
      "ra9": 791,
      "ons": 792,
      "3om": 793,
      "naf": 794,
      "fff": 795,
      "chwaya": 796,
      "3andou": 797,
      "yfa": 798,
      "lina": 799,
      "a9": 800,
      "m3ana": 801,
      "hedhi": 802,
      "wela": 803,
      "cha3eb": 804,
      "ehi": 805,
      "youm": 806,
      "7na": 807,
      "gou": 808,
      "yji": 809,
      "han": 810,
      "behi": 811,
      "den": 812,
      "mazel": 813,
      "da5": 814,
      "mach": 815,
      "7atta": 816,
      "bira": 817,
      "zar": 818,
      "teb": 819,
      "rage": 820,
      "kbir": 821,
      "zz": 822,
      "hahahaha": 823,
      "ju": 824,
      "bour": 825,
      "theb": 826,
      "marzouki": 827,
      "encha": 828,
      "feha": 829,
      "ver": 830,
      "tas": 831,
      "dina": 832,
      "3ib": 833,
      "nheb": 834,
      "aime": 835,
      "7ba": 836,
      "ib": 837,
      "lm": 838,
      "friki": 839,
      "joueur": 840,
      "sayeb": 841,
      "wa7ed": 842,
      "like": 843,
      "gage": 844,
      "tsa": 845,
      "bouk": 846,
      "du": 847,
      "bl": 848,
      "ker": 849,
      "nor": 850,
      "pu": 851,
      "bia": 852,
      "biya": 853,
      "page": 854,
      "eh": 855,
      "ba7": 856,
      "yr": 857,
      "rat": 858,
      "beb": 859,
      "hé": 860,
      "ly": 861,
      "tem": 862,
      "y7eb": 863,
      "lib": 864,
      "por": 865,
      "ta7ki": 866,
      "rya": 867,
      "fara": 868,
      "re9": 869,
      "fina": 870,
      "rjel": 871,
      "hadha": 872,
      "kam": 873,
      "sse": 874,
      "s7i7": 875,
      "ta3mel": 876,
      "5ed": 877,
      "ww": 878,
      "elkol": 879,
      "bah": 880,
      "plu": 881,
      "son": 882,
      "wo": 883,
      "a7la": 884,
      "sident": 885,
      "barka": 886,
      "vp": 887,
      "nsa": 888,
      "tla3": 889,
      "ul": 890,
      "zeda": 891,
      "ave": 892,
      "edi": 893,
      "wé": 894,
      "b3a": 895,
      "aya": 896,
      "khi": 897,
      "weli": 898,
      "keya": 899,
      "gal": 900,
      "ler": 901,
      "beh": 902,
      "boss": 903,
      "ger": 904,
      "per": 905,
      "t3a": 906,
      "fi9": 907,
      "tunisie": 908,
      "alik": 909,
      "tji": 910,
      "yka": 911,
      "inta": 912,
      "kifech": 913,
      "af": 914,
      "nem": 915,
      "char": 916,
      "iii": 917,
      "dan": 918,
      "choufou": 919,
      "zebi": 920,
      "aka": 921,
      "hia": 922,
      "africa": 923,
      "svp": 924,
      "taa": 925,
      "jah": 926,
      "gi": 927,
      "ré": 928,
      "tro": 929,
      "rit": 930,
      "the": 931,
      "3lech": 932,
      "fl": 933,
      "reb": 934,
      "bb": 935,
      "zin": 936,
      "mma": 937,
      "tka": 938,
      "fihom": 939,
      "lazem": 940,
      "rani": 941,
      "lih": 942,
      "kouma": 943,
      "akber": 944,
      "président": 945,
      "hetha": 946,
      "3ak": 947,
      "ant": 948,
      "dja": 949,
      "ysa": 950,
      "mahou": 951,
      "riya": 952,
      "brabbi": 953,
      "co": 954,
      "ux": 955,
      "7ab": 956,
      "7as": 957,
      "bli": 958,
      "e3": 959,
      "ema": 960,
      "ty": 961,
      "hana": 962,
      "ray": 963,
      "vraiment": 964,
      "fet": 965,
      "fech": 966,
      "khou": 967,
      "ra2is": 968,
      "mha": 969,
      "une": 970,
      "yaa": 971,
      "gar": 972,
      "siya": 973,
      "3andi": 974,
      "jaw": 975,
      "ssem": 976,
      "plus": 977,
      "maj": 978,
      "kolna": 979,
      "sin": 980,
      "bina": 981,
      "bro": 982,
      "rfou": 983,
      "amin": 984,
      "bu": 985,
      "biha": 986,
      "wej": 987,
      "mu": 988,
      "tkoun": 989,
      "chan": 990,
      "9a3": 991,
      "courage": 992,
      "ih": 993,
      "mt": 994,
      "rik": 995,
      "tour": 996,
      "avec": 997,
      "e7": 998,
      "jen": 999,
      "kbira": 1000,
      "up": 1001,
      "mage": 1002,
      "ta9": 1003,
      "eka": 1004,
      "mik": 1005,
      "ké": 1006,
      "bit": 1007,
      "edh": 1008,
      "toula": 1009,
      "m3ah": 1010,
      "mout": 1011,
      "ça": 1012,
      "na9": 1013,
      "3asba": 1014,
      "mka": 1015,
      "jour": 1016,
      "lebled": 1017,
      "bellehi": 1018,
      "msa": 1019,
      "africain": 1020,
      "a5": 1021,
      "tout": 1022,
      "akther": 1023,
      "ya3mel": 1024,
      "donc": 1025,
      "ela": 1026,
      "él": 1027,
      "mani": 1028,
      "chno": 1029,
      "toi": 1030,
      "awel": 1031,
      "ban": 1032,
      "dhou": 1033,
      "tari": 1034,
      "belehi": 1035,
      "fla": 1036,
      "l9a": 1037,
      "hatha": 1038,
      "8a": 1039,
      "tit": 1040,
      "jal": 1041,
      "ba3ed": 1042,
      "mela": 1043,
      "sam": 1044,
      "marbou": 1045,
      "wa9t": 1046,
      "fek": 1047,
      "rin": 1048,
      "snin": 1049,
      "lak": 1050,
      "yab": 1051,
      "10": 1052,
      "f9": 1053,
      "3adi": 1054,
      "fikom": 1055,
      "rib": 1056,
      "ye7": 1057,
      "loo": 1058,
      "ya3ti": 1059,
      "ts": 1060,
      "jdid": 1061,
      "mej": 1062,
      "3likom": 1063,
      "3andek": 1064,
      "sti": 1065,
      "lefri9i": 1066,
      "fa9": 1067,
      "niya": 1068,
      "if": 1069,
      "lab": 1070,
      "7ay": 1071,
      "yma": 1072,
      "jab": 1073,
      "kir": 1074,
      "rou7ek": 1075,
      "3el": 1076,
      "mhour": 1077,
      "3a9": 1078,
      "te7": 1079,
      "3ich": 1080,
      "klay": 1081,
      "nia": 1082,
      "alf": 1083,
      "khali": 1084,
      "nchalla": 1085,
      "blad": 1086,
      "ich": 1087,
      "hethi": 1088,
      "enty": 1089,
      "nahdha": 1090,
      "king": 1091,
      "mchi": 1092,
      "tf": 1093,
      "3lihom": 1094,
      "3et": 1095,
      "9alou": 1096,
      "yh": 1097,
      "far5": 1098,
      "3eb": 1099,
      "mem": 1100,
      "wou": 1101,
      "det": 1102,
      "shi": 1103,
      "rap": 1104,
      "dim": 1105,
      "boun": 1106,
      "jeh": 1107,
      "bor": 1108,
      "khal": 1109,
      "rasmi": 1110,
      "bn": 1111,
      "ement": 1112,
      "bravobravo": 1113,
      "kalb": 1114,
      "atta": 1115,
      "ghir": 1116,
      "teh": 1117,
      "ma3ad": 1118,
      "tana": 1119,
      "fach": 1120,
      "love": 1121,
      "inchalah": 1122,
      "ct": 1123,
      "nech": 1124,
      "7it": 1125,
      "yelzem": 1126,
      "baba": 1127,
      "dis": 1128,
      "hba": 1129,
      "mos": 1130,
      "dd": 1131,
      "e5dem": 1132,
      "tk": 1133,
      "sha": 1134,
      "eni": 1135,
      "boutoula": 1136,
      "neya": 1137,
      "alex": 1138,
      "ton": 1139,
      "zouz": 1140,
      "ra7": 1141,
      "boub": 1142,
      "ans": 1143,
      "tinu": 1144,
      "3l": 1145,
      "5o": 1146,
      "nsi": 1147,
      "lit": 1148,
      "nak": 1149,
      "3ada": 1150,
      "omek": 1151,
      "continu": 1152,
      "nchlh": 1153,
      "5edma": 1154,
      "mra": 1155,
      "t5a": 1156,
      "elle": 1157,
      "ssou": 1158,
      "maz": 1159,
      "big": 1160,
      "four": 1161,
      "non": 1162,
      "yos": 1163,
      "lotfi": 1164,
      "t9oul": 1165,
      "lip": 1166,
      "lezem": 1167,
      "rou7": 1168,
      "jami": 1169,
      "and": 1170,
      "a9wa": 1171,
      "pla": 1172,
      "zzi": 1173,
      "top": 1174,
      "dheb": 1175,
      "chnowa": 1176,
      "enna": 1177,
      "be7": 1178,
      "has": 1179,
      "ex": 1180,
      "tv": 1181,
      "7ib": 1182,
      "hez": 1183,
      "ya7ki": 1184,
      "kamel": 1185,
      "koll": 1186,
      "ya3tik": 1187,
      "nchala": 1188,
      "thom": 1189,
      "raja3": 1190,
      "9a7ba": 1191,
      "bouh": 1192,
      "9oulou": 1193,
      "o5": 1194,
      "o5ra": 1195,
      "walahi": 1196,
      "cef": 1197,
      "aw": 1198,
      "ys": 1199,
      "yin": 1200,
      "bouna": 1201,
      "ye5i": 1202,
      "2a": 1203,
      "dr": 1204,
      "dir": 1205,
      "yar7mou": 1206,
      "eu": 1207,
      "la3bed": 1208,
      "tef": 1209,
      "aaa": 1210,
      "yk": 1211,
      "ykoun": 1212,
      "mri": 1213,
      "leha": 1214,
      "winti": 1215,
      "sed": 1216,
      "raby": 1217,
      "moncef": 1218,
      "ta7ana": 1219,
      "b1": 1220,
      "bsara": 1221,
      "deb": 1222,
      "hon": 1223,
      "of": 1224,
      "nar": 1225,
      "bat": 1226,
      "chiboub": 1227,
      "del": 1228,
      "lclub": 1229,
      "ès": 1230,
      "law": 1231,
      "monta": 1232,
      "hakka": 1233,
      "hani": 1234,
      "ahla": 1235,
      "quipe": 1236,
      "5d": 1237,
      "famma": 1238,
      "yef": 1239,
      "i7": 1240,
      "bas": 1241,
      "degage": 1242,
      "jbou": 1243,
      "kor": 1244,
      "sad": 1245,
      "7ar": 1246,
      "joumhour": 1247,
      "khater": 1248,
      "ida": 1249,
      "pp": 1250,
      "chem": 1251,
      "flouss": 1252,
      "we7ed": 1253,
      "nayek": 1254,
      "3ana": 1255,
      "tfouh": 1256,
      "fes": 1257,
      "tous": 1258,
      "akbar": 1259,
      "forza": 1260,
      "jam3ya": 1261,
      "bha": 1262,
      "mla": 1263,
      "pfff": 1264,
      "meh": 1265,
      "match": 1266,
      "masa": 1267,
      "lehi": 1268,
      "beau": 1269,
      "yas": 1270,
      "tayara": 1271,
      "thar": 1272,
      "heka": 1273,
      "jr": 1274,
      "kleb": 1275,
      "yan": 1276,
      "tala": 1277,
      "ta3ref": 1278,
      "kifek": 1279,
      "ta7an": 1280,
      "jam3eya": 1281,
      "ation": 1282,
      "chô": 1283,
      "tif": 1284,
      "mez": 1285,
      "aid": 1286,
      "hor": 1287,
      "hadi": 1288,
      "enchallah": 1289,
      "jey": 1290,
      "kont": 1291,
      "loool": 1292,
      "7ka": 1293,
      "wata": 1294,
      "gran": 1295,
      "yess": 1296,
      "yak": 1297,
      "jan": 1298,
      "chômage": 1299,
      "bed": 1300,
      "okh": 1301,
      "tch": 1302,
      "mari": 1303,
      "end": 1304,
      "sion": 1305,
      "yarhmou": 1306,
      "chof": 1307,
      "jé": 1308,
      "y7": 1309,
      "yn": 1310,
      "yt": 1311,
      "y5a": 1312,
      "ing": 1313,
      "kina": 1314,
      "fe9": 1315,
      "rajil": 1316,
      "sanfara": 1317,
      "clip": 1318,
      "rye": 1319,
      "tat": 1320,
      "wensa": 1321,
      "normal": 1322,
      "echa3b": 1323,
      "n7": 1324,
      "yya": 1325,
      "zo": 1326,
      "labes": 1327,
      "car": 1328,
      "ep": 1329,
      "ifa": 1330,
      "zok": 1331,
      "3at": 1332,
      "9at": 1333,
      "neha": 1334,
      "7id": 1335,
      "mte": 1336,
      "rouhek": 1337,
      "mich": 1338,
      "marra": 1339,
      "tahki": 1340,
      "bi3": 1341,
      "za3ma": 1342,
      "weh": 1343,
      "gui": 1344,
      "7ram": 1345,
      "sor": 1346,
      "math": 1347,
      "to9": 1348,
      "ck": 1349,
      "ghi": 1350,
      "iji": 1351,
      "sem": 1352,
      "tor": 1353,
      "sil": 1354,
      "barna": 1355,
      "m3ek": 1356,
      "nta": 1357,
      "ona": 1358,
      "ple": 1359,
      "a7sen": 1360,
      "av": 1361,
      "hy": 1362,
      "pri": 1363,
      "tni": 1364,
      "na7": 1365,
      "wak": 1366,
      "ne9": 1367,
      "ghal": 1368,
      "wa7dek": 1369,
      "cpr": 1370,
      "set": 1371,
      "wes": 1372,
      "hahaha": 1373,
      "hadhi": 1374,
      "5alli": 1375,
      "chance": 1376,
      "cher": 1377,
      "yat": 1378,
      "kolha": 1379,
      "thawra": 1380,
      "maf": 1381,
      "chnou": 1382,
      "taf": 1383,
      "3liha": 1384,
      "5ouya": 1385,
      "hmd": 1386,
      "denya": 1387,
      "hathi": 1388,
      "naj": 1389,
      "sab": 1390,
      "wa7na": 1391,
      "echa": 1392,
      "thou": 1393,
      "ma9": 1394,
      "rahom": 1395,
      "jouer": 1396,
      "201": 1397,
      "ani": 1398,
      "krou": 1399,
      "lat": 1400,
      "lez": 1401,
      "dher": 1402,
      "yar7am": 1403,
      "poli": 1404,
      "akh": 1405,
      "rjou": 1406,
      "sna": 1407,
      "jay": 1408,
      "ye5dem": 1409,
      "a3mel": 1410,
      "ado": 1411,
      "yons": 1412,
      "mata": 1413,
      "wahed": 1414,
      "ette": 1415,
      "rec": 1416,
      "teur": 1417,
      "ghar": 1418,
      "d5": 1419,
      "kn": 1420,
      "sl": 1421,
      "3ali": 1422,
      "miboun": 1423,
      "5ay": 1424,
      "zina": 1425,
      "dwa": 1426,
      "kaf": 1427,
      "100": 1428,
      "gra": 1429,
      "gna": 1430,
      "jit": 1431,
      "ner": 1432,
      "ma5": 1433,
      "chy": 1434,
      "3alem": 1435,
      "hib": 1436,
      "eta": 1437,
      "i3": 1438,
      "hatta": 1439,
      "le7": 1440,
      "barnem": 1441,
      "wella": 1442,
      "film": 1443,
      "e9": 1444,
      "titre": 1445,
      "sia": 1446,
      "3andha": 1447,
      "milli": 1448,
      "lhom": 1449,
      "vu": 1450,
      "hat": 1451,
      "chok": 1452,
      "lef": 1453,
      "dhar": 1454,
      "wa7da": 1455,
      "continuation": 1456,
      "cu": 1457,
      "elha": 1458,
      "fa3": 1459,
      "daw": 1460,
      "mis": 1461,
      "douk": 1462,
      "n7ebou": 1463,
      "alexis": 1464,
      "mta": 1465,
      "twali": 1466,
      "ens": 1467,
      "cha5": 1468,
      "touna": 1469,
      "chbik": 1470,
      "fah": 1471,
      "sser": 1472,
      "nous": 1473,
      "yemchi": 1474,
      "clubiste": 1475,
      "fé": 1476,
      "rar": 1477,
      "lan": 1478,
      "ood": 1479,
      "walli": 1480,
      "djabou": 1481,
      "baa": 1482,
      "7ala": 1483,
      "3leh": 1484,
      "y3": 1485,
      "bellahi": 1486,
      "tofla": 1487,
      "mahouch": 1488,
      "brou": 1489,
      "ene": 1490,
      "wakil": 1491,
      "3amlou": 1492,
      "tres": 1493,
      "saw": 1494,
      "saber": 1495,
      "famech": 1496,
      "houa": 1497,
      "wallahi": 1498,
      "marbou7a": 1499,
      "fu": 1500,
      "hra": 1501,
      "lifri9i": 1502,
      "bihom": 1503,
      "9aw": 1504,
      "yyy": 1505,
      "3ba": 1506,
      "ded": 1507,
      "sol": 1508,
      "wrabi": 1509,
      "sa7bi": 1510,
      "foo": 1511,
      "slo": 1512,
      "chn": 1513,
      "kid": 1514,
      "mouna": 1515,
      "beji": 1516,
      "hedi": 1517,
      "trava": 1518,
      "3d": 1519,
      "az": 1520,
      "jer": 1521,
      "hid": 1522,
      "zarti": 1523,
      "grand": 1524,
      "travail": 1525,
      "3ez": 1526,
      "iss": 1527,
      "sli": 1528,
      "tla": 1529,
      "yda": 1530,
      "chek": 1531,
      "int": 1532,
      "9anet": 1533,
      "yezzi": 1534,
      "mezel": 1535,
      "9od": 1536,
      "yeser": 1537,
      "7mou": 1538,
      "hya": 1539,
      "hdem": 1540,
      "ta5": 1541,
      "ins": 1542,
      "anni": 1543,
      "quoi": 1544,
      "f9ek": 1545,
      "y3a": 1546,
      "yheb": 1547,
      "éri": 1548,
      "entouma": 1549,
      "lech": 1550,
      "walh": 1551,
      "kkk": 1552,
      "iin": 1553,
      "lyoum": 1554,
      "os": 1555,
      "yaaa": 1556,
      "lee": 1557,
      "bab": 1558,
      "touch": 1559,
      "mina": 1560,
      "3idek": 1561,
      "ma3adech": 1562,
      "dech": 1563,
      "t7a": 1564,
      "yit": 1565,
      "ence": 1566,
      "sala": 1567,
      "dak": 1568,
      "rou7ou": 1569,
      "fehri": 1570,
      "aj": 1571,
      "nh": 1572,
      "yhi": 1573,
      "ini": 1574,
      "kari": 1575,
      "zan": 1576,
      "weldi": 1577,
      "vide": 1578,
      "adore": 1579,
      "l3": 1580,
      "le5er": 1581,
      "ri9": 1582,
      "m3alim": 1583,
      "contre": 1584,
      "yar7em": 1585,
      "enchalah": 1586,
      "attaqu": 1587,
      "aal": 1588,
      "e5er": 1589,
      "good": 1590,
      "nd": 1591,
      "etna": 1592,
      "ja7": 1593,
      "jar": 1594,
      "homch": 1595,
      "mena": 1596,
      "yarham": 1597,
      "respe": 1598,
      "7k": 1599,
      "hech": 1600,
      "la9": 1601,
      "nat": 1602,
      "tay": 1603,
      "tique": 1604,
      "kat": 1605,
      "sidi": 1606,
      "faw": 1607,
      "m3akom": 1608,
      "barek": 1609,
      "beha": 1610,
      "heya": 1611,
      "raba": 1612,
      "lifriki": 1613,
      "hich": 1614,
      "notre": 1615,
      "bk": 1616,
      "bhom": 1617,
      "lè": 1618,
      "rad": 1619,
      "lad": 1620,
      "na7na": 1621,
      "thel": 1622,
      "zim": 1623,
      "9adech": 1624,
      "8ir": 1625,
      "ction": 1626,
      "llh": 1627,
      "tw": 1628,
      "belna": 1629,
      "chey": 1630,
      "mnin": 1631,
      "comme": 1632,
      "kén": 1633,
      "yesser": 1634,
      "e5": 1635,
      "omha": 1636,
      "mili": 1637,
      "mosta": 1638,
      "iwa": 1639,
      "t3": 1640,
      "las": 1641,
      "nabara": 1642,
      "louma": 1643,
      "louch": 1644,
      "clubisti": 1645,
      "honte": 1646,
      "9ra": 1647,
      "b5ir": 1648,
      "dra": 1649,
      "mcha": 1650,
      "wn": 1651,
      "wed": 1652,
      "nab": 1653,
      "bich": 1654,
      "mour": 1655,
      "9ar": 1656,
      "bouch": 1657,
      "5abet": 1658,
      "kho": 1659,
      "noun": 1660,
      "cham": 1661,
      "signa": 1662,
      "fad": 1663,
      "7ik": 1664,
      "3en": 1665,
      "abon": 1666,
      "twensa": 1667,
      "raho": 1668,
      "ennes": 1669,
      "essa": 1670,
      "kifeh": 1671,
      "loul": 1672,
      "rabii": 1673,
      "zah": 1674,
      "nos": 1675,
      "adi": 1676,
      "a3la": 1677,
      "cla": 1678,
      "i5": 1679,
      "yon": 1680,
      "7ak": 1681,
      "marzou9i": 1682,
      "jdida": 1683,
      "fed": 1684,
      "kra": 1685,
      "us": 1686,
      "etha": 1687,
      "alla": 1688,
      "menha": 1689,
      "aak": 1690,
      "nour": 1691,
      "video": 1692,
      "maya": 1693,
      "chri": 1694,
      "dhal": 1695,
      "aman": 1696,
      "lém": 1697,
      "my": 1698,
      "mè": 1699,
      "zer": 1700,
      "wasel": 1701,
      "toul": 1702,
      "zayed": 1703,
      "beli": 1704,
      "wa9tech": 1705,
      "dislike": 1706,
      "dine": 1707,
      "web": 1708,
      "fait": 1709,
      "boul": 1710,
      "menta": 1711,
      "bravoo": 1712,
      "zawali": 1713,
      "keep": 1714,
      "lb": 1715,
      "éé": 1716,
      "mad": 1717,
      "mada": 1718,
      "bikom": 1719,
      "bassem": 1720,
      "9a3ed": 1721,
      "ssel": 1722,
      "welli": 1723,
      "7or": 1724,
      "fy": 1725,
      "sma3": 1726,
      "tbarka": 1727,
      "tam": 1728,
      "bii": 1729,
      "salem": 1730,
      "mella": 1731,
      "rod": 1732,
      "joulia": 1733,
      "youn": 1734,
      "ya3mlou": 1735,
      "ta7ya": 1736,
      "a3ti": 1737,
      "7ot": 1738,
      "ath": 1739,
      "jme": 1740,
      "cheb": 1741,
      "natir": 1742,
      "sa3": 1743,
      "farej": 1744,
      "ria7i": 1745,
      "saybou": 1746,
      "bsara7a": 1747,
      "7keya": 1748,
      "hk": 1749,
      "ija": 1750,
      "rj": 1751,
      "wech": 1752,
      "laz": 1753,
      "jibou": 1754,
      "coup": 1755,
      "khouya": 1756,
      "7ez": 1757,
      "l3a": 1758,
      "machallah": 1759,
      "te5dem": 1760,
      "ssen": 1761,
      "kher": 1762,
      "jouliya": 1763,
      "très": 1764,
      "sanfour": 1765,
      "equipe": 1766,
      "ika": 1767,
      "haya": 1768,
      "ye3": 1769,
      "dho": 1770,
      "touness": 1771,
      "attaquant": 1772,
      "8al": 1773,
      "8ali": 1774,
      "awled": 1775,
      "éb": 1776,
      "éd": 1777,
      "oul": 1778,
      "cab": 1779,
      "kle": 1780,
      "etou": 1781,
      "fat": 1782,
      "parti": 1783,
      "3mor": 1784,
      "lol": 1785,
      "wli": 1786,
      "raa": 1787,
      "jai": 1788,
      "ille": 1789,
      "wehed": 1790,
      "parc": 1791,
      "kamcha": 1792,
      "dna": 1793,
      "rf": 1794,
      "wa3": 1795,
      "wa7id": 1796,
      "baaa": 1797,
      "meli": 1798,
      "iit": 1799,
      "veau": 1800,
      "tnajem": 1801,
      "kelma": 1802,
      "t7in": 1803,
      "fdha": 1804,
      "nha": 1805,
      "um": 1806,
      "jaa": 1807,
      "mit": 1808,
      "belahi": 1809,
      "mine": 1810,
      "mahlek": 1811,
      "wahra": 1812,
      "inchalla": 1813,
      "enta5": 1814,
      "yechfih": 1815,
      "www": 1816,
      "amine": 1817,
      "ked": 1818,
      "lmou": 1819,
      "rass": 1820,
      "nati": 1821,
      "tach": 1822,
      "thab": 1823,
      "benzarti": 1824,
      "ma7lek": 1825,
      "rya7i": 1826,
      "shih": 1827,
      "wat": 1828,
      "nich": 1829,
      "keyet": 1830,
      "yo9": 1831,
      "temchi": 1832,
      "i7eb": 1833,
      "sy": 1834,
      "ya5": 1835,
      "7at": 1836,
      "fak": 1837,
      "louled": 1838,
      "did": 1839,
      "menhom": 1840,
      "raj3ou": 1841,
      "dégage": 1842,
      "7et": 1843,
      "9et": 1844,
      "ie": 1845,
      "sbe7": 1846,
      "ère": 1847,
      "hach": 1848,
      "laa": 1849,
      "leclub": 1850,
      "nit": 1851,
      "rous": 1852,
      "zab": 1853,
      "ghalia": 1854,
      "hamed": 1855,
      "ami": 1856,
      "ew": 1857,
      "hka": 1858,
      "ij": 1859,
      "nchoufou": 1860,
      "pl": 1861,
      "tjib": 1862,
      "zed": 1863,
      "bras": 1864,
      "tarja3": 1865,
      "zeyed": 1866,
      "badel": 1867,
      "signaler": 1868,
      "fem": 1869,
      "gla": 1870,
      "oma": 1871,
      "wma": 1872,
      "ék": 1873,
      "lay": 1874,
      "chkon": 1875,
      "lement": 1876,
      "kit": 1877,
      "touh": 1878,
      "yena": 1879,
      "menek": 1880,
      "llahi": 1881,
      "ya3ref": 1882,
      "tal9a": 1883,
      "ita": 1884,
      "ha9": 1885,
      "mag": 1886,
      "ense": 1887,
      "illa": 1888,
      "bouha": 1889,
      "kouki": 1890,
      "oop": 1891,
      "rrr": 1892,
      "trop": 1893,
      "joueret": 1894,
      "bjeh": 1895,
      "cor": 1896,
      "nti": 1897,
      "sek": 1898,
      "wy": 1899,
      "laaa": 1900,
      "bahi": 1901,
      "da9": 1902,
      "belek": 1903,
      "9i9a": 1904,
      "ssar": 1905,
      "ghali": 1906,
      "wini": 1907,
      "just": 1908,
      "rye7i": 1909,
      "fici": 1910,
      "tich": 1911,
      "em3ak": 1912,
      "dakh": 1913,
      "alger": 1914,
      "m3ahom": 1915,
      "zabour": 1916,
      "hamdou": 1917,
      "touns": 1918,
      "sloma": 1919,
      "hna": 1920,
      "isa": 1921,
      "haz": 1922,
      "biii": 1923,
      "fiii": 1924,
      "ommek": 1925,
      "alih": 1926,
      "surtout": 1927,
      "3ek": 1928,
      "akid": 1929,
      "sn": 1930,
      "tri": 1931,
      "wna": 1932,
      "day": 1933,
      "new": 1934,
      "sahbi": 1935,
      "juste": 1936,
      "9wi": 1937,
      "iya": 1938,
      "mlo": 1939,
      "raaa": 1940,
      "enes": 1941,
      "jamais": 1942,
      "sss": 1943,
      "maryou": 1944,
      "farjou": 1945,
      "meri": 1946,
      "foot": 1947,
      "4a": 1948,
      "7el": 1949,
      "bkhir": 1950,
      "mwa": 1951,
      "nchouf": 1952,
      "sé": 1953,
      "trou": 1954,
      "tchouf": 1955,
      "vid": 1956,
      "machi": 1957,
      "rakom": 1958,
      "saf": 1959,
      "hil": 1960,
      "winou": 1961,
      "yo5": 1962,
      "mille": 1963,
      "alina": 1964,
      "joon": 1965,
      "3maltou": 1966,
      "respect": 1967,
      "5ii": 1968,
      "lka": 1969,
      "ren": 1970,
      "ere": 1971,
      "hiwar": 1972,
      "m3aak": 1973,
      "dhel": 1974,
      "anti": 1975,
      "ywaf9ek": 1976,
      "dom": 1977,
      "lt": 1978,
      "lma": 1979,
      "ykha": 1980,
      "chnia": 1981,
      "3as": 1982,
      "hit": 1983,
      "fan": 1984,
      "9ab": 1985,
      "nef": 1986,
      "ma3neha": 1987,
      "na3ref": 1988,
      "inchala": 1989,
      "recr": 1990,
      "30": 1991,
      "blé": 1992,
      "rwe7": 1993,
      "hala": 1994,
      "eth": 1995,
      "sai": 1996,
      "hik": 1997,
      "rif": 1998,
      "7an": 1999,
      "7ach": 2000,
      "ta3mlou": 2001,
      "morta": 2002,
      "dandouk": 2003,
      "barnamej": 2004,
      "jri": 2005,
      "ycha": 2006,
      "haa": 2007,
      "chniya": 2008,
      "le9": 2009,
      "leya": 2010,
      "sais": 2011,
      "mim": 2012,
      "dhaher": 2013,
      "anta": 2014,
      "na3rfou": 2015,
      "wahdek": 2016,
      "hand": 2017,
      "bya": 2018,
      "neb": 2019,
      "wya": 2020,
      "ych": 2021,
      "yba": 2022,
      "ell": 2023,
      "fare": 2024,
      "alg": 2025,
      "homa": 2026,
      "na3mou": 2027,
      "kolou": 2028,
      "sty": 2029,
      "chnouwa": 2030,
      "politique": 2031,
      "3e": 2032,
      "ac": 2033,
      "jmou": 2034,
      "lmo": 2035,
      "tli": 2036,
      "wt": 2037,
      "yched": 2038,
      "naa": 2039,
      "omou": 2040,
      "rina": 2041,
      "olo": 2042,
      "te9": 2043,
      "khed": 2044,
      "entra": 2045,
      "yekhi": 2046,
      "amma": 2047,
      "béch": 2048,
      "publi": 2049,
      "manich": 2050,
      "max": 2051,
      "3awen": 2052,
      "wadi": 2053,
      "chad": 2054,
      "sif": 2055,
      "menou": 2056,
      "roj": 2057,
      "yahki": 2058,
      "klam": 2059,
      "goul": 2060,
      "offici": 2061,
      "aidek": 2062,
      "19": 2063,
      "bni": 2064,
      "jm": 2065,
      "sr": 2066,
      "yè": 2067,
      "és": 2068,
      "ét": 2069,
      "matha": 2070,
      "said": 2071,
      "erjel": 2072,
      "zidou": 2073,
      "stade": 2074,
      "commenta": 2075,
      "mawjou": 2076,
      "port": 2077,
      "behya": 2078,
      "88": 2079,
      "flo": 2080,
      "wle": 2081,
      "mahich": 2082,
      "baya": 2083,
      "ti7": 2084,
      "kab": 2085,
      "yetraba": 2086,
      "joueurs": 2087,
      "ces": 2088,
      "hd": 2089,
      "idha": 2090,
      "mle": 2091,
      "zbou": 2092,
      "oun": 2093,
      "oula": 2094,
      "haaa": 2095,
      "elmou": 2096,
      "omk": 2097,
      "tih": 2098,
      "alor": 2099,
      "meta": 2100,
      "zaweli": 2101,
      "fou9": 2102,
      "ahsen": 2103,
      "sour": 2104,
      "tab9a": 2105,
      "50": 2106,
      "css": 2107,
      "t9a": 2108,
      "t3ich": 2109,
      "hah": 2110,
      "fal": 2111,
      "wena": 2112,
      "chid": 2113,
      "mechi": 2114,
      "sob": 2115,
      "3inek": 2116,
      "musi": 2117,
      "recrut": 2118,
      "jed": 2119,
      "sfa": 2120,
      "tn": 2121,
      "ouk": 2122,
      "fila": 2123,
      "dia": 2124,
      "all": 2125,
      "rabiii": 2126,
      "ne7": 2127,
      "tho": 2128,
      "sayed": 2129,
      "jours": 2130,
      "gel": 2131,
      "hwa": 2132,
      "icha": 2133,
      "mla3": 2134,
      "pet": 2135,
      "som": 2136,
      "naw": 2137,
      "3alik": 2138,
      "bay": 2139,
      "dayma": 2140,
      "touha": 2141,
      "gati": 2142,
      "9it": 2143,
      "na3mlou": 2144,
      "wahda": 2145,
      "jemla": 2146,
      "suis": 2147,
      "ryahi": 2148,
      "ass": 2149,
      "a3lik": 2150,
      "att": 2151,
      "gaaa": 2152,
      "ikoun": 2153,
      "lkom": 2154,
      "n9o": 2155,
      "tcha": 2156,
      "wek": 2157,
      "madem": 2158,
      "3amel": 2159,
      "fia": 2160,
      "bali": 2161,
      "9anoun": 2162,
      "tefhem": 2163,
      "rouf": 2164,
      "5ar": 2165,
      "aala": 2166,
      "waldik": 2167,
      "machrou": 2168,
      "bt": 2169,
      "o9": 2170,
      "liha": 2171,
      "faire": 2172,
      "kolhom": 2173,
      "koulou": 2174,
      "3ik": 2175,
      "beya": 2176,
      "ma3na": 2177,
      "trek": 2178,
      "viva": 2179,
      "wenta": 2180,
      "3leha": 2181,
      "yehdi": 2182,
      "bda": 2183,
      "ghou": 2184,
      "likom": 2185,
      "naya": 2186,
      "kara": 2187,
      "nikom": 2188,
      "me3": 2189,
      "mo5": 2190,
      "mohamed": 2191,
      "dhe": 2192,
      "walit": 2193,
      "twansa": 2194,
      "libya": 2195,
      "5sara": 2196,
      "rom": 2197,
      "yd": 2198,
      "yik": 2199,
      "ouh": 2200,
      "ouch": 2201,
      "mai": 2202,
      "radi": 2203,
      "laha": 2204,
      "na7i": 2205,
      "wan": 2206,
      "fi9ou": 2207,
      "faha": 2208,
      "3iya": 2209,
      "def": 2210,
      "dema": 2211,
      "za7": 2212,
      "jim": 2213,
      "thama": 2214,
      "7i7": 2215,
      "blas": 2216,
      "messa": 2217,
      "champi": 2218,
      "gho": 2219,
      "n9oul": 2220,
      "slem": 2221,
      "oum": 2222,
      "fida": 2223,
      "kaw": 2224,
      "dara": 2225,
      "touni": 2226,
      "rouh": 2227,
      "neh": 2228,
      "berasmi": 2229,
      "bel7a9": 2230,
      "ance": 2231,
      "wlad": 2232,
      "nés": 2233,
      "3andhom": 2234,
      "9bel": 2235,
      "esa": 2236,
      "m3ou": 2237,
      "ps": 2238,
      "pon": 2239,
      "mass": 2240,
      "mata3": 2241,
      "errajel": 2242,
      "kolkom": 2243,
      "to5": 2244,
      "kef": 2245,
      "coupe": 2246,
      "s7i7a": 2247,
      "3od": 2248,
      "kafon": 2249,
      "gaaage": 2250,
      "j3ou": 2251,
      "lfa": 2252,
      "mli": 2253,
      "wrak": 2254,
      "habi": 2255,
      "ella": 2256,
      "libled": 2257,
      "wadh": 2258,
      "bak": 2259,
      "chah": 2260,
      "kach": 2261,
      "nida": 2262,
      "moutou": 2263,
      "reau": 2264,
      "tez": 2265,
      "houlek": 2266,
      "amana": 2267,
      "wissem": 2268,
      "3oud": 2269,
      "da5el": 2270,
      "alors": 2271,
      "bè": 2272,
      "md": 2273,
      "ndou": 2274,
      "haf": 2275,
      "mafamech": 2276,
      "rades": 2277,
      "choi": 2278,
      "lila": 2279,
      "yarah": 2280,
      "tara": 2281,
      "kad": 2282,
      "kais": 2283,
      "kifou": 2284,
      "niveau": 2285,
      "entom": 2286,
      "yetna": 2287,
      "ttt": 2288,
      "ma3ak": 2289,
      "from": 2290,
      "tari5": 2291,
      "barnemej": 2292,
      "erajel": 2293,
      "hram": 2294,
      "itha": 2295,
      "mê": 2296,
      "mam": 2297,
      "manou": 2298,
      "chbih": 2299,
      "billahi": 2300,
      "til": 2301,
      "7ajet": 2302,
      "moi": 2303,
      "lowa": 2304,
      "na3ma": 2305,
      "meskina": 2306,
      "3ayel": 2307,
      "nafs": 2308,
      "jenjoon": 2309,
      "chokran": 2310,
      "sfax": 2311,
      "5in": 2312,
      "ged": 2313,
      "happ": 2314,
      "rachwa": 2315,
      "ta7i": 2316,
      "chabeb": 2317,
      "sieur": 2318,
      "rid": 2319,
      "7aj": 2320,
      "one": 2321,
      "mia": 2322,
      "ye5": 2323,
      "zanatir": 2324,
      "tos": 2325,
      "rok": 2326,
      "ires": 2327,
      "llam": 2328,
      "yarhem": 2329,
      "hamdi": 2330,
      "sayer": 2331,
      "flousek": 2332,
      "nahda": 2333,
      "3awnou": 2334,
      "france": 2335,
      "msg": 2336,
      "versa": 2337,
      "jabri": 2338,
      "korsi": 2339,
      "3mel": 2340,
      "3dou": 2341,
      "7ok": 2342,
      "cette": 2343,
      "rasou": 2344,
      "ya5i": 2345,
      "ensen": 2346,
      "fir": 2347,
      "sare9": 2348,
      "chaab": 2349,
      "ri3": 2350,
      "eme": 2351,
      "ma3k": 2352,
      "heda": 2353,
      "vie": 2354,
      "3oun": 2355,
      "9odem": 2356,
      "7oukouma": 2357,
      "tant": 2358,
      "bureau": 2359,
      "zboubna": 2360,
      "200": 2361,
      "bnet": 2362,
      "bhim": 2363,
      "fok": 2364,
      "l7a9": 2365,
      "n9ol": 2366,
      "seli": 2367,
      "haj": 2368,
      "laf": 2369,
      "najem": 2370,
      "3az": 2371,
      "leflous": 2372,
      "waj": 2373,
      "omkom": 2374,
      "faut": 2375,
      "dans": 2376,
      "yee": 2377,
      "deh": 2378,
      "iim": 2379,
      "yarh": 2380,
      "nchalh": 2381,
      "m3alm": 2382,
      "gue": 2383,
      "3ayla": 2384,
      "mnayek": 2385,
      "tounsia": 2386,
      "beaucoup": 2387,
      "jaime": 2388,
      "happy": 2389,
      "33": 2390,
      "9lou": 2391,
      "cri": 2392,
      "kbal": 2393,
      "rbi": 2394,
      "wha": 2395,
      "wjou": 2396,
      "nawa": 2397,
      "tira": 2398,
      "rij": 2399,
      "kich": 2400,
      "rouhou": 2401,
      "yesa": 2402,
      "3ando": 2403,
      "ya3ni": 2404,
      "maalem": 2405,
      "mte3ek": 2406,
      "tunisien": 2407,
      "projet": 2408,
      "clubist": 2409,
      "hasbouna": 2410,
      "7in": 2411,
      "mk": 2412,
      "ses": 2413,
      "wir": 2414,
      "ywali": 2415,
      "elna": 2416,
      "nass": 2417,
      "ya9": 2418,
      "omo": 2419,
      "chaine": 2420,
      "kiw": 2421,
      "be3": 2422,
      "boy": 2423,
      "uuk": 2424,
      "makech": 2425,
      "yara7mou": 2426,
      "meme": 2427,
      "bent": 2428,
      "ft": 2429,
      "ira": 2430,
      "tba": 2431,
      "zé": 2432,
      "makh": 2433,
      "massa": 2434,
      "3ale": 2435,
      "tia": 2436,
      "kalem": 2437,
      "rien": 2438,
      "kim": 2439,
      "dire": 2440,
      "dab": 2441,
      "deja": 2442,
      "3amla": 2443,
      "veut": 2444,
      "hahah": 2445,
      "no9": 2446,
      "masla7": 2447,
      "blech": 2448,
      "wild": 2449,
      "3malt": 2450,
      "franca": 2451,
      "yab9a": 2452,
      "mazal": 2453,
      "karim": 2454,
      "ata": 2455,
      "get": 2456,
      "jor": 2457,
      "lbled": 2458,
      "wem": 2459,
      "3aj": 2460,
      "bayou": 2461,
      "chab": 2462,
      "riba": 2463,
      "fam": 2464,
      "nidhal": 2465,
      "ya3tek": 2466,
      "yarja3": 2467,
      "aussi": 2468,
      "peau": 2469,
      "wahna": 2470,
      "billehi": 2471,
      "uuh": 2472,
      "besh": 2473,
      "point": 2474,
      "jebni": 2475,
      "impor": 2476,
      "yarat": 2477,
      "b3adh": 2478,
      "zantour": 2479,
      "style": 2480,
      "3ej": 2481,
      "ry": 2482,
      "trab": 2483,
      "wis": 2484,
      "zet": 2485,
      "yare": 2486,
      "ya7i": 2487,
      "3ass": 2488,
      "enfin": 2489,
      "wach": 2490,
      "sawer": 2491,
      "fadh": 2492,
      "toujours": 2493,
      "boula": 2494,
      "yefhem": 2495,
      "thez": 2496,
      "toz": 2497,
      "iik": 2498,
      "ook": 2499,
      "akthar": 2500,
      "tahya": 2501,
      "mmm": 2502,
      "yelz": 2503,
      "3awed": 2504,
      "5dmou": 2505,
      "9rib": 2506,
      "grou": 2507,
      "pre": 2508,
      "rine": 2509,
      "tom": 2510,
      "tol": 2511,
      "chkou": 2512,
      "enou": 2513,
      "wana": 2514,
      "fid": 2515,
      "sak": 2516,
      "salam": 2517,
      "siyes": 2518,
      "famille": 2519,
      "kila": 2520,
      "dafi": 2521,
      "m3alam": 2522,
      "ilkol": 2523,
      "3ia": 2524,
      "wila": 2525,
      "je7": 2526,
      "jeya": 2527,
      "masta": 2528,
      "wa9et": 2529,
      "yia": 2530,
      "samir": 2531,
      "ywaf": 2532,
      "mkach": 2533,
      "jami3": 2534,
      "officiel": 2535,
      "3n": 2536,
      "7keyet": 2537,
      "93ad": 2538,
      "b7ou": 2539,
      "b1000": 2540,
      "frou": 2541,
      "gram": 2542,
      "iheb": 2543,
      "l9": 2544,
      "lba": 2545,
      "maaa": 2546,
      "yad": 2547,
      "taja": 2548,
      "walet": 2549,
      "ete": 2550,
      "sib": 2551,
      "homme": 2552,
      "5as": 2553,
      "khra": 2554,
      "mochkla": 2555,
      "enchala": 2556,
      "norma": 2557,
      "toile": 2558,
      "marbouha": 2559,
      "idara": 2560,
      "watani": 2561,
      "avant": 2562,
      "travailler": 2563,
      "machrou3": 2564,
      "bre": 2565,
      "i9": 2566,
      "iir": 2567,
      "l7a": 2568,
      "nel": 2569,
      "mams": 2570,
      "rach": 2571,
      "lich": 2572,
      "yach": 2573,
      "hihi": 2574,
      "kaleb": 2575,
      "nice": 2576,
      "miya": 2577,
      "miss": 2578,
      "too": 2579,
      "tooop": 2580,
      "dhek": 2581,
      "youtu": 2582,
      "hezou": 2583,
      "bledna": 2584,
      "chway": 2585,
      "bledi": 2586,
      "9olt": 2587,
      "akahaw": 2588,
      "khedma": 2589,
      "7kom": 2590,
      "99": 2591,
      "a9al": 2592,
      "dz": 2593,
      "fsa": 2594,
      "ite": 2595,
      "im3ak": 2596,
      "km": 2597,
      "ui": 2598,
      "yom": 2599,
      "zga": 2600,
      "tali": 2601,
      "tahana": 2602,
      "rima": 2603,
      "loum": 2604,
      "nee": 2605,
      "degaaage": 2606,
      "zada": 2607,
      "kora": 2608,
      "monsieur": 2609,
      "mél": 2610,
      "person": 2611,
      "fekra": 2612,
      "saison": 2613,
      "3lé": 2614,
      "77": 2615,
      "are": 2616,
      "i5a": 2617,
      "kek": 2618,
      "twalli": 2619,
      "yha": 2620,
      "nadh": 2621,
      "tation": 2622,
      "lekom": 2623,
      "bala": 2624,
      "inna": 2625,
      "inter": 2626,
      "salah": 2627,
      "kas": 2628,
      "capo": 2629,
      "de5": 2630,
      "tola": 2631,
      "leklem": 2632,
      "arri": 2633,
      "retour": 2634,
      "job": 2635,
      "zeby": 2636,
      "mchit": 2637,
      "9odret": 2638,
      "anniversa": 2639,
      "3raf": 2640,
      "9el": 2641,
      "a5er": 2642,
      "sraf": 2643,
      "lena": 2644,
      "leur": 2645,
      "sa5": 2646,
      "esh": 2647,
      "da3": 2648,
      "dhaw": 2649,
      "weldik": 2650,
      "ta3mil": 2651,
      "minha": 2652,
      "anna": 2653,
      "tawfi9": 2654,
      "far7a": 2655,
      "ghneya": 2656,
      "mayji": 2657,
      "contra": 2658,
      "techri": 2659,
      "mehri": 2660,
      "okhra": 2661,
      "bhe": 2662,
      "era": 2663,
      "idi": 2664,
      "l7": 2665,
      "mtaa": 2666,
      "ru": 2667,
      "t7ib": 2668,
      "mafama": 2669,
      "lihom": 2670,
      "hhom": 2671,
      "dez": 2672,
      "be9i": 2673,
      "dha7": 2674,
      "ro7ek": 2675,
      "3lach": 2676,
      "ta3ti": 2677,
      "hot": 2678,
      "note": 2679,
      "hamza": 2680,
      "masha": 2681,
      "3omri": 2682,
      "3omrou": 2683,
      "y7ebou": 2684,
      "recrutement": 2685,
      "5id": 2686,
      "9ef": 2687,
      "cv": 2688,
      "ftha": 2689,
      "ges": 2690,
      "gol": 2691,
      "jma3": 2692,
      "koo": 2693,
      "lga": 2694,
      "tched": 2695,
      "ybi": 2696,
      "ée": 2697,
      "mami": 2698,
      "tahiya": 2699,
      "waw": 2700,
      "m3aha": 2701,
      "death": 2702,
      "wij": 2703,
      "tawwa": 2704,
      "9albi": 2705,
      "abed": 2706,
      "3aych": 2707,
      "dhif": 2708,
      "yezina": 2709,
      "b3ath": 2710,
      "chnwa": 2711,
      "maryoul": 2712,
      "bhi": 2713,
      "cent": 2714,
      "krah": 2715,
      "nu": 2716,
      "la7a": 2717,
      "sidek": 2718,
      "7abi": 2719,
      "emi": 2720,
      "dah": 2721,
      "rou7ik": 2722,
      "mona": 2723,
      "moins": 2724,
      "deyma": 2725,
      "ziz": 2726,
      "3anna": 2727,
      "mabrouuuk": 2728,
      "arbi": 2729,
      "stor": 2730,
      "ssir": 2731,
      "wa9tha": 2732,
      "la7keya": 2733,
      "meskin": 2734,
      "3ini": 2735,
      "sebsi": 2736,
      "pivo": 2737,
      "zzz": 2738,
      "dinar": 2739,
      "pub": 2740,
      "9a3da": 2741,
      "ya3tikom": 2742,
      "message": 2743,
      "cer": 2744,
      "dmou": 2745,
      "nenta5": 2746,
      "tnik": 2747,
      "yta": 2748,
      "rayou": 2749,
      "3ach": 2750,
      "3aaa": 2751,
      "watan": 2752,
      "salim": 2753,
      "sala7": 2754,
      "saif": 2755,
      "sik": 2756,
      "fadina": 2757,
      "mir": 2758,
      "bark": 2759,
      "roc": 2760,
      "paro": 2761,
      "amal": 2762,
      "soub": 2763,
      "berrasmi": 2764,
      "lebes": 2765,
      "thi9a": 2766,
      "yahf": 2767,
      "sa7a7": 2768,
      "7al9a": 2769,
      "mridh": 2770,
      "yonsrek": 2771,
      "vidé": 2772,
      "blh": 2773,
      "ejam3iya": 2774,
      "efriki": 2775,
      "ffa": 2776,
      "kl": 2777,
      "tl": 2778,
      "yra": 2779,
      "y9a": 2780,
      "èn": 2781,
      "chal": 2782,
      "ris": 2783,
      "ye7i": 2784,
      "mot": 2785,
      "nesma": 2786,
      "douh": 2787,
      "martou": 2788,
      "ture": 2789,
      "ard": 2790,
      "a3mlou": 2791,
      "doc": 2792,
      "9alleb": 2793,
      "mas2": 2794,
      "sans": 2795,
      "zebbi": 2796,
      "basket": 2797,
      "jbouj": 2798,
      "algéri": 2799,
      "youtube": 2800,
      "ada": 2801,
      "ataw": 2802,
      "keb": 2803,
      "nji": 2804,
      "nmout": 2805,
      "sk": 2806,
      "slm": 2807,
      "tkha": 2808,
      "zen": 2809,
      "zwa": 2810,
      "nay": 2811,
      "tani": 2812,
      "eto": 2813,
      "ont": 2814,
      "ni3ma": 2815,
      "m3adheb": 2816,
      "houch": 2817,
      "ssed": 2818,
      "5arej": 2819,
      "minhom": 2820,
      "gad": 2821,
      "khawla": 2822,
      "raj3": 2823,
      "quel": 2824,
      "ineur": 2825,
      "blasa": 2826,
      "ssion": 2827,
      "m3lem": 2828,
      "nahtha": 2829,
      "raiis": 2830,
      "comp": 2831,
      "ra2iss": 2832,
      "9a3din": 2833,
      "anniversaire": 2834,
      "3bou": 2835,
      "7yet": 2836,
      "bess": 2837,
      "gent": 2838,
      "hla": 2839,
      "kes": 2840,
      "oh": 2841,
      "pou": 2842,
      "pho": 2843,
      "y9oul": 2844,
      "hadh": 2845,
      "madha": 2846,
      "chalah": 2847,
      "kahaw": 2848,
      "sim": 2849,
      "oneya": 2850,
      "louna": 2851,
      "allh": 2852,
      "mous": 2853,
      "9ahba": 2854,
      "bouzid": 2855,
      "te5": 2856,
      "ne3ma": 2857,
      "them": 2858,
      "than": 2859,
      "para": 2860,
      "entren": 2861,
      "ahmed": 2862,
      "9oli": 2863,
      "lkolna": 2864,
      "raji3oun": 2865,
      "lotf": 2866,
      "nafti": 2867,
      "mostawa": 2868,
      "mezyena": 2869,
      "14": 2870,
      "3er": 2871,
      "ara": 2872,
      "b3id": 2873,
      "dro": 2874,
      "gg": 2875,
      "ima": 2876,
      "jb": 2877,
      "lya": 2878,
      "mzi": 2879,
      "nr": 2880,
      "rc": 2881,
      "tkom": 2882,
      "y7a": 2883,
      "zek": 2884,
      "mafhem": 2885,
      "3ama": 2886,
      "enya": 2887,
      "batal": 2888,
      "5ab": 2889,
      "5ayeb": 2890,
      "aan": 2891,
      "andou": 2892,
      "sef": 2893,
      "manel": 2894,
      "waldi": 2895,
      "raiss": 2896,
      "tini": 2897,
      "admin": 2898,
      "kemla": 2899,
      "3omra": 2900,
      "bsaraha": 2901,
      "mariem": 2902,
      "b3": 2903,
      "blo": 2904,
      "eux": 2905,
      "mom": 2906,
      "off": 2907,
      "rhou": 2908,
      "yfar": 2909,
      "yatla3": 2910,
      "baki": 2911,
      "chala": 2912,
      "chapeau": 2913,
      "hih": 2914,
      "cas": 2915,
      "mo3": 2916,
      "3ichou": 2917,
      "zay": 2918,
      "melli": 2919,
      "tunes": 2920,
      "3alam": 2921,
      "zouza": 2922,
      "chef": 2923,
      "birth": 2924,
      "fort": 2925,
      "alech": 2926,
      "nty": 2927,
      "fare5": 2928,
      "public": 2929,
      "3em": 2930,
      "assa": 2931,
      "b3ad": 2932,
      "but": 2933,
      "b9odret": 2934,
      "nen": 2935,
      "t9ou": 2936,
      "tnek": 2937,
      "ma3andou": 2938,
      "raja": 2939,
      "chel": 2940,
      "chmeta": 2941,
      "3ami": 2942,
      "baz": 2943,
      "intouma": 2944,
      "safi": 2945,
      "saba": 2946,
      "7asi": 2947,
      "dith": 2948,
      "rebi": 2949,
      "tok": 2950,
      "rabby": 2951,
      "douba": 2952,
      "fehom": 2953,
      "tur": 2954,
      "ques": 2955,
      "youss": 2956,
      "ma39oul": 2957,
      "sout": 2958,
      "est7a9": 2959,
      "yich": 2960,
      "nessma": 2961,
      "machari3": 2962,
      "mte3ou": 2963,
      "entraineur": 2964,
      "gir": 2965,
      "l3ar": 2966,
      "nul": 2967,
      "rjal": 2968,
      "tbi": 2969,
      "tzid": 2970,
      "yjib": 2971,
      "èè": 2972,
      "équipe": 2973,
      "taha": 2974,
      "tahan": 2975,
      "ennahdha": 2976,
      "dich": 2977,
      "moufida": 2978,
      "tena": 2979,
      "sseb": 2980,
      "mok": 2981,
      "jibelna": 2982,
      "fehem": 2983,
      "noub": 2984,
      "confi": 2985,
      "thib": 2986,
      "walid": 2987,
      "hawka": 2988,
      "5alina": 2989,
      "forsa": 2990,
      "klemek": 2991,
      "oooh": 2992,
      "tbarkallah": 2993,
      "15": 2994,
      "chneya": 2995,
      "line": 2996,
      "nari": 2997,
      "omhom": 2998,
      "cha7": 2999,
      "ri7": 3000,
      "jama": 3001,
      "jana": 3002,
      "oni": 3003,
      "dal": 3004,
      "me7": 3005,
      "dew": 3006,
      "ji3an": 3007,
      "allahou": 3008,
      "9ik": 3009,
      "nouchi": 3010,
      "mta3ek": 3011,
      "9alb": 3012,
      "kalba": 3013,
      "yahdi": 3014,
      "nahna": 3015,
      "m3allim": 3016,
      "sbab": 3017,
      "ynajem": 3018,
      "enchalla": 3019,
      "play": 3020,
      "montasar": 3021,
      "semi": 3022,
      "fehri1": 3023,
      "zgaw": 3024,
      "3bad": 3025,
      "5raj": 3026,
      "dt": 3027,
      "fb": 3028,
      "hr": 3029,
      "ihi": 3030,
      "lfri9i": 3031,
      "maha": 3032,
      "raha": 3033,
      "la3b": 3034,
      "elf": 3035,
      "nan": 3036,
      "yaf": 3037,
      "ett": 3038,
      "mois": 3039,
      "nesta": 3040,
      "3andik": 3041,
      "not": 3042,
      "tanbir": 3043,
      "5iir": 3044,
      "klab": 3045,
      "ilayhi": 3046,
      "3morha": 3047,
      "plz": 3048,
      "mortaz": 3049,
      "ghodwa": 3050,
      "vidéo": 3051,
      "16": 3052,
      "bz": 3053,
      "ejam3ia": 3054,
      "nwa": 3055,
      "yl": 3056,
      "waaa": 3057,
      "eri": 3058,
      "jazi": 3059,
      "kolo": 3060,
      "3it": 3061,
      "defi": 3062,
      "kenet": 3063,
      "galou": 3064,
      "iid": 3065,
      "your": 3066,
      "ya3mil": 3067,
      "ya3rfou": 3068,
      "tawfik": 3069,
      "tared": 3070,
      "9alo": 3071,
      "jem3a": 3072,
      "telna": 3073,
      "3ayech": 3074,
      "3inik": 3075,
      "mnay": 3076,
      "riyahi": 3077,
      "7kaya": 3078,
      "ryehi": 3079,
      "5r": 3080,
      "cro": 3081,
      "eel": 3082,
      "hè": 3083,
      "ikh": 3084,
      "kedh": 3085,
      "rcha": 3086,
      "rech": 3087,
      "sya": 3088,
      "sport": 3089,
      "zb": 3090,
      "oumour": 3091,
      "hath": 3092,
      "mati": 3093,
      "elfa": 3094,
      "chtar": 3095,
      "wahid": 3096,
      "riehi": 3097,
      "emchi": 3098,
      "ils": 3099,
      "rez": 3100,
      "aam": 3101,
      "andek": 3102,
      "kounou": 3103,
      "jeu": 3104,
      "lkolha": 3105,
      "ma7la": 3106,
      "ma7leha": 3107,
      "karti": 3108,
      "3andkom": 3109,
      "tfarej": 3110,
      "machakel": 3111,
      "wejhek": 3112,
      "mkacha5": 3113,
      "masa5": 3114,
      "ghalya": 3115,
      "4al": 3116,
      "9in": 3117,
      "ahhh": 3118,
      "cra": 3119,
      "d5al": 3120,
      "eek": 3121,
      "fra": 3122,
      "nna": 3123,
      "rwa7": 3124,
      "y3aw": 3125,
      "ous": 3126,
      "rain": 3127,
      "elga": 3128,
      "insen": 3129,
      "sada9": 3130,
      "7aya": 3131,
      "jabou": 3132,
      "nina": 3133,
      "rouk": 3134,
      "brass": 3135,
      "voir": 3136,
      "votre": 3137,
      "5atr": 3138,
      "dour": 3139,
      "seya": 3140,
      "enah": 3141,
      "malg": 3142,
      "ssan": 3143,
      "baraka": 3144,
      "yar7mo": 3145,
      "3idkom": 3146,
      "3andna": 3147,
      "going": 3148,
      "puis": 3149,
      "khalli": 3150,
      "7lowa": 3151,
      "dk": 3152,
      "mà": 3153,
      "mtek": 3154,
      "nhi": 3155,
      "ntouma": 3156,
      "tfar": 3157,
      "tsir": 3158,
      "tjr": 3159,
      "wh": 3160,
      "wm": 3161,
      "wr": 3162,
      "hama": 3163,
      "madh": 3164,
      "magh": 3165,
      "elmo": 3166,
      "nadi": 3167,
      "sana": 3168,
      "esmou": 3169,
      "faza": 3170,
      "m3aaak": 3171,
      "mij": 3172,
      "bela": 3173,
      "bena": 3174,
      "nestana": 3175,
      "fe3": 3176,
      "sloumaaa": 3177,
      "wira": 3178,
      "ya39ou": 3179,
      "malyoun": 3180,
      "felna": 3181,
      "flousou": 3182,
      "leblad": 3183,
      "ya7f": 3184,
      "3arbi": 3185,
      "yehdik": 3186,
      "linti": 3187,
      "t7ebou": 3188,
      "fransa": 3189,
      "much": 3190,
      "ghalta": 3191,
      "11": 3192,
      "8ar": 3193,
      "efri9i": 3194,
      "gé": 3195,
      "hin": 3196,
      "jmal": 3197,
      "lom": 3198,
      "nka": 3199,
      "rja": 3200,
      "wkol": 3201,
      "yb": 3202,
      "îne": 3203,
      "ouuu": 3204,
      "ra3": 3205,
      "rag": 3206,
      "ra7a": 3207,
      "tata": 3208,
      "3alina": 3209,
      "was": 3210,
      "sali": 3211,
      "salouma": 3212,
      "ekel": 3213,
      "ekher": 3214,
      "alh": 3215,
      "yez": 3216,
      "dhaf": 3217,
      "ga3": 3218,
      "jouwer": 3219,
      "soussa": 3220,
      "tartour": 3221,
      "virage": 3222,
      "stp": 3223,
      "part": 3224,
      "medeb": 3225,
      "nnn": 3226,
      "jaweb": 3227,
      "upl": 3228,
      "7ezb": 3229,
      "commentaire": 3230,
      "rcd": 3231,
      "13": 3232,
      "aha": 3233,
      "a3lina": 3234,
      "best": 3235,
      "echa3eb": 3236,
      "fre": 3237,
      "klou": 3238,
      "ny": 3239,
      "ysir": 3240,
      "hazi": 3241,
      "ma7a": 3242,
      "yam": 3243,
      "yaser": 3244,
      "less": 3245,
      "lefri": 3246,
      "bili": 3247,
      "waya": 3248,
      "bajbouj": 3249,
      "etoi": 3250,
      "samara": 3251,
      "esmha": 3252,
      "sit": 3253,
      "9as": 3254,
      "mission": 3255,
      "barch": 3256,
      "zir": 3257,
      "lobna": 3258,
      "minou": 3259,
      "how": 3260,
      "ahlou": 3261,
      "mat5a": 3262,
      "kanet": 3263,
      "blaset": 3264,
      "na3mel": 3265,
      "trabel": 3266,
      "lll": 3267,
      "media": 3268,
      "yechfik": 3269,
      "bachir": 3270,
      "kemel": 3271,
      "nhebou": 3272,
      "mt3": 3273,
      "y5alik": 3274,
      "selim": 3275,
      "pivot": 3276,
      "entreneur": 3277,
      "3r": 3278,
      "5sar": 3279,
      "90": 3280,
      "9dar": 3281,
      "bza": 3282,
      "eja": 3283,
      "feli": 3284,
      "hu": 3285,
      "kbar": 3286,
      "pense": 3287,
      "tlou": 3288,
      "t7i": 3289,
      "teli": 3290,
      "yla": 3291,
      "y5ali": 3292,
      "èd": 3293,
      "éch": 3294,
      "malh": 3295,
      "chnawa": 3296,
      "yana": 3297,
      "yass": 3298,
      "lehom": 3299,
      "bid": 3300,
      "waret": 3301,
      "fique": 3302,
      "inch": 3303,
      "ka3ba": 3304,
      "7ana": 3305,
      "em3a": 3306,
      "rea": 3307,
      "9ara": 3308,
      "beche": 3309,
      "gag": 3310,
      "gafsa": 3311,
      "khor": 3312,
      "enti5abet": 3313,
      "a7ki": 3314,
      "wentouma": 3315,
      "lkoll": 3316,
      "telha": 3317,
      "tunisia": 3318,
      "sul": 3319,
      "raison": 3320,
      "iiiw": 3321,
      "yoster": 3322,
      "fawzi": 3323,
      "même": 3324,
      "importe": 3325,
      "3lah": 3326,
      "97ab": 3327,
      "boo": 3328,
      "bjah": 3329,
      "dhh": 3330,
      "i3a": 3331,
      "ifri9i": 3332,
      "jil": 3333,
      "ltawa": 3334,
      "mja": 3335,
      "nssa": 3336,
      "ode": 3337,
      "qa": 3338,
      "ven": 3339,
      "ele": 3340,
      "nal": 3341,
      "nabil": 3342,
      "taba3": 3343,
      "lew": 3344,
      "bidou": 3345,
      "chai": 3346,
      "tic": 3347,
      "tiii": 3348,
      "hichi": 3349,
      "fas": 3350,
      "diya": 3351,
      "tej": 3352,
      "kollou": 3353,
      "houkouma": 3354,
      "komch": 3355,
      "moin": 3356,
      "zam": 3357,
      "3lam": 3358,
      "lui": 3359,
      "citation": 3360,
      "a3mal": 3361,
      "inti5abet": 3362,
      "mnayka": 3363,
      "fo9": 3364,
      "fois": 3365,
      "brcha": 3366,
      "3omrek": 3367,
      "hahahahaha": 3368,
      "galb": 3369,
      "galo": 3370,
      "labess": 3371,
      "7kayet": 3372,
      "janna": 3373,
      "hahahah": 3374,
      "khoya": 3375,
      "snine": 3376,
      "etoile": 3377,
      "3ta": 3378,
      "40": 3379,
      "7ya": 3380,
      "awla": 3381,
      "amena": 3382,
      "bdit": 3383,
      "dy": 3384,
      "mz": 3385,
      "nè": 3386,
      "red": 3387,
      "rja3": 3388,
      "t9ol": 3389,
      "uv": 3390,
      "ure": 3391,
      "y9oulou": 3392,
      "èl": 3393,
      "ém": 3394,
      "éli": 3395,
      "laka": 3396,
      "chet": 3397,
      "lili": 3398,
      "yakhi": 3399,
      "yasser": 3400,
      "bis": 3401,
      "bi3a": 3402,
      "bac": 3403,
      "omok": 3404,
      "tina": 3405,
      "kay": 3406,
      "rig": 3407,
      "fac": 3408,
      "lougha": 3409,
      "9alet": 3410,
      "houd": 3411,
      "cation": 3412,
      "5an": 3413,
      "mennou": 3414,
      "ta3mal": 3415,
      "elik": 3416,
      "wih": 3417,
      "wiya": 3418,
      "hob": 3419,
      "jew": 3420,
      "manech": 3421,
      "bonjour": 3422,
      "uuu": 3423,
      "makch": 3424,
      "sere9": 3425,
      "derby": 3426,
      "behia": 3427,
      "zinek": 3428,
      "tfol": 3429,
      "chnya": 3430,
      "baaarcha": 3431,
      "yarahmou": 3432,
      "frou5": 3433,
      "m3adhebhom": 3434,
      "birthday": 3435,
      "youssef": 3436,
      "23": 3437,
      "25": 3438,
      "70": 3439,
      "7lou": 3440,
      "jla": 3441,
      "m5a": 3442,
      "mche": 3443,
      "sla": 3444,
      "s3ib": 3445,
      "vit": 3446,
      "mali": 3447,
      "lazim": 3448,
      "el3a": 3449,
      "taya7": 3450,
      "le3": 3451,
      "ettounsi": 3452,
      "sa9": 3453,
      "ekom": 3454,
      "chak": 3455,
      "chans": 3456,
      "kah": 3457,
      "kaya": 3458,
      "janoub": 3459,
      "fay": 3460,
      "fahem": 3461,
      "loula": 3462,
      "dimo": 3463,
      "reg": 3464,
      "reya": 3465,
      "ye9": 3466,
      "we9": 3467,
      "yous": 3468,
      "wili": 3469,
      "ghani": 3470,
      "tru": 3471,
      "alikom": 3472,
      "9olou": 3473,
      "this": 3474,
      "wa9teh": 3475,
      "possi": 3476,
      "kilma": 3477,
      "3awra": 3478,
      "yeziw": 3479,
      "montassar": 3480,
      "jboura": 3481,
      "grave": 3482,
      "sliiim": 3483,
      "jme3a": 3484,
      "partie": 3485,
      "5iiir": 3486,
      "champion": 3487,
      "normalement": 3488,
      "mortaz9a": 3489,
      "bc": 3490,
      "bki": 3491,
      "eha": 3492,
      "gr": 3493,
      "hb": 3494,
      "jon": 3495,
      "jma3a": 3496,
      "l5ir": 3497,
      "ned": 3498,
      "vé": 3499,
      "willi": 3500,
      "ymout": 3501,
      "lawled": 3502,
      "elka": 3503,
      "taj": 3504,
      "fini": 3505,
      "fibel": 3506,
      "baad": 3507,
      "batala": 3508,
      "omik": 3509,
      "rie": 3510,
      "m3allam": 3511,
      "9aher": 3512,
      "9arar": 3513,
      "rouha": 3514,
      "mey": 3515,
      "meille": 3516,
      "5atir": 3517,
      "deux": 3518,
      "weya": 3519,
      "thin": 3520,
      "toma": 3521,
      "ta3raf": 3522,
      "ghaleb": 3523,
      "winta": 3524,
      "trah": 3525,
      "9olek": 3526,
      "yahya": 3527,
      "gued": 3528,
      "rasek": 3529,
      "tab3ou": 3530,
      "machalah": 3531,
      "3elna": 3532,
      "o5rej": 3533,
      "abonné": 3534,
      "5idma": 3535,
      "chanson": 3536,
      "18": 3537,
      "5li": 3538,
      "5bar": 3539,
      "7es": 3540,
      "9ed": 3541,
      "bka": 3542,
      "cal": 3543,
      "col": 3544,
      "fha": 3545,
      "lwa": 3546,
      "nya": 3547,
      "ndi": 3548,
      "n7i": 3549,
      "rem": 3550,
      "star": 3551,
      "sbeh": 3552,
      "oumou": 3553,
      "mahom": 3554,
      "maroc": 3555,
      "lal": 3556,
      "ché": 3557,
      "chmata": 3558,
      "leee": 3559,
      "waf": 3560,
      "fiya": 3561,
      "balek": 3562,
      "esse": 3563,
      "rim": 3564,
      "7aw": 3565,
      "moune": 3566,
      "tehel": 3567,
      "rouna": 3568,
      "barsha": 3569,
      "thal": 3570,
      "3amlin": 3571,
      "wa7dou": 3572,
      "yahdik": 3573,
      "7okouma": 3574,
      "parta": 3575,
      "dinya": 3576,
      "mte3kom": 3577,
      "yar7mek": 3578,
      "frança": 3579,
      "zart": 3580,
      "tsawer": 3581,
      "tjibou": 3582,
      "chnoua": 3583,
      "d5el": 3584,
      "nrml": 3585,
      "2el": 3586,
      "5eb": 3587,
      "5dim": 3588,
      "7em": 3589,
      "hlou": 3590,
      "mtou": 3591,
      "mté": 3592,
      "sc": 3593,
      "vis": 3594,
      "el3ar": 3595,
      "nam": 3596,
      "naaa": 3597,
      "nal9a": 3598,
      "bine": 3599,
      "fich": 3600,
      "sama7": 3601,
      "omi": 3602,
      "kik": 3603,
      "kira": 3604,
      "tousel": 3605,
      "houni": 3606,
      "koubi": 3607,
      "mennek": 3608,
      "ne3": 3609,
      "za3": 3610,
      "wewla": 3611,
      "belhi": 3612,
      "rob": 3613,
      "fe9ou": 3614,
      "rajol": 3615,
      "raje3": 3616,
      "je3": 3617,
      "ma3mal": 3618,
      "soum": 3619,
      "tekhdem": 3620,
      "botola": 3621,
      "ghan": 3622,
      "baratli": 3623,
      "lél": 3624,
      "nchallh": 3625,
      "dod": 3626,
      "ya7mi": 3627,
      "hakeka": 3628,
      "tounssi": 3629,
      "sel3a": 3630,
      "tabda": 3631,
      "afrique": 3632,
      "yal3eb": 3633,
      "tla3t": 3634,
      "nemchi": 3635,
      "wakt": 3636,
      "yonsor": 3637,
      "milliard": 3638,
      "a3tina": 3639,
      "kedheb": 3640,
      "mawjoud": 3641,
      "music": 3642,
      "clubistes": 3643,
      "bayouta": 3644,
      "contrat": 3645,
      "3ech": 3646,
      "adh": 3647,
      "bri": 3648,
      "fen": 3649,
      "fol": 3650,
      "hkom": 3651,
      "iched": 3652,
      "kteb": 3653,
      "yti": 3654,
      "çon": 3655,
      "én": 3656,
      "habet": 3657,
      "madam": 3658,
      "lar": 3659,
      "laken": 3660,
      "chbi": 3661,
      "tatla3": 3662,
      "fit": 3663,
      "fine": 3664,
      "bass": 3665,
      "etta": 3666,
      "ekhdem": 3667,
      "rih": 3668,
      "slime": 3669,
      "moush": 3670,
      "bous": 3671,
      "rou7i": 3672,
      "5alik": 3673,
      "bera": 3674,
      "ta3rfou": 3675,
      "andi": 3676,
      "fema": 3677,
      "rajl": 3678,
      "ya3raf": 3679,
      "mabrok": 3680,
      "terba7": 3681,
      "ghadi": 3682,
      "barak": 3683,
      "stro": 3684,
      "mahma": 3685,
      "tanna": 3686,
      "7ob": 3687,
      "raw3a": 3688,
      "bekri": 3689,
      "aleh": 3690,
      "fehmou": 3691,
      "yal3ab": 3692,
      "siyasa": 3693,
      "na9es": 3694,
      "magni": 3695,
      "rwe7kom": 3696,
      "mla3bi": 3697,
      "manoula": 3698,
      "3assba": 3699,
      "dhawedi": 3700,
      "photo": 3701,
      "ya39oubi": 3702,
      "5om": 3703,
      "7om": 3704,
      "7is": 3705,
      "8i": 3706,
      "cour": 3707,
      "eer": 3708,
      "e7na": 3709,
      "fsed": 3710,
      "hâ": 3711,
      "imed": 3712,
      "mza": 3713,
      "ow": 3714,
      "oin": 3715,
      "tkal": 3716,
      "tseb": 3717,
      "uk": 3718,
      "vir": 3719,
      "wch": 3720,
      "wken": 3721,
      "wtf": 3722,
      "yil": 3723,
      "yzid": 3724,
      "ér": 3725,
      "ouma": 3726,
      "ely": 3727,
      "libia": 3728,
      "ba9": 3729,
      "bassa": 3730,
      "esm": 3731,
      "essou": 3732,
      "kali": 3733,
      "kane": 3734,
      "karah": 3735,
      "edha": 3736,
      "7a7": 3737,
      "7acha": 3738,
      "kifach": 3739,
      "m3aya": 3740,
      "slimmm": 3741,
      "9alek": 3742,
      "teha": 3743,
      "thr": 3744,
      "zik": 3745,
      "minek": 3746,
      "founa": 3747,
      "9i9": 3748,
      "alaa": 3749,
      "hemek": 3750,
      "léd": 3751,
      "mta3kom": 3752,
      "9allou": 3753,
      "monde": 3754,
      "mahla": 3755,
      "mte3na": 3756,
      "darja": 3757,
      "tfouuuh": 3758,
      "titrou": 3759,
      "yelzemna": 3760,
      "leeem": 3761,
      "iwaf": 3762,
      "clubistia": 3763,
      "clubistiya": 3764,
      "corona": 3765,
      "9wiya": 3766,
      "romdha": 3767,
      "tarachi": 3768,
      "koora": 3769,
      "docteur": 3770,
      "confiance": 3771,
      "2i": 3772,
      "dma": 3773,
      "dza": 3774,
      "hen": 3775,
      "j3": 3776,
      "lkoul": 3777,
      "mess": 3778,
      "sni": 3779,
      "tkar": 3780,
      "ves": 3781,
      "w7": 3782,
      "yna3": 3783,
      "oua": 3784,
      "mama": 3785,
      "maal": 3786,
      "masou": 3787,
      "lama": 3788,
      "elou": 3789,
      "chbikom": 3790,
      "libi": 3791,
      "tala3": 3792,
      "wassel": 3793,
      "fii": 3794,
      "ba3id": 3795,
      "bayr": 3796,
      "samah": 3797,
      "saker": 3798,
      "saadi": 3799,
      "chakh": 3800,
      "challa": 3801,
      "tii": 3802,
      "tiiit": 3803,
      "kia": 3804,
      "dil": 3805,
      "nique": 3806,
      "tounisi": 3807,
      "mouh": 3808,
      "9adeh": 3809,
      "boura": 3810,
      "kour": 3811,
      "yehi": 3812,
      "caaa": 3813,
      "de9": 3814,
      "tham": 3815,
      "kenou": 3816,
      "ta3ml": 3817,
      "fouch": 3818,
      "seif": 3819,
      "ma3lem": 3820,
      "noum": 3821,
      "choufelna": 3822,
      "enas": 3823,
      "matet": 3824,
      "che5": 3825,
      "lék": 3826,
      "lelna": 3827,
      "inti5a": 3828,
      "netmana": 3829,
      "tanba7": 3830,
      "ma7soub": 3831,
      "kelb": 3832,
      "presed": 3833,
      "mchet": 3834,
      "salsel": 3835,
      "wllh": 3836,
      "god": 3837,
      "mazelt": 3838,
      "djabo": 3839,
      "euro": 3840,
      "guiba": 3841,
      "solta": 3842,
      "etounsi": 3843,
      "nationa": 3844,
      "mnaykin": 3845,
      "asa": 3846,
      "a3az": 3847,
      "bjr": 3848,
      "dè": 3849,
      "jè": 3850,
      "kech": 3851,
      "nhib": 3852,
      "vol": 3853,
      "yf": 3854,
      "yà": 3855,
      "ykhali": 3856,
      "maka": 3857,
      "mayet": 3858,
      "lis": 3859,
      "nadik": 3860,
      "takh": 3861,
      "lefriki": 3862,
      "bari": 3863,
      "ethaw": 3864,
      "tiya": 3865,
      "kana": 3866,
      "kalou": 3867,
      "dabet": 3868,
      "da5al": 3869,
      "cap": 3870,
      "sset": 3871,
      "most": 3872,
      "issi": 3873,
      "we7id": 3874,
      "dham": 3875,
      "dhahra": 3876,
      "lo5": 3877,
      "gan": 3878,
      "gat": 3879,
      "wia": 3880,
      "se7": 3881,
      "ssad": 3882,
      "merc": 3883,
      "alihom": 3884,
      "ta7chi": 3885,
      "mta3na": 3886,
      "kona": 3887,
      "9owa": 3888,
      "yekhdem": 3889,
      "ja3four": 3890,
      "sore9": 3891,
      "sba7": 3892,
      "télé": 3893,
      "nsha": 3894,
      "resul": 3895,
      "final": 3896,
      "kammel": 3897,
      "wow": 3898,
      "taamel": 3899,
      "core": 3900,
      "7asbi": 3901,
      "rou7k": 3902,
      "5dm": 3903,
      "8alya": 3904,
      "choix": 3905,
      "ta7iya": 3906,
      "magnifique": 3907,
      "12": 3908,
      "5s": 3909,
      "7kouma": 3910,
      "ag": 3911,
      "amen": 3912,
      "amel": 3913,
      "ase": 3914,
      "agh": 3915,
      "iwali": 3916,
      "jmhour": 3917,
      "mfa": 3918,
      "mba3ed": 3919,
      "nse": 3920,
      "nedi": 3921,
      "tdha": 3922,
      "tfo": 3923,
      "tbi3": 3924,
      "uf": 3925,
      "wor": 3926,
      "wine": 3927,
      "yir": 3928,
      "yid": 3929,
      "y9ol": 3930,
      "y3inek": 3931,
      "ouna": 3932,
      "tad": 3933,
      "3af": 3934,
      "leg": 3935,
      "fiih": 3936,
      "bayna": 3937,
      "inik": 3938,
      "saye": 3939,
      "ekh": 3940,
      "kadheb": 3941,
      "jaza": 3942,
      "fahmou": 3943,
      "ill": 3944,
      "deya": 3945,
      "aah": 3946,
      "7iwar": 3947,
      "akeka": 3948,
      "3alami": 3949,
      "ahl": 3950,
      "idek": 3951,
      "winchallah": 3952,
      "arja3": 3953,
      "wenchallah": 3954,
      "may7eb": 3955,
      "mahdi": 3956,
      "asba": 3957,
      "asma3": 3958,
      "bén": 3959,
      "n7ebek": 3960,
      "yechri": 3961,
      "tarajit": 3962,
      "yfadh": 3963,
      "tasma3": 3964,
      "sinon": 3965,
      "l9a7ba": 3966,
      "ya3tih": 3967,
      "3a9ba": 3968,
      "ma3adch": 3969,
      "hanikom": 3970,
      "beautif": 3971,
      "n7ebouk": 3972,
      "sliim": 3973,
      "5iiit": 3974,
      "3ayeltou": 3975,
      "7seb": 3976,
      "awal": 3977,
      "eg": 3978,
      "gj": 3979,
      "mh": 3980,
      "mba3d": 3981,
      "nom": 3982,
      "odwa": 3983,
      "slam": 3984,
      "sghar": 3985,
      "use": 3986,
      "uur": 3987,
      "yzi": 3988,
      "yssa": 3989,
      "éna": 3990,
      "oura": 3991,
      "maine": 3992,
      "chk": 3993,
      "chle": 3994,
      "nach": 3995,
      "ta2": 3996,
      "3ani": 3997,
      "leybi": 3998,
      "insha": 3999
    },
    "merges": [
      [
        "o",
        "u"
      ],
      [
        "h",
        "a"
      ],
      [
        "m",
        "a"
      ],
      [
        "r",
        "a"
      ],
      [
        "l",
        "a"
      ],
      [
        "e",
        "l"
      ],
      [
        "c",
        "h"
      ],
      [
        "l",
        "i"
      ],
      [
        "n",
        "a"
      ],
      [
        "y",
        "a"
      ],
      [
        "t",
        "a"
      ],
      [
        "3",
        "a"
      ],
      [
        "e",
        "n"
      ],
      [
        "l",
        "e"
      ],
      [
        "b",
        "i"
      ],
      [
        "w",
        "a"
      ],
      [
        "f",
        "i"
      ],
      [
        "b",
        "a"
      ],
      [
        "i",
        "n"
      ],
      [
        "e",
        "t"
      ],
      [
        "s",
        "a"
      ],
      [
        "o",
        "m"
      ],
      [
        "e",
        "s"
      ],
      [
        "e",
        "k"
      ],
      [
        "e",
        "r"
      ],
      [
        "c",
        "ha"
      ],
      [
        "t",
        "i"
      ],
      [
        "h",
        "i"
      ],
      [
        "k",
        "a"
      ],
      [
        "e",
        "d"
      ],
      [
        "s",
        "i"
      ],
      [
        "r",
        "i"
      ],
      [
        "7",
        "a"
      ],
      [
        "j",
        "a"
      ],
      [
        "f",
        "a"
      ],
      [
        "e",
        "m"
      ],
      [
        "h",
        "h"
      ],
      [
        "e",
        "ch"
      ],
      [
        "k",
        "i"
      ],
      [
        "e",
        "b"
      ],
      [
        "la",
        "h"
      ],
      [
        "o",
        "n"
      ],
      [
        "l",
        "ou"
      ],
      [
        "d",
        "i"
      ],
      [
        "d",
        "a"
      ],
      [
        "n",
        "i"
      ],
      [
        "t",
        "ou"
      ],
      [
        "a",
        "l"
      ],
      [
        "ra",
        "bi"
      ],
      [
        "o",
        "l"
      ],
      [
        "li",
        "m"
      ],
      [
        "m",
        "3a"
      ],
      [
        "s",
        "lim"
      ],
      [
        "i",
        "l"
      ],
      [
        "m",
        "ou"
      ],
      [
        "r",
        "e"
      ],
      [
        "9",
        "a"
      ],
      [
        "h",
        "om"
      ],
      [
        "b",
        "ou"
      ],
      [
        "t",
        "e"
      ],
      [
        "r",
        "ou"
      ],
      [
        "k",
        "ol"
      ],
      [
        "h",
        "ou"
      ],
      [
        "k",
        "ou"
      ],
      [
        "m",
        "i"
      ],
      [
        "y",
        "e"
      ],
      [
        "k",
        "om"
      ],
      [
        "c",
        "a"
      ],
      [
        "b",
        "ra"
      ],
      [
        "v",
        "o"
      ],
      [
        "m",
        "e"
      ],
      [
        "s",
        "s"
      ],
      [
        "m",
        "o"
      ],
      [
        "5",
        "a"
      ],
      [
        "hh",
        "h"
      ],
      [
        "3",
        "i"
      ],
      [
        "m",
        "en"
      ],
      [
        "n",
        "e"
      ],
      [
        "ba",
        "r"
      ],
      [
        "d",
        "e"
      ],
      [
        "bra",
        "vo"
      ],
      [
        "z",
        "a"
      ],
      [
        "i",
        "s"
      ],
      [
        "b",
        "e"
      ],
      [
        "le",
        "m"
      ],
      [
        "o",
        "r"
      ],
      [
        "j",
        "i"
      ],
      [
        "w",
        "e"
      ],
      [
        "t",
        "h"
      ],
      [
        "b",
        "el"
      ],
      [
        "li",
        "k"
      ],
      [
        "a",
        "a"
      ],
      [
        "t",
        "ha"
      ],
      [
        "n",
        "es"
      ],
      [
        "d",
        "ha"
      ],
      [
        "t",
        "o"
      ],
      [
        "m",
        "el"
      ],
      [
        "l",
        "lah"
      ],
      [
        "b",
        "ech"
      ],
      [
        "k",
        "en"
      ],
      [
        "z",
        "i"
      ],
      [
        "r",
        "o"
      ],
      [
        "3",
        "la"
      ],
      [
        "ra",
        "b"
      ],
      [
        "7",
        "i"
      ],
      [
        "w",
        "el"
      ],
      [
        "i",
        "r"
      ],
      [
        "ta",
        "3"
      ],
      [
        "l",
        "o"
      ],
      [
        "d",
        "h"
      ],
      [
        "m3a",
        "k"
      ],
      [
        "d",
        "ou"
      ],
      [
        "p",
        "a"
      ],
      [
        "m",
        "in"
      ],
      [
        "al",
        "lah"
      ],
      [
        "g",
        "a"
      ],
      [
        "ch",
        "i"
      ],
      [
        "l",
        "u"
      ],
      [
        "i",
        "i"
      ],
      [
        "k",
        "h"
      ],
      [
        "s",
        "lou"
      ],
      [
        "j",
        "ou"
      ],
      [
        "el",
        "i"
      ],
      [
        "o",
        "o"
      ],
      [
        "ma",
        "r"
      ],
      [
        "a",
        "n"
      ],
      [
        "f",
        "ou"
      ],
      [
        "f",
        "e"
      ],
      [
        "ja",
        "m"
      ],
      [
        "k",
        "ha"
      ],
      [
        "en",
        "t"
      ],
      [
        "slou",
        "ma"
      ],
      [
        "ra",
        "j"
      ],
      [
        "en",
        "ti"
      ],
      [
        "a",
        "ma"
      ],
      [
        "3",
        "li"
      ],
      [
        "t",
        "u"
      ],
      [
        "q",
        "u"
      ],
      [
        "3a",
        "n"
      ],
      [
        "le",
        "k"
      ],
      [
        "l",
        "la"
      ],
      [
        "y",
        "ou"
      ],
      [
        "w",
        "i"
      ],
      [
        "l",
        "h"
      ],
      [
        "cha",
        "llah"
      ],
      [
        "3",
        "b"
      ],
      [
        "a",
        "k"
      ],
      [
        "kou",
        "n"
      ],
      [
        "h",
        "o"
      ],
      [
        "g",
        "e"
      ],
      [
        "le",
        "d"
      ],
      [
        "c",
        "lu"
      ],
      [
        "s",
        "e"
      ],
      [
        "y",
        "et"
      ],
      [
        "9",
        "i"
      ],
      [
        "j",
        "e"
      ],
      [
        "9",
        "ou"
      ],
      [
        "ya",
        "3"
      ],
      [
        "ma",
        "3"
      ],
      [
        "n",
        "ou"
      ],
      [
        "h",
        "ed"
      ],
      [
        "3a",
        "m"
      ],
      [
        "ya",
        "r"
      ],
      [
        "rab",
        "bi"
      ],
      [
        "u",
        "r"
      ],
      [
        "ma",
        "b"
      ],
      [
        "3a",
        "la"
      ],
      [
        "a",
        "7"
      ],
      [
        "ch",
        "ou"
      ],
      [
        "t",
        "er"
      ],
      [
        "ri",
        "a"
      ],
      [
        "7",
        "eb"
      ],
      [
        "a",
        "h"
      ],
      [
        "ki",
        "f"
      ],
      [
        "fi",
        "l"
      ],
      [
        "s",
        "ou"
      ],
      [
        "fi",
        "h"
      ],
      [
        "d",
        "em"
      ],
      [
        "t",
        "ek"
      ],
      [
        "0",
        "0"
      ],
      [
        "e",
        "na"
      ],
      [
        "f",
        "ri"
      ],
      [
        "le",
        "s"
      ],
      [
        "bar",
        "cha"
      ],
      [
        "ta",
        "wa"
      ],
      [
        "ta",
        "w"
      ],
      [
        "ma",
        "n"
      ],
      [
        "jam",
        "3i"
      ],
      [
        "ma",
        "l"
      ],
      [
        "i",
        "d"
      ],
      [
        "v",
        "e"
      ],
      [
        "i",
        "t"
      ],
      [
        "mab",
        "rou"
      ],
      [
        "z",
        "ou"
      ],
      [
        "tou",
        "nes"
      ],
      [
        "ha",
        "ha"
      ],
      [
        "clu",
        "b"
      ],
      [
        "p",
        "r"
      ],
      [
        "s",
        "sa"
      ],
      [
        "b",
        "o"
      ],
      [
        "g",
        "ha"
      ],
      [
        "c",
        "e"
      ],
      [
        "n",
        "o"
      ],
      [
        "ma",
        "t"
      ],
      [
        "h",
        "e"
      ],
      [
        "di",
        "ma"
      ],
      [
        "k",
        "e"
      ],
      [
        "mabrou",
        "k"
      ],
      [
        "b",
        "er"
      ],
      [
        "ba",
        "ra"
      ],
      [
        "in",
        "e"
      ],
      [
        "f",
        "el"
      ],
      [
        "ni",
        "s"
      ],
      [
        "d",
        "ek"
      ],
      [
        "el",
        "li"
      ],
      [
        "mou",
        "ch"
      ],
      [
        "ta",
        "r"
      ],
      [
        "b",
        "on"
      ],
      [
        "f",
        "lou"
      ],
      [
        "le",
        "b"
      ],
      [
        "wa",
        "7"
      ],
      [
        "w",
        "la"
      ],
      [
        "5",
        "ir"
      ],
      [
        "fa",
        "r"
      ],
      [
        "w",
        "in"
      ],
      [
        "cha",
        "y"
      ],
      [
        "a",
        "na"
      ],
      [
        "b",
        "en"
      ],
      [
        "m",
        "et"
      ],
      [
        "o",
        "k"
      ],
      [
        "t",
        "r"
      ],
      [
        "3a",
        "l"
      ],
      [
        "v",
        "i"
      ],
      [
        "a",
        "r"
      ],
      [
        "3",
        "ou"
      ],
      [
        "ria",
        "hi"
      ],
      [
        "ch",
        "e"
      ],
      [
        "m",
        "er"
      ],
      [
        "3",
        "lik"
      ],
      [
        "a",
        "la"
      ],
      [
        "h",
        "em"
      ],
      [
        "ha",
        "m"
      ],
      [
        "l",
        "é"
      ],
      [
        "y",
        "o"
      ],
      [
        "wa",
        "la"
      ],
      [
        "ka",
        "n"
      ],
      [
        "l",
        "el"
      ],
      [
        "sa",
        "y"
      ],
      [
        "hi",
        "r"
      ],
      [
        "ma",
        "la"
      ],
      [
        "es",
        "s"
      ],
      [
        "n",
        "cha"
      ],
      [
        "m",
        "il"
      ],
      [
        "b",
        "la"
      ],
      [
        "a",
        "li"
      ],
      [
        "ba",
        "3"
      ],
      [
        "ta",
        "7"
      ],
      [
        "c",
        "i"
      ],
      [
        "a",
        "3"
      ],
      [
        "na",
        "3"
      ],
      [
        "d",
        "o"
      ],
      [
        "b",
        "rabi"
      ],
      [
        "m",
        "ta3"
      ],
      [
        "k",
        "o"
      ],
      [
        "h",
        "eb"
      ],
      [
        "f",
        "f"
      ],
      [
        "t",
        "na"
      ],
      [
        "i",
        "li"
      ],
      [
        "t",
        "ra"
      ],
      [
        "w",
        "en"
      ],
      [
        "raj",
        "el"
      ],
      [
        "a",
        "u"
      ],
      [
        "cha",
        "3b"
      ],
      [
        "in",
        "ti"
      ],
      [
        "9",
        "o"
      ],
      [
        "ch",
        "koun"
      ],
      [
        "g",
        "h"
      ],
      [
        "es",
        "t"
      ],
      [
        "y",
        "ek"
      ],
      [
        "b",
        "et"
      ],
      [
        "n",
        "et"
      ],
      [
        "s",
        "t"
      ],
      [
        "7",
        "ou"
      ],
      [
        "ma",
        "y"
      ],
      [
        "m",
        "ech"
      ],
      [
        "fi",
        "k"
      ],
      [
        "le",
        "t"
      ],
      [
        "wa",
        "l"
      ],
      [
        "9",
        "al"
      ],
      [
        "ra",
        "k"
      ],
      [
        "s",
        "si"
      ],
      [
        "l",
        "kol"
      ],
      [
        "la",
        "3"
      ],
      [
        "ha",
        "l"
      ],
      [
        "m",
        "on"
      ],
      [
        "ba",
        "l"
      ],
      [
        "3a",
        "d"
      ],
      [
        "p",
        "e"
      ],
      [
        "flou",
        "s"
      ],
      [
        "ma",
        "s"
      ],
      [
        "ra",
        "n"
      ],
      [
        "z",
        "e"
      ],
      [
        "t",
        "et"
      ],
      [
        "m",
        "n"
      ],
      [
        "b",
        "led"
      ],
      [
        "qu",
        "e"
      ],
      [
        "ha",
        "r"
      ],
      [
        "t",
        "ta"
      ],
      [
        "c",
        "on"
      ],
      [
        "z",
        "em"
      ],
      [
        "ki",
        "ma"
      ],
      [
        "m3a",
        "lem"
      ],
      [
        "h",
        "et"
      ],
      [
        "bi",
        "r"
      ],
      [
        "i",
        "k"
      ],
      [
        "ma",
        "h"
      ],
      [
        "ja",
        "3"
      ],
      [
        "a",
        "m"
      ],
      [
        "li",
        "l"
      ],
      [
        "t",
        "hi"
      ],
      [
        "ta",
        "l"
      ],
      [
        "re",
        "f"
      ],
      [
        "ta",
        "n"
      ],
      [
        "n",
        "challah"
      ],
      [
        "wa",
        "li"
      ],
      [
        "wa",
        "9"
      ],
      [
        "s",
        "o"
      ],
      [
        "y",
        "es"
      ],
      [
        "la",
        "7"
      ],
      [
        "wa",
        "h"
      ],
      [
        "t",
        "t"
      ],
      [
        "j",
        "em"
      ],
      [
        "bi",
        "l"
      ],
      [
        "h",
        "ek"
      ],
      [
        "ha",
        "w"
      ],
      [
        "ha",
        "d"
      ],
      [
        "3",
        "le"
      ],
      [
        "ka",
        "l"
      ],
      [
        "ta",
        "h"
      ],
      [
        "di",
        "k"
      ],
      [
        "a",
        "s"
      ],
      [
        "ti",
        "on"
      ],
      [
        "ya",
        "7"
      ],
      [
        "a7",
        "na"
      ],
      [
        "sa",
        "n"
      ],
      [
        "ou",
        "r"
      ],
      [
        "te",
        "3"
      ],
      [
        "y",
        "i"
      ],
      [
        "e",
        "z"
      ],
      [
        "in",
        "challah"
      ],
      [
        "y",
        "y"
      ],
      [
        "hou",
        "r"
      ],
      [
        "w",
        "lh"
      ],
      [
        "ha",
        "k"
      ],
      [
        "ti",
        "k"
      ],
      [
        "a",
        "b"
      ],
      [
        "m",
        "ek"
      ],
      [
        "3a",
        "r"
      ],
      [
        "jam3i",
        "ya"
      ],
      [
        "7a",
        "ja"
      ],
      [
        "5",
        "dem"
      ],
      [
        "m",
        "3"
      ],
      [
        "o",
        "i"
      ],
      [
        "k",
        "k"
      ],
      [
        "ma",
        "is"
      ],
      [
        "ya",
        "h"
      ],
      [
        "u",
        "u"
      ],
      [
        "ha",
        "ka"
      ],
      [
        "n",
        "ek"
      ],
      [
        "l",
        "l"
      ],
      [
        "a",
        "lah"
      ],
      [
        "na",
        "h"
      ],
      [
        "ma",
        "7"
      ],
      [
        "re",
        "j"
      ],
      [
        "5",
        "i"
      ],
      [
        "k",
        "el"
      ],
      [
        "a",
        "i"
      ],
      [
        "b",
        "es"
      ],
      [
        "chou",
        "f"
      ],
      [
        "k",
        "hir"
      ],
      [
        "t",
        "ech"
      ],
      [
        "tou",
        "n"
      ],
      [
        "fa",
        "ma"
      ],
      [
        "fi",
        "ha"
      ],
      [
        "7",
        "o"
      ],
      [
        "k",
        "la"
      ],
      [
        "s",
        "el"
      ],
      [
        "t",
        "re"
      ],
      [
        "ho",
        "wa"
      ],
      [
        "y",
        "ed"
      ],
      [
        "sa",
        "r"
      ],
      [
        "m",
        "es"
      ],
      [
        "pa",
        "r"
      ],
      [
        "ra",
        "i"
      ],
      [
        "ra",
        "m"
      ],
      [
        "j",
        "el"
      ],
      [
        "s",
        "h"
      ],
      [
        "t",
        "el"
      ],
      [
        "u",
        "n"
      ],
      [
        "ma",
        "k"
      ],
      [
        "7a",
        "9"
      ],
      [
        "s",
        "ta"
      ],
      [
        "pr",
        "es"
      ],
      [
        "m3a",
        "l"
      ],
      [
        "ra",
        "h"
      ],
      [
        "d",
        "in"
      ],
      [
        "bi",
        "k"
      ],
      [
        "m",
        "é"
      ],
      [
        "5a",
        "li"
      ],
      [
        "c",
        "om"
      ],
      [
        "c",
        "ou"
      ],
      [
        "fri",
        "9i"
      ],
      [
        "z",
        "el"
      ],
      [
        "5",
        "al"
      ],
      [
        "p",
        "o"
      ],
      [
        "7a",
        "ta"
      ],
      [
        "cha",
        "3"
      ],
      [
        "e",
        "j"
      ],
      [
        "v",
        "a"
      ],
      [
        "9ou",
        "l"
      ],
      [
        "r",
        "r"
      ],
      [
        "s",
        "ba"
      ],
      [
        "ka",
        "r"
      ],
      [
        "wa",
        "llah"
      ],
      [
        "3li",
        "na"
      ],
      [
        "mo",
        "ch"
      ],
      [
        "g",
        "u"
      ],
      [
        "tu",
        "nis"
      ],
      [
        "il",
        "li"
      ],
      [
        "men",
        "t"
      ],
      [
        "in",
        "cha"
      ],
      [
        "zi",
        "d"
      ],
      [
        "00",
        "0"
      ],
      [
        "ra",
        "w"
      ],
      [
        "3a",
        "y"
      ],
      [
        "d",
        "es"
      ],
      [
        "ch",
        "wa"
      ],
      [
        "k",
        "in"
      ],
      [
        "r",
        "et"
      ],
      [
        "3b",
        "ed"
      ],
      [
        "a",
        "y"
      ],
      [
        "j",
        "o"
      ],
      [
        "3",
        "in"
      ],
      [
        "k",
        "on"
      ],
      [
        "ch",
        "o"
      ],
      [
        "d",
        "hi"
      ],
      [
        "t",
        "in"
      ],
      [
        "j",
        "eb"
      ],
      [
        "f",
        "or"
      ],
      [
        "s",
        "en"
      ],
      [
        "m",
        "r"
      ],
      [
        "tou",
        "nis"
      ],
      [
        "ni",
        "k"
      ],
      [
        "hou",
        "m"
      ],
      [
        "w",
        "er"
      ],
      [
        "d",
        "é"
      ],
      [
        "t",
        "é"
      ],
      [
        "ni",
        "si"
      ],
      [
        "si",
        "d"
      ],
      [
        "jam3i",
        "a"
      ],
      [
        "s",
        "er"
      ],
      [
        "ma",
        "a"
      ],
      [
        "r",
        "ek"
      ],
      [
        "m",
        "ed"
      ],
      [
        "n",
        "n"
      ],
      [
        "mar",
        "zou"
      ],
      [
        "e",
        "f"
      ],
      [
        "en",
        "ta"
      ],
      [
        "mer",
        "ci"
      ],
      [
        "e",
        "ur"
      ],
      [
        "k",
        "lem"
      ],
      [
        "la",
        "m"
      ],
      [
        "m",
        "lou"
      ],
      [
        "bi",
        "en"
      ],
      [
        "ra",
        "na"
      ],
      [
        "da",
        "wla"
      ],
      [
        "b",
        "ek"
      ],
      [
        "y",
        "é"
      ],
      [
        "m",
        "te3"
      ],
      [
        "5",
        "ou"
      ],
      [
        "3li",
        "h"
      ],
      [
        "ma",
        "ra"
      ],
      [
        "9a",
        "d"
      ],
      [
        "yar",
        "7"
      ],
      [
        "b",
        "le"
      ],
      [
        "7a",
        "d"
      ],
      [
        "hou",
        "ma"
      ],
      [
        "5a",
        "ter"
      ],
      [
        "w",
        "il"
      ],
      [
        "i",
        "a"
      ],
      [
        "bi",
        "h"
      ],
      [
        "b",
        "é"
      ],
      [
        "m",
        "m"
      ],
      [
        "5",
        "er"
      ],
      [
        "ch",
        "ed"
      ],
      [
        "wa",
        "lla"
      ],
      [
        "da",
        "r"
      ],
      [
        "h",
        "el"
      ],
      [
        "m",
        "na"
      ],
      [
        "ra",
        "s"
      ],
      [
        "kou",
        "l"
      ],
      [
        "li",
        "a"
      ],
      [
        "ra",
        "ji"
      ],
      [
        "3",
        "ed"
      ],
      [
        "bi",
        "n"
      ],
      [
        "tu",
        "nisi"
      ],
      [
        "m",
        "ch"
      ],
      [
        "f",
        "o"
      ],
      [
        "j",
        "om"
      ],
      [
        "p",
        "our"
      ],
      [
        "7",
        "ek"
      ],
      [
        "9",
        "ol"
      ],
      [
        "l",
        "ha"
      ],
      [
        "t",
        "es"
      ],
      [
        "y",
        "el"
      ],
      [
        "kou",
        "m"
      ],
      [
        "w",
        "et"
      ],
      [
        "sa",
        "ra"
      ],
      [
        "a",
        "le"
      ],
      [
        "a",
        "ch"
      ],
      [
        "ji",
        "b"
      ],
      [
        "pres",
        "id"
      ],
      [
        "y",
        "na"
      ],
      [
        "ta",
        "7a"
      ],
      [
        "wa",
        "r"
      ],
      [
        "y",
        "eb"
      ],
      [
        "bel",
        "le"
      ],
      [
        "jam",
        "3"
      ],
      [
        "pa",
        "s"
      ],
      [
        "l",
        "na"
      ],
      [
        "hed",
        "ha"
      ],
      [
        "n",
        "7eb"
      ],
      [
        "p",
        "ro"
      ],
      [
        "n",
        "é"
      ],
      [
        "bar",
        "ra"
      ],
      [
        "ha",
        "ja"
      ],
      [
        "ma",
        "3a"
      ],
      [
        "3i",
        "d"
      ],
      [
        "n",
        "in"
      ],
      [
        "bravo",
        "oo"
      ],
      [
        "fe",
        "h"
      ],
      [
        "s",
        "eb"
      ],
      [
        "j",
        "et"
      ],
      [
        "y",
        "er"
      ],
      [
        "sa",
        "mi"
      ],
      [
        "5",
        "ra"
      ],
      [
        "a",
        "d"
      ],
      [
        "b",
        "na"
      ],
      [
        "i",
        "m"
      ],
      [
        "ta",
        "b"
      ],
      [
        "e",
        "e"
      ],
      [
        "ma",
        "na"
      ],
      [
        "wa",
        "lah"
      ],
      [
        "presid",
        "ent"
      ],
      [
        "y",
        "en"
      ],
      [
        "ya",
        "ra"
      ],
      [
        "ki",
        "l"
      ],
      [
        "ra",
        "2"
      ],
      [
        "ed",
        "a"
      ],
      [
        "ra",
        "f"
      ],
      [
        "s",
        "te"
      ],
      [
        "hou",
        "wa"
      ],
      [
        "l",
        "k"
      ],
      [
        "3a",
        "w"
      ],
      [
        "i",
        "la"
      ],
      [
        "2",
        "0"
      ],
      [
        "ma",
        "w"
      ],
      [
        "ma",
        "ak"
      ],
      [
        "i",
        "re"
      ],
      [
        "v",
        "ou"
      ],
      [
        "j",
        "di"
      ],
      [
        "sa",
        "h"
      ],
      [
        "m",
        "l"
      ],
      [
        "3an",
        "d"
      ],
      [
        "i",
        "na"
      ],
      [
        "w",
        "enti"
      ],
      [
        "sa",
        "l"
      ],
      [
        "w",
        "l"
      ],
      [
        "li",
        "ya"
      ],
      [
        "ha",
        "ta"
      ],
      [
        "hi",
        "ya"
      ],
      [
        "toun",
        "si"
      ],
      [
        "ha",
        "b"
      ],
      [
        "ma",
        "lla"
      ],
      [
        "ba",
        "d"
      ],
      [
        "qu",
        "i"
      ],
      [
        "h",
        "m"
      ],
      [
        "ncha",
        "lah"
      ],
      [
        "w",
        "led"
      ],
      [
        "t",
        "wa"
      ],
      [
        "s",
        "7i"
      ],
      [
        "ye",
        "h"
      ],
      [
        "1",
        "000"
      ],
      [
        "ou",
        "i"
      ],
      [
        "7a",
        "m"
      ],
      [
        "f",
        "er"
      ],
      [
        "sa",
        "7a"
      ],
      [
        "bon",
        "ne"
      ],
      [
        "k",
        "et"
      ],
      [
        "3",
        "mal"
      ],
      [
        "n",
        "ch"
      ],
      [
        "y",
        "ech"
      ],
      [
        "y",
        "em"
      ],
      [
        "g",
        "o"
      ],
      [
        "nes",
        "s"
      ],
      [
        "li",
        "n"
      ],
      [
        "mo",
        "r"
      ],
      [
        "u",
        "t"
      ],
      [
        "n",
        "har"
      ],
      [
        "s",
        "u"
      ],
      [
        "3a",
        "b"
      ],
      [
        "ah",
        "na"
      ],
      [
        "h",
        "er"
      ],
      [
        "t",
        "fa"
      ],
      [
        "we",
        "7"
      ],
      [
        "m3al",
        "lem"
      ],
      [
        "v",
        "rai"
      ],
      [
        "vi",
        "ve"
      ],
      [
        "ra",
        "hou"
      ],
      [
        "tr",
        "on"
      ],
      [
        "f",
        "hem"
      ],
      [
        "n",
        "s"
      ],
      [
        "r",
        "es"
      ],
      [
        "di",
        "t"
      ],
      [
        "h",
        "mou"
      ],
      [
        "la",
        "hi"
      ],
      [
        "ba",
        "ch"
      ],
      [
        "t",
        "7"
      ],
      [
        "ra",
        "is"
      ],
      [
        "t",
        "7eb"
      ],
      [
        "9",
        "bal"
      ],
      [
        "ti",
        "r"
      ],
      [
        "th",
        "er"
      ],
      [
        "pa",
        "tron"
      ],
      [
        "e",
        "ya"
      ],
      [
        "f",
        "r"
      ],
      [
        "e",
        "y"
      ],
      [
        "hi",
        "m"
      ],
      [
        "b",
        "y"
      ],
      [
        "oo",
        "o"
      ],
      [
        "s",
        "ur"
      ],
      [
        "d",
        "on"
      ],
      [
        "w",
        "ra"
      ],
      [
        "ba3",
        "d"
      ],
      [
        "b",
        "bi"
      ],
      [
        "3",
        "o"
      ],
      [
        "y",
        "wa"
      ],
      [
        "clu",
        "bi"
      ],
      [
        "3",
        "ma"
      ],
      [
        "t",
        "en"
      ],
      [
        "b",
        "r"
      ],
      [
        "b",
        "ch"
      ],
      [
        "na",
        "s"
      ],
      [
        "n",
        "t"
      ],
      [
        "f",
        "ran"
      ],
      [
        "p",
        "i"
      ],
      [
        "ta",
        "raji"
      ],
      [
        "m",
        "s"
      ],
      [
        "z",
        "eb"
      ],
      [
        "da",
        "m"
      ],
      [
        "ye",
        "zi"
      ],
      [
        "lo",
        "t"
      ],
      [
        "7a",
        "l"
      ],
      [
        "vou",
        "s"
      ],
      [
        "a",
        "t"
      ],
      [
        "a",
        "fri"
      ],
      [
        "sa",
        "7"
      ],
      [
        "jom",
        "hour"
      ],
      [
        "sa",
        "ha"
      ],
      [
        "ya",
        "l"
      ],
      [
        "fi",
        "n"
      ],
      [
        "wel",
        "d"
      ],
      [
        "le",
        "h"
      ],
      [
        "si",
        "r"
      ],
      [
        "kou",
        "ra"
      ],
      [
        "d",
        "er"
      ],
      [
        "ra",
        "hi"
      ],
      [
        "ha",
        "da"
      ],
      [
        "ta",
        "k"
      ],
      [
        "t",
        "fou"
      ],
      [
        "pr",
        "é"
      ],
      [
        "ma",
        "cha"
      ],
      [
        "tou",
        "ma"
      ],
      [
        "k",
        "em"
      ],
      [
        "ha",
        "y"
      ],
      [
        "ra",
        "9"
      ],
      [
        "on",
        "s"
      ],
      [
        "3",
        "om"
      ],
      [
        "na",
        "f"
      ],
      [
        "ff",
        "f"
      ],
      [
        "chwa",
        "ya"
      ],
      [
        "3an",
        "dou"
      ],
      [
        "y",
        "fa"
      ],
      [
        "li",
        "na"
      ],
      [
        "a",
        "9"
      ],
      [
        "m3a",
        "na"
      ],
      [
        "hed",
        "hi"
      ],
      [
        "we",
        "la"
      ],
      [
        "cha3",
        "eb"
      ],
      [
        "e",
        "hi"
      ],
      [
        "you",
        "m"
      ],
      [
        "7",
        "na"
      ],
      [
        "g",
        "ou"
      ],
      [
        "y",
        "ji"
      ],
      [
        "ha",
        "n"
      ],
      [
        "be",
        "hi"
      ],
      [
        "d",
        "en"
      ],
      [
        "ma",
        "zel"
      ],
      [
        "da",
        "5"
      ],
      [
        "ma",
        "ch"
      ],
      [
        "7a",
        "tta"
      ],
      [
        "bi",
        "ra"
      ],
      [
        "za",
        "r"
      ],
      [
        "t",
        "eb"
      ],
      [
        "ra",
        "ge"
      ],
      [
        "k",
        "bir"
      ],
      [
        "z",
        "z"
      ],
      [
        "haha",
        "haha"
      ],
      [
        "j",
        "u"
      ],
      [
        "bou",
        "r"
      ],
      [
        "th",
        "eb"
      ],
      [
        "marzou",
        "ki"
      ],
      [
        "en",
        "cha"
      ],
      [
        "fe",
        "ha"
      ],
      [
        "v",
        "er"
      ],
      [
        "ta",
        "s"
      ],
      [
        "di",
        "na"
      ],
      [
        "3i",
        "b"
      ],
      [
        "n",
        "heb"
      ],
      [
        "ai",
        "me"
      ],
      [
        "7",
        "ba"
      ],
      [
        "i",
        "b"
      ],
      [
        "l",
        "m"
      ],
      [
        "fri",
        "ki"
      ],
      [
        "jou",
        "eur"
      ],
      [
        "say",
        "eb"
      ],
      [
        "wa7",
        "ed"
      ],
      [
        "lik",
        "e"
      ],
      [
        "ga",
        "ge"
      ],
      [
        "t",
        "sa"
      ],
      [
        "bou",
        "k"
      ],
      [
        "d",
        "u"
      ],
      [
        "b",
        "l"
      ],
      [
        "k",
        "er"
      ],
      [
        "n",
        "or"
      ],
      [
        "p",
        "u"
      ],
      [
        "bi",
        "a"
      ],
      [
        "bi",
        "ya"
      ],
      [
        "pa",
        "ge"
      ],
      [
        "e",
        "h"
      ],
      [
        "ba",
        "7"
      ],
      [
        "y",
        "r"
      ],
      [
        "ra",
        "t"
      ],
      [
        "b",
        "eb"
      ],
      [
        "h",
        "é"
      ],
      [
        "l",
        "y"
      ],
      [
        "t",
        "em"
      ],
      [
        "y",
        "7eb"
      ],
      [
        "li",
        "b"
      ],
      [
        "p",
        "or"
      ],
      [
        "ta7",
        "ki"
      ],
      [
        "r",
        "ya"
      ],
      [
        "fa",
        "ra"
      ],
      [
        "re",
        "9"
      ],
      [
        "fi",
        "na"
      ],
      [
        "r",
        "jel"
      ],
      [
        "ha",
        "dha"
      ],
      [
        "ka",
        "m"
      ],
      [
        "ss",
        "e"
      ],
      [
        "s7i",
        "7"
      ],
      [
        "ta3",
        "mel"
      ],
      [
        "5",
        "ed"
      ],
      [
        "w",
        "w"
      ],
      [
        "el",
        "kol"
      ],
      [
        "ba",
        "h"
      ],
      [
        "p",
        "lu"
      ],
      [
        "s",
        "on"
      ],
      [
        "w",
        "o"
      ],
      [
        "a7",
        "la"
      ],
      [
        "sid",
        "ent"
      ],
      [
        "bar",
        "ka"
      ],
      [
        "v",
        "p"
      ],
      [
        "n",
        "sa"
      ],
      [
        "t",
        "la3"
      ],
      [
        "u",
        "l"
      ],
      [
        "z",
        "eda"
      ],
      [
        "a",
        "ve"
      ],
      [
        "ed",
        "i"
      ],
      [
        "w",
        "é"
      ],
      [
        "b",
        "3a"
      ],
      [
        "a",
        "ya"
      ],
      [
        "k",
        "hi"
      ],
      [
        "wel",
        "i"
      ],
      [
        "ke",
        "ya"
      ],
      [
        "g",
        "al"
      ],
      [
        "le",
        "r"
      ],
      [
        "be",
        "h"
      ],
      [
        "bo",
        "ss"
      ],
      [
        "g",
        "er"
      ],
      [
        "p",
        "er"
      ],
      [
        "t",
        "3a"
      ],
      [
        "fi",
        "9"
      ],
      [
        "tunisi",
        "e"
      ],
      [
        "a",
        "lik"
      ],
      [
        "t",
        "ji"
      ],
      [
        "y",
        "ka"
      ],
      [
        "in",
        "ta"
      ],
      [
        "kif",
        "ech"
      ],
      [
        "a",
        "f"
      ],
      [
        "n",
        "em"
      ],
      [
        "cha",
        "r"
      ],
      [
        "ii",
        "i"
      ],
      [
        "da",
        "n"
      ],
      [
        "chou",
        "fou"
      ],
      [
        "ze",
        "bi"
      ],
      [
        "a",
        "ka"
      ],
      [
        "hi",
        "a"
      ],
      [
        "afri",
        "ca"
      ],
      [
        "s",
        "vp"
      ],
      [
        "ta",
        "a"
      ],
      [
        "ja",
        "h"
      ],
      [
        "g",
        "i"
      ],
      [
        "r",
        "é"
      ],
      [
        "t",
        "ro"
      ],
      [
        "ri",
        "t"
      ],
      [
        "th",
        "e"
      ],
      [
        "3le",
        "ch"
      ],
      [
        "f",
        "l"
      ],
      [
        "r",
        "eb"
      ],
      [
        "b",
        "b"
      ],
      [
        "z",
        "in"
      ],
      [
        "m",
        "ma"
      ],
      [
        "t",
        "ka"
      ],
      [
        "fi",
        "hom"
      ],
      [
        "la",
        "zem"
      ],
      [
        "ra",
        "ni"
      ],
      [
        "li",
        "h"
      ],
      [
        "kou",
        "ma"
      ],
      [
        "ak",
        "ber"
      ],
      [
        "pré",
        "sident"
      ],
      [
        "het",
        "ha"
      ],
      [
        "3a",
        "k"
      ],
      [
        "an",
        "t"
      ],
      [
        "d",
        "ja"
      ],
      [
        "y",
        "sa"
      ],
      [
        "ma",
        "hou"
      ],
      [
        "ri",
        "ya"
      ],
      [
        "bra",
        "bbi"
      ],
      [
        "c",
        "o"
      ],
      [
        "u",
        "x"
      ],
      [
        "7a",
        "b"
      ],
      [
        "7a",
        "s"
      ],
      [
        "b",
        "li"
      ],
      [
        "e",
        "3"
      ],
      [
        "e",
        "ma"
      ],
      [
        "t",
        "y"
      ],
      [
        "ha",
        "na"
      ],
      [
        "ra",
        "y"
      ],
      [
        "vrai",
        "ment"
      ],
      [
        "f",
        "et"
      ],
      [
        "f",
        "ech"
      ],
      [
        "k",
        "hou"
      ],
      [
        "ra2",
        "is"
      ],
      [
        "m",
        "ha"
      ],
      [
        "u",
        "ne"
      ],
      [
        "ya",
        "a"
      ],
      [
        "ga",
        "r"
      ],
      [
        "si",
        "ya"
      ],
      [
        "3an",
        "di"
      ],
      [
        "ja",
        "w"
      ],
      [
        "ss",
        "em"
      ],
      [
        "plu",
        "s"
      ],
      [
        "ma",
        "j"
      ],
      [
        "kol",
        "na"
      ],
      [
        "s",
        "in"
      ],
      [
        "bi",
        "na"
      ],
      [
        "b",
        "ro"
      ],
      [
        "r",
        "fou"
      ],
      [
        "a",
        "min"
      ],
      [
        "b",
        "u"
      ],
      [
        "bi",
        "ha"
      ],
      [
        "we",
        "j"
      ],
      [
        "m",
        "u"
      ],
      [
        "t",
        "koun"
      ],
      [
        "cha",
        "n"
      ],
      [
        "9a",
        "3"
      ],
      [
        "cou",
        "rage"
      ],
      [
        "i",
        "h"
      ],
      [
        "m",
        "t"
      ],
      [
        "ri",
        "k"
      ],
      [
        "tou",
        "r"
      ],
      [
        "ave",
        "c"
      ],
      [
        "e",
        "7"
      ],
      [
        "j",
        "en"
      ],
      [
        "k",
        "bira"
      ],
      [
        "u",
        "p"
      ],
      [
        "ma",
        "ge"
      ],
      [
        "ta",
        "9"
      ],
      [
        "ek",
        "a"
      ],
      [
        "mi",
        "k"
      ],
      [
        "k",
        "é"
      ],
      [
        "bi",
        "t"
      ],
      [
        "ed",
        "h"
      ],
      [
        "tou",
        "la"
      ],
      [
        "m3a",
        "h"
      ],
      [
        "mou",
        "t"
      ],
      [
        "ç",
        "a"
      ],
      [
        "na",
        "9"
      ],
      [
        "3a",
        "sba"
      ],
      [
        "m",
        "ka"
      ],
      [
        "jou",
        "r"
      ],
      [
        "leb",
        "led"
      ],
      [
        "belle",
        "hi"
      ],
      [
        "m",
        "sa"
      ],
      [
        "africa",
        "in"
      ],
      [
        "a",
        "5"
      ],
      [
        "tou",
        "t"
      ],
      [
        "ak",
        "ther"
      ],
      [
        "ya3",
        "mel"
      ],
      [
        "don",
        "c"
      ],
      [
        "e",
        "la"
      ],
      [
        "é",
        "l"
      ],
      [
        "ma",
        "ni"
      ],
      [
        "ch",
        "no"
      ],
      [
        "to",
        "i"
      ],
      [
        "a",
        "wel"
      ],
      [
        "ba",
        "n"
      ],
      [
        "d",
        "hou"
      ],
      [
        "ta",
        "ri"
      ],
      [
        "bel",
        "ehi"
      ],
      [
        "f",
        "la"
      ],
      [
        "l",
        "9a"
      ],
      [
        "ha",
        "tha"
      ],
      [
        "8",
        "a"
      ],
      [
        "ti",
        "t"
      ],
      [
        "ja",
        "l"
      ],
      [
        "ba3",
        "ed"
      ],
      [
        "me",
        "la"
      ],
      [
        "sa",
        "m"
      ],
      [
        "mar",
        "bou"
      ],
      [
        "wa9",
        "t"
      ],
      [
        "f",
        "ek"
      ],
      [
        "r",
        "in"
      ],
      [
        "s",
        "nin"
      ],
      [
        "la",
        "k"
      ],
      [
        "ya",
        "b"
      ],
      [
        "1",
        "0"
      ],
      [
        "f",
        "9"
      ],
      [
        "3a",
        "di"
      ],
      [
        "fi",
        "kom"
      ],
      [
        "ri",
        "b"
      ],
      [
        "ye",
        "7"
      ],
      [
        "lo",
        "o"
      ],
      [
        "ya3",
        "ti"
      ],
      [
        "t",
        "s"
      ],
      [
        "jdi",
        "d"
      ],
      [
        "me",
        "j"
      ],
      [
        "3li",
        "kom"
      ],
      [
        "3an",
        "dek"
      ],
      [
        "s",
        "ti"
      ],
      [
        "le",
        "fri9i"
      ],
      [
        "fa",
        "9"
      ],
      [
        "ni",
        "ya"
      ],
      [
        "i",
        "f"
      ],
      [
        "la",
        "b"
      ],
      [
        "7a",
        "y"
      ],
      [
        "y",
        "ma"
      ],
      [
        "ja",
        "b"
      ],
      [
        "ki",
        "r"
      ],
      [
        "rou",
        "7ek"
      ],
      [
        "3",
        "el"
      ],
      [
        "m",
        "hour"
      ],
      [
        "3a",
        "9"
      ],
      [
        "te",
        "7"
      ],
      [
        "3i",
        "ch"
      ],
      [
        "kla",
        "y"
      ],
      [
        "ni",
        "a"
      ],
      [
        "al",
        "f"
      ],
      [
        "kha",
        "li"
      ],
      [
        "ncha",
        "lla"
      ],
      [
        "bla",
        "d"
      ],
      [
        "i",
        "ch"
      ],
      [
        "het",
        "hi"
      ],
      [
        "ent",
        "y"
      ],
      [
        "nah",
        "dha"
      ],
      [
        "kin",
        "g"
      ],
      [
        "m",
        "chi"
      ],
      [
        "t",
        "f"
      ],
      [
        "3li",
        "hom"
      ],
      [
        "3",
        "et"
      ],
      [
        "9a",
        "lou"
      ],
      [
        "y",
        "h"
      ],
      [
        "far",
        "5"
      ],
      [
        "3",
        "eb"
      ],
      [
        "m",
        "em"
      ],
      [
        "w",
        "ou"
      ],
      [
        "d",
        "et"
      ],
      [
        "s",
        "hi"
      ],
      [
        "ra",
        "p"
      ],
      [
        "di",
        "m"
      ],
      [
        "bou",
        "n"
      ],
      [
        "je",
        "h"
      ],
      [
        "b",
        "or"
      ],
      [
        "kha",
        "l"
      ],
      [
        "ras",
        "mi"
      ],
      [
        "b",
        "n"
      ],
      [
        "em",
        "ent"
      ],
      [
        "bravo",
        "bravo"
      ],
      [
        "kal",
        "b"
      ],
      [
        "a",
        "tta"
      ],
      [
        "g",
        "hir"
      ],
      [
        "te",
        "h"
      ],
      [
        "ma",
        "3ad"
      ],
      [
        "ta",
        "na"
      ],
      [
        "fa",
        "ch"
      ],
      [
        "lo",
        "ve"
      ],
      [
        "incha",
        "lah"
      ],
      [
        "c",
        "t"
      ],
      [
        "n",
        "ech"
      ],
      [
        "7i",
        "t"
      ],
      [
        "yel",
        "zem"
      ],
      [
        "ba",
        "ba"
      ],
      [
        "di",
        "s"
      ],
      [
        "h",
        "ba"
      ],
      [
        "mo",
        "s"
      ],
      [
        "d",
        "d"
      ],
      [
        "e",
        "5dem"
      ],
      [
        "t",
        "k"
      ],
      [
        "s",
        "ha"
      ],
      [
        "en",
        "i"
      ],
      [
        "bou",
        "toula"
      ],
      [
        "ne",
        "ya"
      ],
      [
        "ale",
        "x"
      ],
      [
        "t",
        "on"
      ],
      [
        "zou",
        "z"
      ],
      [
        "ra",
        "7"
      ],
      [
        "bou",
        "b"
      ],
      [
        "an",
        "s"
      ],
      [
        "tin",
        "u"
      ],
      [
        "3",
        "l"
      ],
      [
        "5",
        "o"
      ],
      [
        "n",
        "si"
      ],
      [
        "li",
        "t"
      ],
      [
        "na",
        "k"
      ],
      [
        "3a",
        "da"
      ],
      [
        "om",
        "ek"
      ],
      [
        "con",
        "tinu"
      ],
      [
        "nch",
        "lh"
      ],
      [
        "5ed",
        "ma"
      ],
      [
        "m",
        "ra"
      ],
      [
        "t",
        "5a"
      ],
      [
        "el",
        "le"
      ],
      [
        "ss",
        "ou"
      ],
      [
        "ma",
        "z"
      ],
      [
        "bi",
        "g"
      ],
      [
        "fou",
        "r"
      ],
      [
        "n",
        "on"
      ],
      [
        "yo",
        "s"
      ],
      [
        "lot",
        "fi"
      ],
      [
        "t",
        "9oul"
      ],
      [
        "li",
        "p"
      ],
      [
        "le",
        "zem"
      ],
      [
        "rou",
        "7"
      ],
      [
        "ja",
        "mi"
      ],
      [
        "an",
        "d"
      ],
      [
        "a9",
        "wa"
      ],
      [
        "p",
        "la"
      ],
      [
        "z",
        "zi"
      ],
      [
        "to",
        "p"
      ],
      [
        "dh",
        "eb"
      ],
      [
        "chno",
        "wa"
      ],
      [
        "en",
        "na"
      ],
      [
        "be",
        "7"
      ],
      [
        "ha",
        "s"
      ],
      [
        "e",
        "x"
      ],
      [
        "t",
        "v"
      ],
      [
        "7i",
        "b"
      ],
      [
        "he",
        "z"
      ],
      [
        "ya7",
        "ki"
      ],
      [
        "ka",
        "mel"
      ],
      [
        "kol",
        "l"
      ],
      [
        "ya3",
        "tik"
      ],
      [
        "ncha",
        "la"
      ],
      [
        "t",
        "hom"
      ],
      [
        "ra",
        "ja3"
      ],
      [
        "9a",
        "7ba"
      ],
      [
        "bou",
        "h"
      ],
      [
        "9ou",
        "lou"
      ],
      [
        "o",
        "5"
      ],
      [
        "o",
        "5ra"
      ],
      [
        "wala",
        "hi"
      ],
      [
        "ce",
        "f"
      ],
      [
        "a",
        "w"
      ],
      [
        "y",
        "s"
      ],
      [
        "y",
        "in"
      ],
      [
        "bou",
        "na"
      ],
      [
        "ye",
        "5i"
      ],
      [
        "2",
        "a"
      ],
      [
        "d",
        "r"
      ],
      [
        "di",
        "r"
      ],
      [
        "yar7",
        "mou"
      ],
      [
        "e",
        "u"
      ],
      [
        "la",
        "3bed"
      ],
      [
        "te",
        "f"
      ],
      [
        "aa",
        "a"
      ],
      [
        "y",
        "k"
      ],
      [
        "y",
        "koun"
      ],
      [
        "m",
        "ri"
      ],
      [
        "le",
        "ha"
      ],
      [
        "win",
        "ti"
      ],
      [
        "s",
        "ed"
      ],
      [
        "rab",
        "y"
      ],
      [
        "mon",
        "cef"
      ],
      [
        "ta7a",
        "na"
      ],
      [
        "b",
        "1"
      ],
      [
        "b",
        "sara"
      ],
      [
        "d",
        "eb"
      ],
      [
        "h",
        "on"
      ],
      [
        "o",
        "f"
      ],
      [
        "na",
        "r"
      ],
      [
        "ba",
        "t"
      ],
      [
        "chi",
        "boub"
      ],
      [
        "d",
        "el"
      ],
      [
        "l",
        "club"
      ],
      [
        "è",
        "s"
      ],
      [
        "la",
        "w"
      ],
      [
        "mon",
        "ta"
      ],
      [
        "hak",
        "ka"
      ],
      [
        "ha",
        "ni"
      ],
      [
        "ah",
        "la"
      ],
      [
        "qui",
        "pe"
      ],
      [
        "5",
        "d"
      ],
      [
        "fa",
        "mma"
      ],
      [
        "ye",
        "f"
      ],
      [
        "i",
        "7"
      ],
      [
        "ba",
        "s"
      ],
      [
        "de",
        "gage"
      ],
      [
        "j",
        "bou"
      ],
      [
        "k",
        "or"
      ],
      [
        "sa",
        "d"
      ],
      [
        "7a",
        "r"
      ],
      [
        "jou",
        "mhour"
      ],
      [
        "kha",
        "ter"
      ],
      [
        "i",
        "da"
      ],
      [
        "p",
        "p"
      ],
      [
        "ch",
        "em"
      ],
      [
        "flou",
        "ss"
      ],
      [
        "we7",
        "ed"
      ],
      [
        "na",
        "yek"
      ],
      [
        "3a",
        "na"
      ],
      [
        "tfou",
        "h"
      ],
      [
        "f",
        "es"
      ],
      [
        "tou",
        "s"
      ],
      [
        "ak",
        "bar"
      ],
      [
        "for",
        "za"
      ],
      [
        "jam3",
        "ya"
      ],
      [
        "b",
        "ha"
      ],
      [
        "m",
        "la"
      ],
      [
        "p",
        "fff"
      ],
      [
        "me",
        "h"
      ],
      [
        "mat",
        "ch"
      ],
      [
        "ma",
        "sa"
      ],
      [
        "le",
        "hi"
      ],
      [
        "be",
        "au"
      ],
      [
        "ya",
        "s"
      ],
      [
        "ta",
        "yara"
      ],
      [
        "tha",
        "r"
      ],
      [
        "hek",
        "a"
      ],
      [
        "j",
        "r"
      ],
      [
        "k",
        "leb"
      ],
      [
        "ya",
        "n"
      ],
      [
        "ta",
        "la"
      ],
      [
        "ta3",
        "ref"
      ],
      [
        "kif",
        "ek"
      ],
      [
        "ta7a",
        "n"
      ],
      [
        "jam3",
        "eya"
      ],
      [
        "a",
        "tion"
      ],
      [
        "ch",
        "ô"
      ],
      [
        "ti",
        "f"
      ],
      [
        "me",
        "z"
      ],
      [
        "a",
        "id"
      ],
      [
        "h",
        "or"
      ],
      [
        "ha",
        "di"
      ],
      [
        "en",
        "challah"
      ],
      [
        "je",
        "y"
      ],
      [
        "kon",
        "t"
      ],
      [
        "loo",
        "ol"
      ],
      [
        "7",
        "ka"
      ],
      [
        "wa",
        "ta"
      ],
      [
        "g",
        "ran"
      ],
      [
        "y",
        "ess"
      ],
      [
        "ya",
        "k"
      ],
      [
        "ja",
        "n"
      ],
      [
        "chô",
        "mage"
      ],
      [
        "b",
        "ed"
      ],
      [
        "o",
        "kh"
      ],
      [
        "t",
        "ch"
      ],
      [
        "ma",
        "ri"
      ],
      [
        "en",
        "d"
      ],
      [
        "si",
        "on"
      ],
      [
        "yar",
        "hmou"
      ],
      [
        "cho",
        "f"
      ],
      [
        "j",
        "é"
      ],
      [
        "y",
        "7"
      ],
      [
        "y",
        "n"
      ],
      [
        "y",
        "t"
      ],
      [
        "y",
        "5a"
      ],
      [
        "in",
        "g"
      ],
      [
        "ki",
        "na"
      ],
      [
        "fe",
        "9"
      ],
      [
        "raj",
        "il"
      ],
      [
        "san",
        "fara"
      ],
      [
        "c",
        "lip"
      ],
      [
        "r",
        "ye"
      ],
      [
        "ta",
        "t"
      ],
      [
        "wen",
        "sa"
      ],
      [
        "nor",
        "mal"
      ],
      [
        "e",
        "cha3b"
      ],
      [
        "n",
        "7"
      ],
      [
        "y",
        "ya"
      ],
      [
        "z",
        "o"
      ],
      [
        "la",
        "bes"
      ],
      [
        "ca",
        "r"
      ],
      [
        "e",
        "p"
      ],
      [
        "i",
        "fa"
      ],
      [
        "z",
        "ok"
      ],
      [
        "3a",
        "t"
      ],
      [
        "9a",
        "t"
      ],
      [
        "ne",
        "ha"
      ],
      [
        "7i",
        "d"
      ],
      [
        "m",
        "te"
      ],
      [
        "rou",
        "hek"
      ],
      [
        "mi",
        "ch"
      ],
      [
        "mar",
        "ra"
      ],
      [
        "tah",
        "ki"
      ],
      [
        "bi",
        "3"
      ],
      [
        "za",
        "3ma"
      ],
      [
        "we",
        "h"
      ],
      [
        "gu",
        "i"
      ],
      [
        "7",
        "ram"
      ],
      [
        "s",
        "or"
      ],
      [
        "ma",
        "th"
      ],
      [
        "to",
        "9"
      ],
      [
        "c",
        "k"
      ],
      [
        "g",
        "hi"
      ],
      [
        "i",
        "ji"
      ],
      [
        "s",
        "em"
      ],
      [
        "t",
        "or"
      ],
      [
        "si",
        "l"
      ],
      [
        "bar",
        "na"
      ],
      [
        "m3",
        "ek"
      ],
      [
        "n",
        "ta"
      ],
      [
        "o",
        "na"
      ],
      [
        "p",
        "le"
      ],
      [
        "a7",
        "sen"
      ],
      [
        "a",
        "v"
      ],
      [
        "h",
        "y"
      ],
      [
        "p",
        "ri"
      ],
      [
        "t",
        "ni"
      ],
      [
        "na",
        "7"
      ],
      [
        "wa",
        "k"
      ],
      [
        "ne",
        "9"
      ],
      [
        "gha",
        "l"
      ],
      [
        "wa7",
        "dek"
      ],
      [
        "c",
        "pr"
      ],
      [
        "s",
        "et"
      ],
      [
        "w",
        "es"
      ],
      [
        "haha",
        "ha"
      ],
      [
        "had",
        "hi"
      ],
      [
        "5al",
        "li"
      ],
      [
        "chan",
        "ce"
      ],
      [
        "ch",
        "er"
      ],
      [
        "ya",
        "t"
      ],
      [
        "kol",
        "ha"
      ],
      [
        "tha",
        "wra"
      ],
      [
        "ma",
        "f"
      ],
      [
        "ch",
        "nou"
      ],
      [
        "ta",
        "f"
      ],
      [
        "3li",
        "ha"
      ],
      [
        "5ou",
        "ya"
      ],
      [
        "hm",
        "d"
      ],
      [
        "den",
        "ya"
      ],
      [
        "ha",
        "thi"
      ],
      [
        "na",
        "j"
      ],
      [
        "sa",
        "b"
      ],
      [
        "wa7",
        "na"
      ],
      [
        "e",
        "cha"
      ],
      [
        "t",
        "hou"
      ],
      [
        "ma",
        "9"
      ],
      [
        "ra",
        "hom"
      ],
      [
        "jou",
        "er"
      ],
      [
        "20",
        "1"
      ],
      [
        "a",
        "ni"
      ],
      [
        "k",
        "rou"
      ],
      [
        "la",
        "t"
      ],
      [
        "le",
        "z"
      ],
      [
        "dh",
        "er"
      ],
      [
        "yar",
        "7am"
      ],
      [
        "po",
        "li"
      ],
      [
        "a",
        "kh"
      ],
      [
        "r",
        "jou"
      ],
      [
        "s",
        "na"
      ],
      [
        "ja",
        "y"
      ],
      [
        "ye",
        "5dem"
      ],
      [
        "a3",
        "mel"
      ],
      [
        "a",
        "do"
      ],
      [
        "y",
        "ons"
      ],
      [
        "ma",
        "ta"
      ],
      [
        "wa",
        "hed"
      ],
      [
        "et",
        "te"
      ],
      [
        "re",
        "c"
      ],
      [
        "te",
        "ur"
      ],
      [
        "gha",
        "r"
      ],
      [
        "d",
        "5"
      ],
      [
        "k",
        "n"
      ],
      [
        "s",
        "l"
      ],
      [
        "3a",
        "li"
      ],
      [
        "mi",
        "boun"
      ],
      [
        "5a",
        "y"
      ],
      [
        "zi",
        "na"
      ],
      [
        "d",
        "wa"
      ],
      [
        "ka",
        "f"
      ],
      [
        "1",
        "00"
      ],
      [
        "g",
        "ra"
      ],
      [
        "g",
        "na"
      ],
      [
        "ji",
        "t"
      ],
      [
        "n",
        "er"
      ],
      [
        "ma",
        "5"
      ],
      [
        "ch",
        "y"
      ],
      [
        "3a",
        "lem"
      ],
      [
        "hi",
        "b"
      ],
      [
        "e",
        "ta"
      ],
      [
        "i",
        "3"
      ],
      [
        "ha",
        "tta"
      ],
      [
        "le",
        "7"
      ],
      [
        "bar",
        "nem"
      ],
      [
        "wel",
        "la"
      ],
      [
        "fil",
        "m"
      ],
      [
        "e",
        "9"
      ],
      [
        "ti",
        "tre"
      ],
      [
        "si",
        "a"
      ],
      [
        "3an",
        "dha"
      ],
      [
        "mil",
        "li"
      ],
      [
        "l",
        "hom"
      ],
      [
        "v",
        "u"
      ],
      [
        "ha",
        "t"
      ],
      [
        "ch",
        "ok"
      ],
      [
        "le",
        "f"
      ],
      [
        "dha",
        "r"
      ],
      [
        "wa7",
        "da"
      ],
      [
        "continu",
        "ation"
      ],
      [
        "c",
        "u"
      ],
      [
        "el",
        "ha"
      ],
      [
        "fa",
        "3"
      ],
      [
        "da",
        "w"
      ],
      [
        "mi",
        "s"
      ],
      [
        "dou",
        "k"
      ],
      [
        "n7eb",
        "ou"
      ],
      [
        "alex",
        "is"
      ],
      [
        "m",
        "ta"
      ],
      [
        "t",
        "wali"
      ],
      [
        "en",
        "s"
      ],
      [
        "cha",
        "5"
      ],
      [
        "tou",
        "na"
      ],
      [
        "ch",
        "bik"
      ],
      [
        "fa",
        "h"
      ],
      [
        "ss",
        "er"
      ],
      [
        "nou",
        "s"
      ],
      [
        "yem",
        "chi"
      ],
      [
        "clubi",
        "ste"
      ],
      [
        "f",
        "é"
      ],
      [
        "ra",
        "r"
      ],
      [
        "la",
        "n"
      ],
      [
        "oo",
        "d"
      ],
      [
        "wal",
        "li"
      ],
      [
        "dja",
        "bou"
      ],
      [
        "ba",
        "a"
      ],
      [
        "7a",
        "la"
      ],
      [
        "3le",
        "h"
      ],
      [
        "y",
        "3"
      ],
      [
        "bel",
        "lahi"
      ],
      [
        "to",
        "fla"
      ],
      [
        "mahou",
        "ch"
      ],
      [
        "b",
        "rou"
      ],
      [
        "en",
        "e"
      ],
      [
        "wa",
        "kil"
      ],
      [
        "3am",
        "lou"
      ],
      [
        "tr",
        "es"
      ],
      [
        "sa",
        "w"
      ],
      [
        "sa",
        "ber"
      ],
      [
        "fa",
        "mech"
      ],
      [
        "hou",
        "a"
      ],
      [
        "walla",
        "hi"
      ],
      [
        "marbou",
        "7a"
      ],
      [
        "f",
        "u"
      ],
      [
        "h",
        "ra"
      ],
      [
        "li",
        "fri9i"
      ],
      [
        "bi",
        "hom"
      ],
      [
        "9a",
        "w"
      ],
      [
        "yy",
        "y"
      ],
      [
        "3",
        "ba"
      ],
      [
        "d",
        "ed"
      ],
      [
        "s",
        "ol"
      ],
      [
        "w",
        "rabi"
      ],
      [
        "sa7",
        "bi"
      ],
      [
        "f",
        "oo"
      ],
      [
        "s",
        "lo"
      ],
      [
        "ch",
        "n"
      ],
      [
        "ki",
        "d"
      ],
      [
        "mou",
        "na"
      ],
      [
        "be",
        "ji"
      ],
      [
        "hed",
        "i"
      ],
      [
        "tra",
        "va"
      ],
      [
        "3",
        "d"
      ],
      [
        "a",
        "z"
      ],
      [
        "j",
        "er"
      ],
      [
        "hi",
        "d"
      ],
      [
        "zar",
        "ti"
      ],
      [
        "gran",
        "d"
      ],
      [
        "trava",
        "il"
      ],
      [
        "3",
        "ez"
      ],
      [
        "i",
        "ss"
      ],
      [
        "s",
        "li"
      ],
      [
        "t",
        "la"
      ],
      [
        "y",
        "da"
      ],
      [
        "ch",
        "ek"
      ],
      [
        "in",
        "t"
      ],
      [
        "9a",
        "net"
      ],
      [
        "ye",
        "zzi"
      ],
      [
        "me",
        "zel"
      ],
      [
        "9o",
        "d"
      ],
      [
        "yes",
        "er"
      ],
      [
        "7",
        "mou"
      ],
      [
        "h",
        "ya"
      ],
      [
        "h",
        "dem"
      ],
      [
        "ta",
        "5"
      ],
      [
        "in",
        "s"
      ],
      [
        "an",
        "ni"
      ],
      [
        "qu",
        "oi"
      ],
      [
        "f9",
        "ek"
      ],
      [
        "y",
        "3a"
      ],
      [
        "y",
        "heb"
      ],
      [
        "é",
        "ri"
      ],
      [
        "en",
        "touma"
      ],
      [
        "le",
        "ch"
      ],
      [
        "wa",
        "lh"
      ],
      [
        "kk",
        "k"
      ],
      [
        "i",
        "in"
      ],
      [
        "l",
        "youm"
      ],
      [
        "o",
        "s"
      ],
      [
        "ya",
        "aa"
      ],
      [
        "le",
        "e"
      ],
      [
        "ba",
        "b"
      ],
      [
        "tou",
        "ch"
      ],
      [
        "mi",
        "na"
      ],
      [
        "3i",
        "dek"
      ],
      [
        "ma3ad",
        "ech"
      ],
      [
        "d",
        "ech"
      ],
      [
        "t",
        "7a"
      ],
      [
        "y",
        "it"
      ],
      [
        "en",
        "ce"
      ],
      [
        "sa",
        "la"
      ],
      [
        "da",
        "k"
      ],
      [
        "rou",
        "7ou"
      ],
      [
        "feh",
        "ri"
      ],
      [
        "a",
        "j"
      ],
      [
        "n",
        "h"
      ],
      [
        "y",
        "hi"
      ],
      [
        "in",
        "i"
      ],
      [
        "ka",
        "ri"
      ],
      [
        "za",
        "n"
      ],
      [
        "wel",
        "di"
      ],
      [
        "vi",
        "de"
      ],
      [
        "ado",
        "re"
      ],
      [
        "l",
        "3"
      ],
      [
        "le",
        "5er"
      ],
      [
        "ri",
        "9"
      ],
      [
        "m3a",
        "lim"
      ],
      [
        "con",
        "tre"
      ],
      [
        "yar7",
        "em"
      ],
      [
        "encha",
        "lah"
      ],
      [
        "atta",
        "qu"
      ],
      [
        "a",
        "al"
      ],
      [
        "e",
        "5er"
      ],
      [
        "g",
        "ood"
      ],
      [
        "n",
        "d"
      ],
      [
        "et",
        "na"
      ],
      [
        "ja",
        "7"
      ],
      [
        "ja",
        "r"
      ],
      [
        "hom",
        "ch"
      ],
      [
        "me",
        "na"
      ],
      [
        "yar",
        "ham"
      ],
      [
        "res",
        "pe"
      ],
      [
        "7",
        "k"
      ],
      [
        "h",
        "ech"
      ],
      [
        "la",
        "9"
      ],
      [
        "na",
        "t"
      ],
      [
        "ta",
        "y"
      ],
      [
        "ti",
        "que"
      ],
      [
        "ka",
        "t"
      ],
      [
        "si",
        "di"
      ],
      [
        "fa",
        "w"
      ],
      [
        "m3a",
        "kom"
      ],
      [
        "bar",
        "ek"
      ],
      [
        "be",
        "ha"
      ],
      [
        "he",
        "ya"
      ],
      [
        "ra",
        "ba"
      ],
      [
        "li",
        "friki"
      ],
      [
        "hi",
        "ch"
      ],
      [
        "no",
        "tre"
      ],
      [
        "b",
        "k"
      ],
      [
        "b",
        "hom"
      ],
      [
        "l",
        "è"
      ],
      [
        "ra",
        "d"
      ],
      [
        "la",
        "d"
      ],
      [
        "na",
        "7na"
      ],
      [
        "th",
        "el"
      ],
      [
        "zi",
        "m"
      ],
      [
        "9ad",
        "ech"
      ],
      [
        "8",
        "ir"
      ],
      [
        "c",
        "tion"
      ],
      [
        "l",
        "lh"
      ],
      [
        "t",
        "w"
      ],
      [
        "bel",
        "na"
      ],
      [
        "che",
        "y"
      ],
      [
        "mn",
        "in"
      ],
      [
        "com",
        "me"
      ],
      [
        "ké",
        "n"
      ],
      [
        "yess",
        "er"
      ],
      [
        "e",
        "5"
      ],
      [
        "om",
        "ha"
      ],
      [
        "mi",
        "li"
      ],
      [
        "mo",
        "sta"
      ],
      [
        "i",
        "wa"
      ],
      [
        "t",
        "3"
      ],
      [
        "la",
        "s"
      ],
      [
        "na",
        "bara"
      ],
      [
        "lou",
        "ma"
      ],
      [
        "lou",
        "ch"
      ],
      [
        "clubi",
        "sti"
      ],
      [
        "hon",
        "te"
      ],
      [
        "9",
        "ra"
      ],
      [
        "b",
        "5ir"
      ],
      [
        "d",
        "ra"
      ],
      [
        "m",
        "cha"
      ],
      [
        "w",
        "n"
      ],
      [
        "w",
        "ed"
      ],
      [
        "na",
        "b"
      ],
      [
        "bi",
        "ch"
      ],
      [
        "mou",
        "r"
      ],
      [
        "9a",
        "r"
      ],
      [
        "bou",
        "ch"
      ],
      [
        "5a",
        "bet"
      ],
      [
        "kh",
        "o"
      ],
      [
        "nou",
        "n"
      ],
      [
        "cha",
        "m"
      ],
      [
        "si",
        "gna"
      ],
      [
        "fa",
        "d"
      ],
      [
        "7i",
        "k"
      ],
      [
        "3",
        "en"
      ],
      [
        "a",
        "bon"
      ],
      [
        "t",
        "wensa"
      ],
      [
        "ra",
        "ho"
      ],
      [
        "en",
        "nes"
      ],
      [
        "es",
        "sa"
      ],
      [
        "ki",
        "feh"
      ],
      [
        "lou",
        "l"
      ],
      [
        "rabi",
        "i"
      ],
      [
        "za",
        "h"
      ],
      [
        "no",
        "s"
      ],
      [
        "a",
        "di"
      ],
      [
        "a",
        "3la"
      ],
      [
        "c",
        "la"
      ],
      [
        "i",
        "5"
      ],
      [
        "y",
        "on"
      ],
      [
        "7a",
        "k"
      ],
      [
        "marzou",
        "9i"
      ],
      [
        "jdi",
        "da"
      ],
      [
        "f",
        "ed"
      ],
      [
        "k",
        "ra"
      ],
      [
        "u",
        "s"
      ],
      [
        "et",
        "ha"
      ],
      [
        "al",
        "la"
      ],
      [
        "men",
        "ha"
      ],
      [
        "aa",
        "k"
      ],
      [
        "nou",
        "r"
      ],
      [
        "vide",
        "o"
      ],
      [
        "ma",
        "ya"
      ],
      [
        "ch",
        "ri"
      ],
      [
        "dha",
        "l"
      ],
      [
        "ama",
        "n"
      ],
      [
        "lé",
        "m"
      ],
      [
        "m",
        "y"
      ],
      [
        "m",
        "è"
      ],
      [
        "z",
        "er"
      ],
      [
        "wa",
        "sel"
      ],
      [
        "tou",
        "l"
      ],
      [
        "za",
        "yed"
      ],
      [
        "bel",
        "i"
      ],
      [
        "wa9",
        "tech"
      ],
      [
        "dis",
        "like"
      ],
      [
        "d",
        "ine"
      ],
      [
        "w",
        "eb"
      ],
      [
        "fa",
        "it"
      ],
      [
        "bou",
        "l"
      ],
      [
        "men",
        "ta"
      ],
      [
        "bravo",
        "o"
      ],
      [
        "za",
        "wali"
      ],
      [
        "ke",
        "ep"
      ],
      [
        "l",
        "b"
      ],
      [
        "é",
        "é"
      ],
      [
        "ma",
        "d"
      ],
      [
        "ma",
        "da"
      ],
      [
        "bi",
        "kom"
      ],
      [
        "ba",
        "ssem"
      ],
      [
        "9a",
        "3ed"
      ],
      [
        "ss",
        "el"
      ],
      [
        "wel",
        "li"
      ],
      [
        "7",
        "or"
      ],
      [
        "f",
        "y"
      ],
      [
        "s",
        "ma3"
      ],
      [
        "t",
        "barka"
      ],
      [
        "ta",
        "m"
      ],
      [
        "bi",
        "i"
      ],
      [
        "sa",
        "lem"
      ],
      [
        "mel",
        "la"
      ],
      [
        "ro",
        "d"
      ],
      [
        "jou",
        "lia"
      ],
      [
        "you",
        "n"
      ],
      [
        "ya3",
        "mlou"
      ],
      [
        "ta7",
        "ya"
      ],
      [
        "a3",
        "ti"
      ],
      [
        "7o",
        "t"
      ],
      [
        "a",
        "th"
      ],
      [
        "j",
        "me"
      ],
      [
        "ch",
        "eb"
      ],
      [
        "na",
        "tir"
      ],
      [
        "sa",
        "3"
      ],
      [
        "fa",
        "rej"
      ],
      [
        "ria",
        "7i"
      ],
      [
        "say",
        "bou"
      ],
      [
        "bsara",
        "7a"
      ],
      [
        "7",
        "keya"
      ],
      [
        "h",
        "k"
      ],
      [
        "i",
        "ja"
      ],
      [
        "r",
        "j"
      ],
      [
        "w",
        "ech"
      ],
      [
        "la",
        "z"
      ],
      [
        "ji",
        "bou"
      ],
      [
        "cou",
        "p"
      ],
      [
        "khou",
        "ya"
      ],
      [
        "7",
        "ez"
      ],
      [
        "l",
        "3a"
      ],
      [
        "ma",
        "challah"
      ],
      [
        "te",
        "5dem"
      ],
      [
        "ss",
        "en"
      ],
      [
        "kh",
        "er"
      ],
      [
        "jou",
        "liya"
      ],
      [
        "tr",
        "ès"
      ],
      [
        "san",
        "four"
      ],
      [
        "e",
        "quipe"
      ],
      [
        "i",
        "ka"
      ],
      [
        "ha",
        "ya"
      ],
      [
        "ye",
        "3"
      ],
      [
        "dh",
        "o"
      ],
      [
        "tounes",
        "s"
      ],
      [
        "attaqu",
        "ant"
      ],
      [
        "8",
        "al"
      ],
      [
        "8",
        "ali"
      ],
      [
        "a",
        "wled"
      ],
      [
        "é",
        "b"
      ],
      [
        "é",
        "d"
      ],
      [
        "ou",
        "l"
      ],
      [
        "ca",
        "b"
      ],
      [
        "k",
        "le"
      ],
      [
        "et",
        "ou"
      ],
      [
        "fa",
        "t"
      ],
      [
        "par",
        "ti"
      ],
      [
        "3",
        "mor"
      ],
      [
        "l",
        "ol"
      ],
      [
        "w",
        "li"
      ],
      [
        "ra",
        "a"
      ],
      [
        "ja",
        "i"
      ],
      [
        "il",
        "le"
      ],
      [
        "we",
        "hed"
      ],
      [
        "par",
        "c"
      ],
      [
        "kam",
        "cha"
      ],
      [
        "d",
        "na"
      ],
      [
        "r",
        "f"
      ],
      [
        "wa",
        "3"
      ],
      [
        "wa",
        "7id"
      ],
      [
        "ba",
        "aa"
      ],
      [
        "mel",
        "i"
      ],
      [
        "ii",
        "t"
      ],
      [
        "ve",
        "au"
      ],
      [
        "tna",
        "jem"
      ],
      [
        "kel",
        "ma"
      ],
      [
        "t7",
        "in"
      ],
      [
        "f",
        "dha"
      ],
      [
        "n",
        "ha"
      ],
      [
        "u",
        "m"
      ],
      [
        "ja",
        "a"
      ],
      [
        "mi",
        "t"
      ],
      [
        "be",
        "lahi"
      ],
      [
        "min",
        "e"
      ],
      [
        "mah",
        "lek"
      ],
      [
        "wah",
        "ra"
      ],
      [
        "incha",
        "lla"
      ],
      [
        "enta",
        "5"
      ],
      [
        "yech",
        "fih"
      ],
      [
        "ww",
        "w"
      ],
      [
        "amin",
        "e"
      ],
      [
        "k",
        "ed"
      ],
      [
        "l",
        "mou"
      ],
      [
        "ra",
        "ss"
      ],
      [
        "na",
        "ti"
      ],
      [
        "ta",
        "ch"
      ],
      [
        "tha",
        "b"
      ],
      [
        "ben",
        "zarti"
      ],
      [
        "ma7",
        "lek"
      ],
      [
        "rya",
        "7i"
      ],
      [
        "shi",
        "h"
      ],
      [
        "wa",
        "t"
      ],
      [
        "ni",
        "ch"
      ],
      [
        "ke",
        "yet"
      ],
      [
        "yo",
        "9"
      ],
      [
        "tem",
        "chi"
      ],
      [
        "i",
        "7eb"
      ],
      [
        "s",
        "y"
      ],
      [
        "ya",
        "5"
      ],
      [
        "7a",
        "t"
      ],
      [
        "fa",
        "k"
      ],
      [
        "lou",
        "led"
      ],
      [
        "di",
        "d"
      ],
      [
        "men",
        "hom"
      ],
      [
        "raj",
        "3ou"
      ],
      [
        "dé",
        "gage"
      ],
      [
        "7",
        "et"
      ],
      [
        "9",
        "et"
      ],
      [
        "i",
        "e"
      ],
      [
        "s",
        "be7"
      ],
      [
        "è",
        "re"
      ],
      [
        "ha",
        "ch"
      ],
      [
        "la",
        "a"
      ],
      [
        "le",
        "club"
      ],
      [
        "ni",
        "t"
      ],
      [
        "rou",
        "s"
      ],
      [
        "za",
        "b"
      ],
      [
        "gha",
        "lia"
      ],
      [
        "ham",
        "ed"
      ],
      [
        "a",
        "mi"
      ],
      [
        "e",
        "w"
      ],
      [
        "h",
        "ka"
      ],
      [
        "i",
        "j"
      ],
      [
        "n",
        "choufou"
      ],
      [
        "p",
        "l"
      ],
      [
        "t",
        "jib"
      ],
      [
        "z",
        "ed"
      ],
      [
        "bra",
        "s"
      ],
      [
        "tar",
        "ja3"
      ],
      [
        "ze",
        "yed"
      ],
      [
        "bad",
        "el"
      ],
      [
        "signa",
        "ler"
      ],
      [
        "f",
        "em"
      ],
      [
        "g",
        "la"
      ],
      [
        "o",
        "ma"
      ],
      [
        "w",
        "ma"
      ],
      [
        "é",
        "k"
      ],
      [
        "la",
        "y"
      ],
      [
        "ch",
        "kon"
      ],
      [
        "le",
        "ment"
      ],
      [
        "ki",
        "t"
      ],
      [
        "tou",
        "h"
      ],
      [
        "ye",
        "na"
      ],
      [
        "men",
        "ek"
      ],
      [
        "lla",
        "hi"
      ],
      [
        "ya3",
        "ref"
      ],
      [
        "tal",
        "9a"
      ],
      [
        "i",
        "ta"
      ],
      [
        "ha",
        "9"
      ],
      [
        "ma",
        "g"
      ],
      [
        "en",
        "se"
      ],
      [
        "il",
        "la"
      ],
      [
        "bou",
        "ha"
      ],
      [
        "kou",
        "ki"
      ],
      [
        "oo",
        "p"
      ],
      [
        "rr",
        "r"
      ],
      [
        "tro",
        "p"
      ],
      [
        "jouer",
        "et"
      ],
      [
        "b",
        "jeh"
      ],
      [
        "c",
        "or"
      ],
      [
        "n",
        "ti"
      ],
      [
        "s",
        "ek"
      ],
      [
        "w",
        "y"
      ],
      [
        "la",
        "aa"
      ],
      [
        "ba",
        "hi"
      ],
      [
        "da",
        "9"
      ],
      [
        "bel",
        "ek"
      ],
      [
        "9i",
        "9a"
      ],
      [
        "ssa",
        "r"
      ],
      [
        "gha",
        "li"
      ],
      [
        "win",
        "i"
      ],
      [
        "ju",
        "st"
      ],
      [
        "rye",
        "7i"
      ],
      [
        "fi",
        "ci"
      ],
      [
        "ti",
        "ch"
      ],
      [
        "em",
        "3ak"
      ],
      [
        "da",
        "kh"
      ],
      [
        "al",
        "ger"
      ],
      [
        "m3a",
        "hom"
      ],
      [
        "za",
        "bour"
      ],
      [
        "ham",
        "dou"
      ],
      [
        "toun",
        "s"
      ],
      [
        "slo",
        "ma"
      ],
      [
        "h",
        "na"
      ],
      [
        "i",
        "sa"
      ],
      [
        "ha",
        "z"
      ],
      [
        "bi",
        "ii"
      ],
      [
        "fi",
        "ii"
      ],
      [
        "om",
        "mek"
      ],
      [
        "ali",
        "h"
      ],
      [
        "sur",
        "tout"
      ],
      [
        "3",
        "ek"
      ],
      [
        "a",
        "kid"
      ],
      [
        "s",
        "n"
      ],
      [
        "t",
        "ri"
      ],
      [
        "w",
        "na"
      ],
      [
        "da",
        "y"
      ],
      [
        "ne",
        "w"
      ],
      [
        "sah",
        "bi"
      ],
      [
        "ju",
        "ste"
      ],
      [
        "9",
        "wi"
      ],
      [
        "i",
        "ya"
      ],
      [
        "m",
        "lo"
      ],
      [
        "ra",
        "aa"
      ],
      [
        "en",
        "es"
      ],
      [
        "ja",
        "mais"
      ],
      [
        "ss",
        "s"
      ],
      [
        "mar",
        "you"
      ],
      [
        "far",
        "jou"
      ],
      [
        "mer",
        "i"
      ],
      [
        "foo",
        "t"
      ],
      [
        "4",
        "a"
      ],
      [
        "7",
        "el"
      ],
      [
        "b",
        "khir"
      ],
      [
        "m",
        "wa"
      ],
      [
        "n",
        "chouf"
      ],
      [
        "s",
        "é"
      ],
      [
        "t",
        "rou"
      ],
      [
        "t",
        "chouf"
      ],
      [
        "v",
        "id"
      ],
      [
        "ma",
        "chi"
      ],
      [
        "ra",
        "kom"
      ],
      [
        "sa",
        "f"
      ],
      [
        "hi",
        "l"
      ],
      [
        "win",
        "ou"
      ],
      [
        "yo",
        "5"
      ],
      [
        "mil",
        "le"
      ],
      [
        "ali",
        "na"
      ],
      [
        "jo",
        "on"
      ],
      [
        "3mal",
        "tou"
      ],
      [
        "respe",
        "ct"
      ],
      [
        "5",
        "ii"
      ],
      [
        "l",
        "ka"
      ],
      [
        "r",
        "en"
      ],
      [
        "er",
        "e"
      ],
      [
        "hi",
        "war"
      ],
      [
        "m3a",
        "ak"
      ],
      [
        "dh",
        "el"
      ],
      [
        "an",
        "ti"
      ],
      [
        "ywa",
        "f9ek"
      ],
      [
        "d",
        "om"
      ],
      [
        "l",
        "t"
      ],
      [
        "l",
        "ma"
      ],
      [
        "y",
        "kha"
      ],
      [
        "ch",
        "nia"
      ],
      [
        "3a",
        "s"
      ],
      [
        "hi",
        "t"
      ],
      [
        "fa",
        "n"
      ],
      [
        "9a",
        "b"
      ],
      [
        "ne",
        "f"
      ],
      [
        "ma3",
        "neha"
      ],
      [
        "na3",
        "ref"
      ],
      [
        "incha",
        "la"
      ],
      [
        "rec",
        "r"
      ],
      [
        "3",
        "0"
      ],
      [
        "b",
        "lé"
      ],
      [
        "r",
        "we7"
      ],
      [
        "ha",
        "la"
      ],
      [
        "et",
        "h"
      ],
      [
        "sa",
        "i"
      ],
      [
        "hi",
        "k"
      ],
      [
        "ri",
        "f"
      ],
      [
        "7a",
        "n"
      ],
      [
        "7a",
        "ch"
      ],
      [
        "ta3",
        "mlou"
      ],
      [
        "mor",
        "ta"
      ],
      [
        "dan",
        "douk"
      ],
      [
        "barna",
        "mej"
      ],
      [
        "j",
        "ri"
      ],
      [
        "y",
        "cha"
      ],
      [
        "ha",
        "a"
      ],
      [
        "ch",
        "niya"
      ],
      [
        "le",
        "9"
      ],
      [
        "le",
        "ya"
      ],
      [
        "sa",
        "is"
      ],
      [
        "mi",
        "m"
      ],
      [
        "dha",
        "her"
      ],
      [
        "an",
        "ta"
      ],
      [
        "na3",
        "rfou"
      ],
      [
        "wah",
        "dek"
      ],
      [
        "han",
        "d"
      ],
      [
        "b",
        "ya"
      ],
      [
        "n",
        "eb"
      ],
      [
        "w",
        "ya"
      ],
      [
        "y",
        "ch"
      ],
      [
        "y",
        "ba"
      ],
      [
        "el",
        "l"
      ],
      [
        "fa",
        "re"
      ],
      [
        "al",
        "g"
      ],
      [
        "ho",
        "ma"
      ],
      [
        "na3",
        "mou"
      ],
      [
        "ko",
        "lou"
      ],
      [
        "st",
        "y"
      ],
      [
        "chnou",
        "wa"
      ],
      [
        "poli",
        "tique"
      ],
      [
        "3",
        "e"
      ],
      [
        "a",
        "c"
      ],
      [
        "j",
        "mou"
      ],
      [
        "l",
        "mo"
      ],
      [
        "t",
        "li"
      ],
      [
        "w",
        "t"
      ],
      [
        "y",
        "ched"
      ],
      [
        "na",
        "a"
      ],
      [
        "om",
        "ou"
      ],
      [
        "ri",
        "na"
      ],
      [
        "ol",
        "o"
      ],
      [
        "te",
        "9"
      ],
      [
        "kh",
        "ed"
      ],
      [
        "ent",
        "ra"
      ],
      [
        "yek",
        "hi"
      ],
      [
        "am",
        "ma"
      ],
      [
        "bé",
        "ch"
      ],
      [
        "pu",
        "bli"
      ],
      [
        "mani",
        "ch"
      ],
      [
        "ma",
        "x"
      ],
      [
        "3a",
        "wen"
      ],
      [
        "wa",
        "di"
      ],
      [
        "cha",
        "d"
      ],
      [
        "si",
        "f"
      ],
      [
        "men",
        "ou"
      ],
      [
        "ro",
        "j"
      ],
      [
        "yah",
        "ki"
      ],
      [
        "kla",
        "m"
      ],
      [
        "gou",
        "l"
      ],
      [
        "of",
        "fici"
      ],
      [
        "aid",
        "ek"
      ],
      [
        "1",
        "9"
      ],
      [
        "b",
        "ni"
      ],
      [
        "j",
        "m"
      ],
      [
        "s",
        "r"
      ],
      [
        "y",
        "è"
      ],
      [
        "é",
        "s"
      ],
      [
        "é",
        "t"
      ],
      [
        "ma",
        "tha"
      ],
      [
        "sa",
        "id"
      ],
      [
        "er",
        "jel"
      ],
      [
        "zi",
        "dou"
      ],
      [
        "sta",
        "de"
      ],
      [
        "com",
        "menta"
      ],
      [
        "maw",
        "jou"
      ],
      [
        "por",
        "t"
      ],
      [
        "beh",
        "ya"
      ],
      [
        "8",
        "8"
      ],
      [
        "f",
        "lo"
      ],
      [
        "w",
        "le"
      ],
      [
        "ma",
        "hich"
      ],
      [
        "ba",
        "ya"
      ],
      [
        "ti",
        "7"
      ],
      [
        "ka",
        "b"
      ],
      [
        "yet",
        "raba"
      ],
      [
        "joueur",
        "s"
      ],
      [
        "c",
        "es"
      ],
      [
        "h",
        "d"
      ],
      [
        "i",
        "dha"
      ],
      [
        "m",
        "le"
      ],
      [
        "z",
        "bou"
      ],
      [
        "ou",
        "n"
      ],
      [
        "ou",
        "la"
      ],
      [
        "ha",
        "aa"
      ],
      [
        "el",
        "mou"
      ],
      [
        "om",
        "k"
      ],
      [
        "ti",
        "h"
      ],
      [
        "al",
        "or"
      ],
      [
        "me",
        "ta"
      ],
      [
        "za",
        "weli"
      ],
      [
        "fou",
        "9"
      ],
      [
        "ah",
        "sen"
      ],
      [
        "sou",
        "r"
      ],
      [
        "tab",
        "9a"
      ],
      [
        "5",
        "0"
      ],
      [
        "c",
        "ss"
      ],
      [
        "t",
        "9a"
      ],
      [
        "t",
        "3ich"
      ],
      [
        "ha",
        "h"
      ],
      [
        "fa",
        "l"
      ],
      [
        "we",
        "na"
      ],
      [
        "chi",
        "d"
      ],
      [
        "mech",
        "i"
      ],
      [
        "so",
        "b"
      ],
      [
        "3in",
        "ek"
      ],
      [
        "mu",
        "si"
      ],
      [
        "recr",
        "ut"
      ],
      [
        "j",
        "ed"
      ],
      [
        "s",
        "fa"
      ],
      [
        "t",
        "n"
      ],
      [
        "ou",
        "k"
      ],
      [
        "fi",
        "la"
      ],
      [
        "di",
        "a"
      ],
      [
        "al",
        "l"
      ],
      [
        "rabi",
        "ii"
      ],
      [
        "ne",
        "7"
      ],
      [
        "th",
        "o"
      ],
      [
        "say",
        "ed"
      ],
      [
        "jour",
        "s"
      ],
      [
        "g",
        "el"
      ],
      [
        "h",
        "wa"
      ],
      [
        "i",
        "cha"
      ],
      [
        "m",
        "la3"
      ],
      [
        "p",
        "et"
      ],
      [
        "s",
        "om"
      ],
      [
        "na",
        "w"
      ],
      [
        "3a",
        "lik"
      ],
      [
        "ba",
        "y"
      ],
      [
        "da",
        "yma"
      ],
      [
        "tou",
        "ha"
      ],
      [
        "ga",
        "ti"
      ],
      [
        "9i",
        "t"
      ],
      [
        "na3",
        "mlou"
      ],
      [
        "wah",
        "da"
      ],
      [
        "jem",
        "la"
      ],
      [
        "su",
        "is"
      ],
      [
        "rya",
        "hi"
      ],
      [
        "a",
        "ss"
      ],
      [
        "a",
        "3lik"
      ],
      [
        "a",
        "tt"
      ],
      [
        "g",
        "aaa"
      ],
      [
        "i",
        "koun"
      ],
      [
        "l",
        "kom"
      ],
      [
        "n",
        "9o"
      ],
      [
        "t",
        "cha"
      ],
      [
        "w",
        "ek"
      ],
      [
        "ma",
        "dem"
      ],
      [
        "3a",
        "mel"
      ],
      [
        "fi",
        "a"
      ],
      [
        "ba",
        "li"
      ],
      [
        "9a",
        "noun"
      ],
      [
        "te",
        "fhem"
      ],
      [
        "rou",
        "f"
      ],
      [
        "5a",
        "r"
      ],
      [
        "aa",
        "la"
      ],
      [
        "wal",
        "dik"
      ],
      [
        "mach",
        "rou"
      ],
      [
        "b",
        "t"
      ],
      [
        "o",
        "9"
      ],
      [
        "li",
        "ha"
      ],
      [
        "fa",
        "ire"
      ],
      [
        "kol",
        "hom"
      ],
      [
        "kou",
        "lou"
      ],
      [
        "3i",
        "k"
      ],
      [
        "be",
        "ya"
      ],
      [
        "ma3",
        "na"
      ],
      [
        "tr",
        "ek"
      ],
      [
        "vi",
        "va"
      ],
      [
        "wen",
        "ta"
      ],
      [
        "3le",
        "ha"
      ],
      [
        "yeh",
        "di"
      ],
      [
        "b",
        "da"
      ],
      [
        "g",
        "hou"
      ],
      [
        "li",
        "kom"
      ],
      [
        "na",
        "ya"
      ],
      [
        "ka",
        "ra"
      ],
      [
        "ni",
        "kom"
      ],
      [
        "me",
        "3"
      ],
      [
        "mo",
        "5"
      ],
      [
        "mo",
        "hamed"
      ],
      [
        "dh",
        "e"
      ],
      [
        "wali",
        "t"
      ],
      [
        "twa",
        "nsa"
      ],
      [
        "lib",
        "ya"
      ],
      [
        "5",
        "sara"
      ],
      [
        "r",
        "om"
      ],
      [
        "y",
        "d"
      ],
      [
        "y",
        "ik"
      ],
      [
        "ou",
        "h"
      ],
      [
        "ou",
        "ch"
      ],
      [
        "ma",
        "i"
      ],
      [
        "ra",
        "di"
      ],
      [
        "la",
        "ha"
      ],
      [
        "na",
        "7i"
      ],
      [
        "wa",
        "n"
      ],
      [
        "fi",
        "9ou"
      ],
      [
        "fa",
        "ha"
      ],
      [
        "3i",
        "ya"
      ],
      [
        "de",
        "f"
      ],
      [
        "de",
        "ma"
      ],
      [
        "za",
        "7"
      ],
      [
        "ji",
        "m"
      ],
      [
        "tha",
        "ma"
      ],
      [
        "7i",
        "7"
      ],
      [
        "bla",
        "s"
      ],
      [
        "mes",
        "sa"
      ],
      [
        "cham",
        "pi"
      ],
      [
        "g",
        "ho"
      ],
      [
        "n",
        "9oul"
      ],
      [
        "s",
        "lem"
      ],
      [
        "ou",
        "m"
      ],
      [
        "fi",
        "da"
      ],
      [
        "ka",
        "w"
      ],
      [
        "da",
        "ra"
      ],
      [
        "tou",
        "ni"
      ],
      [
        "rou",
        "h"
      ],
      [
        "ne",
        "h"
      ],
      [
        "be",
        "rasmi"
      ],
      [
        "bel",
        "7a9"
      ],
      [
        "an",
        "ce"
      ],
      [
        "wla",
        "d"
      ],
      [
        "né",
        "s"
      ],
      [
        "3and",
        "hom"
      ],
      [
        "9",
        "bel"
      ],
      [
        "e",
        "sa"
      ],
      [
        "m",
        "3ou"
      ],
      [
        "p",
        "s"
      ],
      [
        "p",
        "on"
      ],
      [
        "ma",
        "ss"
      ],
      [
        "ma",
        "ta3"
      ],
      [
        "er",
        "rajel"
      ],
      [
        "kol",
        "kom"
      ],
      [
        "to",
        "5"
      ],
      [
        "ke",
        "f"
      ],
      [
        "cou",
        "pe"
      ],
      [
        "s7i",
        "7a"
      ],
      [
        "3o",
        "d"
      ],
      [
        "kaf",
        "on"
      ],
      [
        "gaaa",
        "ge"
      ],
      [
        "j",
        "3ou"
      ],
      [
        "l",
        "fa"
      ],
      [
        "m",
        "li"
      ],
      [
        "w",
        "rak"
      ],
      [
        "ha",
        "bi"
      ],
      [
        "el",
        "la"
      ],
      [
        "li",
        "bled"
      ],
      [
        "wa",
        "dh"
      ],
      [
        "ba",
        "k"
      ],
      [
        "cha",
        "h"
      ],
      [
        "ka",
        "ch"
      ],
      [
        "ni",
        "da"
      ],
      [
        "mou",
        "tou"
      ],
      [
        "re",
        "au"
      ],
      [
        "te",
        "z"
      ],
      [
        "hou",
        "lek"
      ],
      [
        "ama",
        "na"
      ],
      [
        "wi",
        "ssem"
      ],
      [
        "3ou",
        "d"
      ],
      [
        "da5",
        "el"
      ],
      [
        "alor",
        "s"
      ],
      [
        "b",
        "è"
      ],
      [
        "m",
        "d"
      ],
      [
        "n",
        "dou"
      ],
      [
        "ha",
        "f"
      ],
      [
        "ma",
        "famech"
      ],
      [
        "ra",
        "des"
      ],
      [
        "ch",
        "oi"
      ],
      [
        "li",
        "la"
      ],
      [
        "ya",
        "rah"
      ],
      [
        "ta",
        "ra"
      ],
      [
        "ka",
        "d"
      ],
      [
        "ka",
        "is"
      ],
      [
        "ki",
        "fou"
      ],
      [
        "ni",
        "veau"
      ],
      [
        "ent",
        "om"
      ],
      [
        "yet",
        "na"
      ],
      [
        "tt",
        "t"
      ],
      [
        "ma3a",
        "k"
      ],
      [
        "fr",
        "om"
      ],
      [
        "tari",
        "5"
      ],
      [
        "barnem",
        "ej"
      ],
      [
        "e",
        "rajel"
      ],
      [
        "h",
        "ram"
      ],
      [
        "i",
        "tha"
      ],
      [
        "m",
        "ê"
      ],
      [
        "ma",
        "m"
      ],
      [
        "ma",
        "nou"
      ],
      [
        "ch",
        "bih"
      ],
      [
        "bi",
        "llahi"
      ],
      [
        "ti",
        "l"
      ],
      [
        "7a",
        "jet"
      ],
      [
        "mo",
        "i"
      ],
      [
        "lo",
        "wa"
      ],
      [
        "na3",
        "ma"
      ],
      [
        "mes",
        "kina"
      ],
      [
        "3ay",
        "el"
      ],
      [
        "naf",
        "s"
      ],
      [
        "jen",
        "joon"
      ],
      [
        "chok",
        "ran"
      ],
      [
        "sfa",
        "x"
      ],
      [
        "5",
        "in"
      ],
      [
        "g",
        "ed"
      ],
      [
        "ha",
        "pp"
      ],
      [
        "ra",
        "chwa"
      ],
      [
        "ta",
        "7i"
      ],
      [
        "cha",
        "beb"
      ],
      [
        "si",
        "eur"
      ],
      [
        "ri",
        "d"
      ],
      [
        "7a",
        "j"
      ],
      [
        "on",
        "e"
      ],
      [
        "mi",
        "a"
      ],
      [
        "ye",
        "5"
      ],
      [
        "za",
        "natir"
      ],
      [
        "to",
        "s"
      ],
      [
        "ro",
        "k"
      ],
      [
        "ir",
        "es"
      ],
      [
        "lla",
        "m"
      ],
      [
        "yar",
        "hem"
      ],
      [
        "ham",
        "di"
      ],
      [
        "say",
        "er"
      ],
      [
        "flous",
        "ek"
      ],
      [
        "nah",
        "da"
      ],
      [
        "3aw",
        "nou"
      ],
      [
        "fran",
        "ce"
      ],
      [
        "ms",
        "g"
      ],
      [
        "ver",
        "sa"
      ],
      [
        "jab",
        "ri"
      ],
      [
        "kor",
        "si"
      ],
      [
        "3",
        "mel"
      ],
      [
        "3",
        "dou"
      ],
      [
        "7",
        "ok"
      ],
      [
        "c",
        "ette"
      ],
      [
        "ra",
        "sou"
      ],
      [
        "ya",
        "5i"
      ],
      [
        "en",
        "sen"
      ],
      [
        "fi",
        "r"
      ],
      [
        "sa",
        "re9"
      ],
      [
        "cha",
        "ab"
      ],
      [
        "ri",
        "3"
      ],
      [
        "em",
        "e"
      ],
      [
        "ma3",
        "k"
      ],
      [
        "hed",
        "a"
      ],
      [
        "vi",
        "e"
      ],
      [
        "3ou",
        "n"
      ],
      [
        "9o",
        "dem"
      ],
      [
        "7ou",
        "kouma"
      ],
      [
        "tan",
        "t"
      ],
      [
        "bu",
        "reau"
      ],
      [
        "zbou",
        "bna"
      ],
      [
        "2",
        "00"
      ],
      [
        "b",
        "net"
      ],
      [
        "b",
        "him"
      ],
      [
        "f",
        "ok"
      ],
      [
        "l",
        "7a9"
      ],
      [
        "n",
        "9ol"
      ],
      [
        "s",
        "eli"
      ],
      [
        "ha",
        "j"
      ],
      [
        "la",
        "f"
      ],
      [
        "na",
        "jem"
      ],
      [
        "3a",
        "z"
      ],
      [
        "le",
        "flous"
      ],
      [
        "wa",
        "j"
      ],
      [
        "om",
        "kom"
      ],
      [
        "fa",
        "ut"
      ],
      [
        "da",
        "ns"
      ],
      [
        "ye",
        "e"
      ],
      [
        "de",
        "h"
      ],
      [
        "ii",
        "m"
      ],
      [
        "yar",
        "h"
      ],
      [
        "ncha",
        "lh"
      ],
      [
        "m3al",
        "m"
      ],
      [
        "gu",
        "e"
      ],
      [
        "3ay",
        "la"
      ],
      [
        "mna",
        "yek"
      ],
      [
        "tounsi",
        "a"
      ],
      [
        "beau",
        "coup"
      ],
      [
        "jai",
        "me"
      ],
      [
        "happ",
        "y"
      ],
      [
        "3",
        "3"
      ],
      [
        "9",
        "lou"
      ],
      [
        "c",
        "ri"
      ],
      [
        "k",
        "bal"
      ],
      [
        "r",
        "bi"
      ],
      [
        "w",
        "ha"
      ],
      [
        "w",
        "jou"
      ],
      [
        "na",
        "wa"
      ],
      [
        "ti",
        "ra"
      ],
      [
        "ri",
        "j"
      ],
      [
        "ki",
        "ch"
      ],
      [
        "rou",
        "hou"
      ],
      [
        "ye",
        "sa"
      ],
      [
        "3an",
        "do"
      ],
      [
        "ya3",
        "ni"
      ],
      [
        "maa",
        "lem"
      ],
      [
        "mte3",
        "ek"
      ],
      [
        "tunisi",
        "en"
      ],
      [
        "pro",
        "jet"
      ],
      [
        "clubi",
        "st"
      ],
      [
        "has",
        "bouna"
      ],
      [
        "7",
        "in"
      ],
      [
        "m",
        "k"
      ],
      [
        "s",
        "es"
      ],
      [
        "w",
        "ir"
      ],
      [
        "y",
        "wali"
      ],
      [
        "el",
        "na"
      ],
      [
        "na",
        "ss"
      ],
      [
        "ya",
        "9"
      ],
      [
        "om",
        "o"
      ],
      [
        "cha",
        "ine"
      ],
      [
        "ki",
        "w"
      ],
      [
        "be",
        "3"
      ],
      [
        "bo",
        "y"
      ],
      [
        "uu",
        "k"
      ],
      [
        "mak",
        "ech"
      ],
      [
        "yara",
        "7mou"
      ],
      [
        "mem",
        "e"
      ],
      [
        "b",
        "ent"
      ],
      [
        "f",
        "t"
      ],
      [
        "i",
        "ra"
      ],
      [
        "t",
        "ba"
      ],
      [
        "z",
        "é"
      ],
      [
        "ma",
        "kh"
      ],
      [
        "ma",
        "ssa"
      ],
      [
        "3a",
        "le"
      ],
      [
        "ti",
        "a"
      ],
      [
        "ka",
        "lem"
      ],
      [
        "ri",
        "en"
      ],
      [
        "ki",
        "m"
      ],
      [
        "di",
        "re"
      ],
      [
        "da",
        "b"
      ],
      [
        "de",
        "ja"
      ],
      [
        "3am",
        "la"
      ],
      [
        "ve",
        "ut"
      ],
      [
        "haha",
        "h"
      ],
      [
        "no",
        "9"
      ],
      [
        "mas",
        "la7"
      ],
      [
        "ble",
        "ch"
      ],
      [
        "wil",
        "d"
      ],
      [
        "3mal",
        "t"
      ],
      [
        "fran",
        "ca"
      ],
      [
        "yab",
        "9a"
      ],
      [
        "maz",
        "al"
      ],
      [
        "kari",
        "m"
      ],
      [
        "a",
        "ta"
      ],
      [
        "g",
        "et"
      ],
      [
        "j",
        "or"
      ],
      [
        "l",
        "bled"
      ],
      [
        "w",
        "em"
      ],
      [
        "3a",
        "j"
      ],
      [
        "ba",
        "you"
      ],
      [
        "cha",
        "b"
      ],
      [
        "ri",
        "ba"
      ],
      [
        "fa",
        "m"
      ],
      [
        "ni",
        "dhal"
      ],
      [
        "ya3",
        "tek"
      ],
      [
        "yar",
        "ja3"
      ],
      [
        "au",
        "ssi"
      ],
      [
        "pe",
        "au"
      ],
      [
        "wah",
        "na"
      ],
      [
        "bil",
        "lehi"
      ],
      [
        "uu",
        "h"
      ],
      [
        "bes",
        "h"
      ],
      [
        "po",
        "int"
      ],
      [
        "jeb",
        "ni"
      ],
      [
        "im",
        "por"
      ],
      [
        "yara",
        "t"
      ],
      [
        "b3a",
        "dh"
      ],
      [
        "zan",
        "tour"
      ],
      [
        "sty",
        "le"
      ],
      [
        "3",
        "ej"
      ],
      [
        "r",
        "y"
      ],
      [
        "t",
        "rab"
      ],
      [
        "w",
        "is"
      ],
      [
        "z",
        "et"
      ],
      [
        "ya",
        "re"
      ],
      [
        "ya",
        "7i"
      ],
      [
        "3a",
        "ss"
      ],
      [
        "en",
        "fin"
      ],
      [
        "wa",
        "ch"
      ],
      [
        "sa",
        "wer"
      ],
      [
        "fa",
        "dh"
      ],
      [
        "tou",
        "jours"
      ],
      [
        "bou",
        "la"
      ],
      [
        "ye",
        "fhem"
      ],
      [
        "th",
        "ez"
      ],
      [
        "to",
        "z"
      ],
      [
        "ii",
        "k"
      ],
      [
        "oo",
        "k"
      ],
      [
        "ak",
        "thar"
      ],
      [
        "tah",
        "ya"
      ],
      [
        "mm",
        "m"
      ],
      [
        "yel",
        "z"
      ],
      [
        "3aw",
        "ed"
      ],
      [
        "5d",
        "mou"
      ],
      [
        "9",
        "rib"
      ],
      [
        "g",
        "rou"
      ],
      [
        "p",
        "re"
      ],
      [
        "r",
        "ine"
      ],
      [
        "t",
        "om"
      ],
      [
        "t",
        "ol"
      ],
      [
        "ch",
        "kou"
      ],
      [
        "en",
        "ou"
      ],
      [
        "wa",
        "na"
      ],
      [
        "fi",
        "d"
      ],
      [
        "sa",
        "k"
      ],
      [
        "sa",
        "lam"
      ],
      [
        "si",
        "yes"
      ],
      [
        "fa",
        "mille"
      ],
      [
        "ki",
        "la"
      ],
      [
        "da",
        "fi"
      ],
      [
        "m3a",
        "lam"
      ],
      [
        "il",
        "kol"
      ],
      [
        "3i",
        "a"
      ],
      [
        "wi",
        "la"
      ],
      [
        "je",
        "7"
      ],
      [
        "je",
        "ya"
      ],
      [
        "mas",
        "ta"
      ],
      [
        "wa9",
        "et"
      ],
      [
        "yi",
        "a"
      ],
      [
        "sami",
        "r"
      ],
      [
        "ywa",
        "f"
      ],
      [
        "mka",
        "ch"
      ],
      [
        "jami",
        "3"
      ],
      [
        "offici",
        "el"
      ],
      [
        "3",
        "n"
      ],
      [
        "7",
        "keyet"
      ],
      [
        "9",
        "3ad"
      ],
      [
        "b",
        "7ou"
      ],
      [
        "b",
        "1000"
      ],
      [
        "f",
        "rou"
      ],
      [
        "g",
        "ram"
      ],
      [
        "i",
        "heb"
      ],
      [
        "l",
        "9"
      ],
      [
        "l",
        "ba"
      ],
      [
        "ma",
        "aa"
      ],
      [
        "ya",
        "d"
      ],
      [
        "ta",
        "ja"
      ],
      [
        "wa",
        "let"
      ],
      [
        "et",
        "e"
      ],
      [
        "si",
        "b"
      ],
      [
        "hom",
        "me"
      ],
      [
        "5a",
        "s"
      ],
      [
        "kh",
        "ra"
      ],
      [
        "moch",
        "kla"
      ],
      [
        "encha",
        "la"
      ],
      [
        "nor",
        "ma"
      ],
      [
        "toi",
        "le"
      ],
      [
        "marbou",
        "ha"
      ],
      [
        "ida",
        "ra"
      ],
      [
        "wata",
        "ni"
      ],
      [
        "av",
        "ant"
      ],
      [
        "travail",
        "ler"
      ],
      [
        "machrou",
        "3"
      ],
      [
        "b",
        "re"
      ],
      [
        "i",
        "9"
      ],
      [
        "i",
        "ir"
      ],
      [
        "l",
        "7a"
      ],
      [
        "n",
        "el"
      ],
      [
        "ma",
        "ms"
      ],
      [
        "ra",
        "ch"
      ],
      [
        "li",
        "ch"
      ],
      [
        "ya",
        "ch"
      ],
      [
        "hi",
        "hi"
      ],
      [
        "ka",
        "leb"
      ],
      [
        "ni",
        "ce"
      ],
      [
        "mi",
        "ya"
      ],
      [
        "mi",
        "ss"
      ],
      [
        "to",
        "o"
      ],
      [
        "to",
        "oop"
      ],
      [
        "dh",
        "ek"
      ],
      [
        "you",
        "tu"
      ],
      [
        "he",
        "zou"
      ],
      [
        "bled",
        "na"
      ],
      [
        "chwa",
        "y"
      ],
      [
        "ble",
        "di"
      ],
      [
        "9ol",
        "t"
      ],
      [
        "aka",
        "haw"
      ],
      [
        "khed",
        "ma"
      ],
      [
        "7",
        "kom"
      ],
      [
        "9",
        "9"
      ],
      [
        "a",
        "9al"
      ],
      [
        "d",
        "z"
      ],
      [
        "f",
        "sa"
      ],
      [
        "i",
        "te"
      ],
      [
        "i",
        "m3ak"
      ],
      [
        "k",
        "m"
      ],
      [
        "u",
        "i"
      ],
      [
        "y",
        "om"
      ],
      [
        "z",
        "ga"
      ],
      [
        "ta",
        "li"
      ],
      [
        "ta",
        "hana"
      ],
      [
        "ri",
        "ma"
      ],
      [
        "lou",
        "m"
      ],
      [
        "ne",
        "e"
      ],
      [
        "de",
        "gaaage"
      ],
      [
        "za",
        "da"
      ],
      [
        "ko",
        "ra"
      ],
      [
        "mon",
        "sieur"
      ],
      [
        "mé",
        "l"
      ],
      [
        "per",
        "son"
      ],
      [
        "fek",
        "ra"
      ],
      [
        "sais",
        "on"
      ],
      [
        "3",
        "lé"
      ],
      [
        "7",
        "7"
      ],
      [
        "a",
        "re"
      ],
      [
        "i",
        "5a"
      ],
      [
        "k",
        "ek"
      ],
      [
        "t",
        "walli"
      ],
      [
        "y",
        "ha"
      ],
      [
        "na",
        "dh"
      ],
      [
        "ta",
        "tion"
      ],
      [
        "le",
        "kom"
      ],
      [
        "ba",
        "la"
      ],
      [
        "in",
        "na"
      ],
      [
        "in",
        "ter"
      ],
      [
        "sa",
        "lah"
      ],
      [
        "ka",
        "s"
      ],
      [
        "ca",
        "po"
      ],
      [
        "de",
        "5"
      ],
      [
        "to",
        "la"
      ],
      [
        "lek",
        "lem"
      ],
      [
        "ar",
        "ri"
      ],
      [
        "ret",
        "our"
      ],
      [
        "jo",
        "b"
      ],
      [
        "zeb",
        "y"
      ],
      [
        "mchi",
        "t"
      ],
      [
        "9od",
        "ret"
      ],
      [
        "anni",
        "versa"
      ],
      [
        "3",
        "raf"
      ],
      [
        "9",
        "el"
      ],
      [
        "a",
        "5er"
      ],
      [
        "s",
        "raf"
      ],
      [
        "le",
        "na"
      ],
      [
        "le",
        "ur"
      ],
      [
        "sa",
        "5"
      ],
      [
        "es",
        "h"
      ],
      [
        "da",
        "3"
      ],
      [
        "dha",
        "w"
      ],
      [
        "wel",
        "dik"
      ],
      [
        "ta3",
        "mil"
      ],
      [
        "min",
        "ha"
      ],
      [
        "an",
        "na"
      ],
      [
        "taw",
        "fi9"
      ],
      [
        "far",
        "7a"
      ],
      [
        "gh",
        "neya"
      ],
      [
        "may",
        "ji"
      ],
      [
        "con",
        "tra"
      ],
      [
        "tech",
        "ri"
      ],
      [
        "meh",
        "ri"
      ],
      [
        "okh",
        "ra"
      ],
      [
        "b",
        "he"
      ],
      [
        "e",
        "ra"
      ],
      [
        "i",
        "di"
      ],
      [
        "l",
        "7"
      ],
      [
        "m",
        "taa"
      ],
      [
        "r",
        "u"
      ],
      [
        "t",
        "7ib"
      ],
      [
        "ma",
        "fama"
      ],
      [
        "li",
        "hom"
      ],
      [
        "hh",
        "om"
      ],
      [
        "de",
        "z"
      ],
      [
        "be",
        "9i"
      ],
      [
        "dha",
        "7"
      ],
      [
        "ro",
        "7ek"
      ],
      [
        "3la",
        "ch"
      ],
      [
        "ta3",
        "ti"
      ],
      [
        "ho",
        "t"
      ],
      [
        "no",
        "te"
      ],
      [
        "ham",
        "za"
      ],
      [
        "mas",
        "ha"
      ],
      [
        "3om",
        "ri"
      ],
      [
        "3om",
        "rou"
      ],
      [
        "y7eb",
        "ou"
      ],
      [
        "recrut",
        "ement"
      ],
      [
        "5",
        "id"
      ],
      [
        "9",
        "ef"
      ],
      [
        "c",
        "v"
      ],
      [
        "f",
        "tha"
      ],
      [
        "g",
        "es"
      ],
      [
        "g",
        "ol"
      ],
      [
        "j",
        "ma3"
      ],
      [
        "k",
        "oo"
      ],
      [
        "l",
        "ga"
      ],
      [
        "t",
        "ched"
      ],
      [
        "y",
        "bi"
      ],
      [
        "é",
        "e"
      ],
      [
        "ma",
        "mi"
      ],
      [
        "ta",
        "hiya"
      ],
      [
        "wa",
        "w"
      ],
      [
        "m3a",
        "ha"
      ],
      [
        "de",
        "ath"
      ],
      [
        "wi",
        "j"
      ],
      [
        "taw",
        "wa"
      ],
      [
        "9al",
        "bi"
      ],
      [
        "ab",
        "ed"
      ],
      [
        "3ay",
        "ch"
      ],
      [
        "dhi",
        "f"
      ],
      [
        "yezi",
        "na"
      ],
      [
        "b3a",
        "th"
      ],
      [
        "chn",
        "wa"
      ],
      [
        "maryou",
        "l"
      ],
      [
        "b",
        "hi"
      ],
      [
        "c",
        "ent"
      ],
      [
        "k",
        "rah"
      ],
      [
        "n",
        "u"
      ],
      [
        "la",
        "7a"
      ],
      [
        "si",
        "dek"
      ],
      [
        "7a",
        "bi"
      ],
      [
        "em",
        "i"
      ],
      [
        "da",
        "h"
      ],
      [
        "rou",
        "7ik"
      ],
      [
        "mo",
        "na"
      ],
      [
        "mo",
        "ins"
      ],
      [
        "de",
        "yma"
      ],
      [
        "zi",
        "z"
      ],
      [
        "3an",
        "na"
      ],
      [
        "mabrou",
        "uuk"
      ],
      [
        "ar",
        "bi"
      ],
      [
        "st",
        "or"
      ],
      [
        "ssi",
        "r"
      ],
      [
        "wa9",
        "tha"
      ],
      [
        "la7",
        "keya"
      ],
      [
        "mes",
        "kin"
      ],
      [
        "3in",
        "i"
      ],
      [
        "seb",
        "si"
      ],
      [
        "pi",
        "vo"
      ],
      [
        "zz",
        "z"
      ],
      [
        "dina",
        "r"
      ],
      [
        "pu",
        "b"
      ],
      [
        "9a3",
        "da"
      ],
      [
        "ya3ti",
        "kom"
      ],
      [
        "messa",
        "ge"
      ],
      [
        "c",
        "er"
      ],
      [
        "d",
        "mou"
      ],
      [
        "n",
        "enta5"
      ],
      [
        "t",
        "nik"
      ],
      [
        "y",
        "ta"
      ],
      [
        "ra",
        "you"
      ],
      [
        "3a",
        "ch"
      ],
      [
        "3a",
        "aa"
      ],
      [
        "wa",
        "tan"
      ],
      [
        "sa",
        "lim"
      ],
      [
        "sa",
        "la7"
      ],
      [
        "sa",
        "if"
      ],
      [
        "si",
        "k"
      ],
      [
        "fa",
        "dina"
      ],
      [
        "mi",
        "r"
      ],
      [
        "bar",
        "k"
      ],
      [
        "ro",
        "c"
      ],
      [
        "pa",
        "ro"
      ],
      [
        "ama",
        "l"
      ],
      [
        "sou",
        "b"
      ],
      [
        "ber",
        "rasmi"
      ],
      [
        "leb",
        "es"
      ],
      [
        "thi",
        "9a"
      ],
      [
        "yah",
        "f"
      ],
      [
        "sa7a",
        "7"
      ],
      [
        "7al",
        "9a"
      ],
      [
        "mri",
        "dh"
      ],
      [
        "yons",
        "rek"
      ],
      [
        "vid",
        "é"
      ],
      [
        "b",
        "lh"
      ],
      [
        "e",
        "jam3iya"
      ],
      [
        "e",
        "friki"
      ],
      [
        "f",
        "fa"
      ],
      [
        "k",
        "l"
      ],
      [
        "t",
        "l"
      ],
      [
        "y",
        "ra"
      ],
      [
        "y",
        "9a"
      ],
      [
        "è",
        "n"
      ],
      [
        "cha",
        "l"
      ],
      [
        "ri",
        "s"
      ],
      [
        "ye",
        "7i"
      ],
      [
        "mo",
        "t"
      ],
      [
        "nes",
        "ma"
      ],
      [
        "dou",
        "h"
      ],
      [
        "mar",
        "tou"
      ],
      [
        "tu",
        "re"
      ],
      [
        "ar",
        "d"
      ],
      [
        "a3",
        "mlou"
      ],
      [
        "do",
        "c"
      ],
      [
        "9al",
        "leb"
      ],
      [
        "mas",
        "2"
      ],
      [
        "san",
        "s"
      ],
      [
        "zeb",
        "bi"
      ],
      [
        "bas",
        "ket"
      ],
      [
        "jbou",
        "j"
      ],
      [
        "alg",
        "éri"
      ],
      [
        "youtu",
        "be"
      ],
      [
        "a",
        "da"
      ],
      [
        "a",
        "taw"
      ],
      [
        "k",
        "eb"
      ],
      [
        "n",
        "ji"
      ],
      [
        "n",
        "mout"
      ],
      [
        "s",
        "k"
      ],
      [
        "s",
        "lm"
      ],
      [
        "t",
        "kha"
      ],
      [
        "z",
        "en"
      ],
      [
        "z",
        "wa"
      ],
      [
        "na",
        "y"
      ],
      [
        "ta",
        "ni"
      ],
      [
        "et",
        "o"
      ],
      [
        "on",
        "t"
      ],
      [
        "ni",
        "3ma"
      ],
      [
        "m3a",
        "dheb"
      ],
      [
        "hou",
        "ch"
      ],
      [
        "ss",
        "ed"
      ],
      [
        "5a",
        "rej"
      ],
      [
        "min",
        "hom"
      ],
      [
        "ga",
        "d"
      ],
      [
        "kha",
        "wla"
      ],
      [
        "raj",
        "3"
      ],
      [
        "qu",
        "el"
      ],
      [
        "ine",
        "ur"
      ],
      [
        "bla",
        "sa"
      ],
      [
        "ssi",
        "on"
      ],
      [
        "m3",
        "lem"
      ],
      [
        "nah",
        "tha"
      ],
      [
        "rai",
        "is"
      ],
      [
        "com",
        "p"
      ],
      [
        "ra2",
        "iss"
      ],
      [
        "9a3",
        "din"
      ],
      [
        "anniversa",
        "ire"
      ],
      [
        "3",
        "bou"
      ],
      [
        "7",
        "yet"
      ],
      [
        "b",
        "ess"
      ],
      [
        "g",
        "ent"
      ],
      [
        "h",
        "la"
      ],
      [
        "k",
        "es"
      ],
      [
        "o",
        "h"
[...]
