{
  "version": "1.0",
  "truncation": null,
  "padding": null,
  "added_tokens": [
    {
      "id": 0,
      "content": "[UNK]",
      "single_word": false,
      "lstrip": false,
      "rstrip": false,
      "normalized": false,
      "special": true
    },
    {
      "id": 1,
      "content": "[CLS]",
      "single_word": false,
      "lstrip": false,
      "rstrip": false,
      "normalized": false,
      "special": true
    },
    {
      "id": 2,
      "content": "[SEP]",
      "single_word": false,
      "lstrip": false,
      "rstrip": false,
      "normalized": false,
      "special": true
    },
    {
      "id": 3,
      "content": "[PAD]",
      "single_word": false,
      "lstrip": false,
      "rstrip": false,
      "normalized": false,
      "special": true
    },
    {
      "id": 4,
      "content": "[MASK]",
      "single_word": false,
      "lstrip": false,
      "rstrip": false,
      "normalized": false,
      "special": true
    }
  ],
  "normalizer": null,
  "pre_tokenizer": {
    "type": "Whitespace"
  },
  "post_processor": null,
  "decoder": null,
  "model": {
    "type": "BPE",
    "dropout": null,
    "unk_token": "[UNK]",
    "continuing_subword_prefix": null,
    "end_of_word_suffix": null,
    "fuse_unk": false,
    "byte_fallback": false,
    "ignore_merges": false,
    "vocab": {
      "[UNK]": 0,
      "[CLS]": 1,
      "[SEP]": 2,
      "[PAD]": 3,
      "[MASK]": 4,
      "'": 5,
      "-": 6,
      ".": 7,
      "0": 8,
      "1": 9,
      "2": 10,
      "3": 11,
      "4": 12,
      "5": 13,
      "6": 14,
      "7": 15,
      "8": 16,
      "9": 17,
      "?": 18,
      "_": 19,
      "a": 20,
      "b": 21,
      "c": 22,
      "d": 23,
      "e": 24,
      "f": 25,
      "g": 26,
      "h": 27,
      "i": 28,
      "j": 29,
      "k": 30,
      "l": 31,
      "m": 32,
      "n": 33,
      "o": 34,
      "p": 35,
      "q": 36,
      "r": 37,
      "s": 38,
      "t": 39,
      "u": 40,
      "v": 41,
      "w": 42,
      "x": 43,
      "y": 44,
      "z": 45,
      "²": 46,
      "³": 47,
      "¹": 48,
      "ß": 49,
      "à": 50,
      "á": 51,
      "â": 52,
      "ã": 53,
      "ä": 54,
      "å": 55,
      "æ": 56,
      "ç": 57,
      "è": 58,
      "é": 59,
      "ê": 60,
      "ë": 61,
      "ì": 62,
      "í": 63,
      "î": 64,
      "ï": 65,
      "ñ": 66,
      "ò": 67,
      "ó": 68,
      "ô": 69,
      "õ": 70,
      "ö": 71,
      "ø": 72,
      "ù": 73,
      "ú": 74,
      "û": 75,
      "ü": 76,
      "ý": 77,
      "ÿ": 78,
      "ā": 79,
      "ă": 80,
      "ć": 81,
      "ď": 82,
      "đ": 83,
      "ĕ": 84,
      "ė": 85,
      "ę": 86,
      "ě": 87,
      "į": 88,
      "ı": 89,
      "ķ": 90,
      "ĺ": 91,
      "ļ": 92,
      "ł": 93,
      "ő": 94,
      "œ": 95,
      "ŕ": 96,
      "ş": 97,
      "ǻ": 98,
      "ǿ": 99,
      "ȝ": 100,
      "ə": 101,
      "١": 102,
      "٧": 103,
      "ệ": 104,
      "﻿": 105,
      "ou": 106,
      "ha": 107,
      "ma": 108,
      "ra": 109,
      "la": 110,
      "el": 111,
      "ch": 112,
      "li": 113,
      "na": 114,
      "ya": 115,
      "ta": 116,
      "3a": 117,
      "en": 118,
      "le": 119,
      "bi": 120,
      "wa": 121,
      "fi": 122,
      "ba": 123,
      "in": 124,
      "et": 125,
      "sa": 126,
      "om": 127,
      "es": 128,
      "ek": 129,
      "er": 130,
      "cha": 131,
      "ti": 132,
      "hi": 133,
      "ka": 134,
      "ed": 135,
      "si": 136,
      "ri": 137,
      "7a": 138,
      "ja": 139,
      "fa": 140,
      "em": 141,
      "hh": 142,
      "ech": 143,
      "ki": 144,
      "eb": 145,
      "lah": 146,
      "on": 147,
      "lou": 148,
      "di": 149,
      "da": 150,
      "ni": 151,
      "tou": 152,
      "al": 153,
      "rabi": 154,
      "ol": 155,
      "lim": 156,
      "m3a": 157,
      "slim": 158,
      "il": 159,
      "mou": 160,
      "re": 161,
      "9a": 162,
      "hom": 163,
      "bou": 164,
      "te": 165,
      "rou": 166,
      "kol": 167,
      "hou": 168,
      "kou": 169,
      "mi": 170,
      "ye": 171,
      "kom": 172,
      "ca": 173,
      "bra": 174,
      "vo": 175,
      "me": 176,
      "ss": 177,
      "mo": 178,
      "5a": 179,
      "hhh": 180,
      "3i": 181,
      "men": 182,
      "ne": 183,
      "bar": 184,
      "de": 185,
      "bravo": 186,
      "za": 187,
      "is": 188,
      "be": 189,
      "lem": 190,
      "or": 191,
      "ji": 192,
      "we": 193,
      "th": 194,
      "bel": 195,
      "lik": 196,
      "aa": 197,
      "tha": 198,
      "nes": 199,
      "dha": 200,
      "to": 201,
      "mel": 202,
      "llah": 203,
      "bech": 204,
      "ken": 205,
      "zi": 206,
      "ro": 207,
      "3la": 208,
      "rab": 209,
      "7i": 210,
      "wel": 211,
      "ir": 212,
      "ta3": 213,
      "lo": 214,
      "dh": 215,
      "m3ak": 216,
      "dou": 217,
      "pa": 218,
      "min": 219,
      "allah": 220,
      "ga": 221,
      "chi": 222,
      "lu": 223,
      "ii": 224,
      "kh": 225,
      "slou": 226,
      "jou": 227,
      "eli": 228,
      "oo": 229,
      "mar": 230,
      "an": 231,
      "fou": 232,
      "fe": 233,
      "jam": 234,
      "kha": 235,
      "ent": 236,
      "slouma": 237,
      "raj": 238,
      "enti": 239,
      "ama": 240,
      "3li": 241,
      "tu": 242,
      "qu": 243,
      "3an": 244,
      "lek": 245,
      "lla": 246,
      "you": 247,
      "wi": 248,
      "lh": 249,
      "challah": 250,
      "3b": 251,
      "ak": 252,
      "koun": 253,
      "ho": 254,
      "ge": 255,
      "led": 256,
      "clu": 257,
      "se": 258,
      "yet": 259,
      "9i": 260,
      "je": 261,
      "9ou": 262,
      "ya3": 263,
      "ma3": 264,
      "nou": 265,
      "hed": 266,
      "3am": 267,
      "yar": 268,
      "rabbi": 269,
      "ur": 270,
      "mab": 271,
      "3ala": 272,
      "a7": 273,
      "chou": 274,
      "ter": 275,
      "ria": 276,
      "7eb": 277,
      "ah": 278,
      "kif": 279,
      "fil": 280,
      "sou": 281,
      "fih": 282,
      "dem": 283,
      "tek": 284,
      "00": 285,
      "ena": 286,
      "fri": 287,
      "les": 288,
      "barcha": 289,
      "tawa": 290,
      "taw": 291,
      "man": 292,
      "jam3i": 293,
      "mal": 294,
      "id": 295,
      "ve": 296,
      "it": 297,
      "mabrou": 298,
      "zou": 299,
      "tounes": 300,
      "haha": 301,
      "club": 302,
      "pr": 303,
      "ssa": 304,
      "bo": 305,
      "gha": 306,
      "ce": 307,
      "no": 308,
      "mat": 309,
      "he": 310,
      "dima": 311,
      "ke": 312,
      "mabrouk": 313,
      "ber": 314,
      "bara": 315,
      "ine": 316,
      "fel": 317,
      "nis": 318,
      "dek": 319,
      "elli": 320,
      "mouch": 321,
      "tar": 322,
      "bon": 323,
      "flou": 324,
      "leb": 325,
      "wa7": 326,
      "wla": 327,
      "5ir": 328,
      "far": 329,
      "win": 330,
      "chay": 331,
      "ana": 332,
      "ben": 333,
      "met": 334,
      "ok": 335,
      "tr": 336,
      "3al": 337,
      "vi": 338,
      "ar": 339,
      "3ou": 340,
      "riahi": 341,
      "che": 342,
      "mer": 343,
      "3lik": 344,
      "ala": 345,
      "hem": 346,
      "ham": 347,
      "lé": 348,
      "yo": 349,
      "wala": 350,
      "kan": 351,
      "lel": 352,
      "say": 353,
      "hir": 354,
      "mala": 355,
      "ess": 356,
      "ncha": 357,
      "mil": 358,
      "bla": 359,
      "ali": 360,
      "ba3": 361,
      "ta7": 362,
      "ci": 363,
      "a3": 364,
      "na3": 365,
      "do": 366,
      "brabi": 367,
      "mta3": 368,
      "ko": 369,
      "heb": 370,
      "ff": 371,
      "tna": 372,
      "ili": 373,
      "tra": 374,
      "wen": 375,
      "rajel": 376,
      "au": 377,
      "cha3b": 378,
      "inti": 379,
      "9o": 380,
      "chkoun": 381,
      "gh": 382,
      "est": 383,
      "yek": 384,
      "bet": 385,
      "net": 386,
      "st": 387,
      "7ou": 388,
      "may": 389,
      "mech": 390,
      "fik": 391,
      "let": 392,
      "wal": 393,
      "9al": 394,
      "rak": 395,
      "ssi": 396,
      "lkol": 397,
      "la3": 398,
      "hal": 399,
      "mon": 400,
      "bal": 401,
      "3ad": 402,
      "pe": 403,
      "flous": 404,
      "mas": 405,
      "ran": 406,
      "ze": 407,
      "tet": 408,
      "mn": 409,
      "bled": 410,
      "que": 411,
      "har": 412,
      "tta": 413,
      "con": 414,
      "zem": 415,
      "kima": 416,
      "m3alem": 417,
      "het": 418,
      "bir": 419,
      "ik": 420,
      "mah": 421,
      "ja3": 422,
      "am": 423,
      "lil": 424,
      "thi": 425,
      "tal": 426,
      "ref": 427,
      "tan": 428,
      "nchallah": 429,
      "wali": 430,
      "wa9": 431,
      "so": 432,
      "yes": 433,
      "la7": 434,
      "wah": 435,
      "tt": 436,
      "jem": 437,
      "bil": 438,
      "hek": 439,
      "haw": 440,
      "had": 441,
      "3le": 442,
      "kal": 443,
      "tah": 444,
      "dik": 445,
      "as": 446,
      "tion": 447,
      "ya7": 448,
      "a7na": 449,
      "san": 450,
      "our": 451,
      "te3": 452,
      "yi": 453,
      "ez": 454,
      "inchallah": 455,
      "yy": 456,
      "hour": 457,
      "wlh": 458,
      "hak": 459,
      "tik": 460,
      "ab": 461,
      "mek": 462,
      "3ar": 463,
      "jam3iya": 464,
      "7aja": 465,
      "5dem": 466,
      "m3": 467,
      "oi": 468,
      "kk": 469,
      "mais": 470,
      "yah": 471,
      "uu": 472,
      "haka": 473,
      "nek": 474,
      "ll": 475,
      "alah": 476,
      "nah": 477,
      "ma7": 478,
      "rej": 479,
      "5i": 480,
      "kel": 481,
      "ai": 482,
      "bes": 483,
      "chouf": 484,
      "khir": 485,
      "tech": 486,
      "toun": 487,
      "fama": 488,
      "fiha": 489,
      "7o": 490,
      "kla": 491,
      "sel": 492,
      "tre": 493,
      "howa": 494,
      "yed": 495,
      "sar": 496,
      "mes": 497,
      "par": 498,
      "rai": 499,
      "ram": 500,
      "jel": 501,
      "sh": 502,
      "tel": 503,
      "un": 504,
      "mak": 505,
      "7a9": 506,
      "sta": 507,
      "pres": 508,
      "m3al": 509,
      "rah": 510,
      "din": 511,
      "bik": 512,
      "mé": 513,
      "5ali": 514,
      "com": 515,
      "cou": 516,
      "fri9i": 517,
      "zel": 518,
      "5al": 519,
      "po": 520,
      "7ata": 521,
      "cha3": 522,
      "ej": 523,
      "va": 524,
      "9oul": 525,
      "rr": 526,
      "sba": 527,
      "kar": 528,
      "wallah": 529,
      "3lina": 530,
      "moch": 531,
      "gu": 532,
      "tunis": 533,
      "illi": 534,
      "ment": 535,
      "incha": 536,
      "zid": 537,
      "000": 538,
      "raw": 539,
      "3ay": 540,
      "des": 541,
      "chwa": 542,
      "kin": 543,
      "ret": 544,
      "3bed": 545,
      "ay": 546,
      "jo": 547,
      "3in": 548,
      "kon": 549,
      "cho": 550,
      "dhi": 551,
      "tin": 552,
      "jeb": 553,
      "for": 554,
      "sen": 555,
      "mr": 556,
      "tounis": 557,
      "nik": 558,
      "houm": 559,
      "wer": 560,
      "dé": 561,
      "té": 562,
      "nisi": 563,
      "sid": 564,
      "jam3ia": 565,
      "ser": 566,
      "maa": 567,
      "rek": 568,
      "med": 569,
      "nn": 570,
      "marzou": 571,
      "ef": 572,
      "enta": 573,
      "merci": 574,
      "eur": 575,
      "klem": 576,
      "lam": 577,
      "mlou": 578,
      "bien": 579,
      "rana": 580,
      "dawla": 581,
      "bek": 582,
      "yé": 583,
      "mte3": 584,
      "5ou": 585,
      "3lih": 586,
      "mara": 587,
      "9ad": 588,
      "yar7": 589,
      "ble": 590,
      "7ad": 591,
      "houma": 592,
      "5ater": 593,
      "wil": 594,
      "ia": 595,
      "bih": 596,
      "bé": 597,
      "mm": 598,
      "5er": 599,
      "ched": 600,
      "walla": 601,
      "dar": 602,
      "hel": 603,
      "mna": 604,
      "ras": 605,
      "koul": 606,
      "lia": 607,
      "raji": 608,
      "3ed": 609,
      "bin": 610,
      "tunisi": 611,
      "mch": 612,
      "fo": 613,
      "jom": 614,
      "pour": 615,
      "7ek": 616,
      "9ol": 617,
      "lha": 618,
      "tes": 619,
      "yel": 620,
      "koum": 621,
      "wet": 622,
      "sara": 623,
      "ale": 624,
      "ach": 625,
      "jib": 626,
      "presid": 627,
      "yna": 628,
      "ta7a": 629,
      "war": 630,
      "yeb": 631,
      "belle": 632,
      "jam3": 633,
      "pas": 634,
      "lna": 635,
      "hedha": 636,
      "n7eb": 637,
      "pro": 638,
      "né": 639,
      "barra": 640,
      "haja": 641,
      "ma3a": 642,
      "3id": 643,
      "nin": 644,
      "bravooo": 645,
      "feh": 646,
      "seb": 647,
      "jet": 648,
      "yer": 649,
      "sami": 650,
      "5ra": 651,
      "ad": 652,
      "bna": 653,
      "im": 654,
      "tab": 655,
      "ee": 656,
      "mana": 657,
      "walah": 658,
      "president": 659,
      "yen": 660,
      "yara": 661,
      "kil": 662,
      "ra2": 663,
      "eda": 664,
      "raf": 665,
      "ste": 666,
      "houwa": 667,
      "lk": 668,
      "3aw": 669,
      "ila": 670,
      "20": 671,
      "maw": 672,
      "maak": 673,
      "ire": 674,
      "vou": 675,
      "jdi": 676,
      "sah": 677,
      "ml": 678,
      "3and": 679,
      "ina": 680,
      "wenti": 681,
      "sal": 682,
      "wl": 683,
      "liya": 684,
      "hata": 685,
      "hiya": 686,
      "tounsi": 687,
      "hab": 688,
      "malla": 689,
      "bad": 690,
      "qui": 691,
      "hm": 692,
      "nchalah": 693,
      "wled": 694,
      "twa": 695,
      "s7i": 696,
      "yeh": 697,
      "1000": 698,
      "oui": 699,
      "7am": 700,
      "fer": 701,
      "sa7a": 702,
      "bonne": 703,
      "ket": 704,
      "3mal": 705,
      "nch": 706,
      "yech": 707,
      "yem": 708,
      "go": 709,
      "ness": 710,
      "lin": 711,
      "mor": 712,
      "ut": 713,
      "nhar": 714,
      "su": 715,
      "3ab": 716,
      "ahna": 717,
      "her": 718,
      "tfa": 719,
      "we7": 720,
      "m3allem": 721,
      "vrai": 722,
      "vive": 723,
      "rahou": 724,
      "tron": 725,
      "fhem": 726,
      "ns": 727,
      "res": 728,
      "dit": 729,
      "hmou": 730,
      "lahi": 731,
      "bach": 732,
      "t7": 733,
      "rais": 734,
      "t7eb": 735,
      "9bal": 736,
      "tir": 737,
      "ther": 738,
      "patron": 739,
      "eya": 740,
      "fr": 741,
      "ey": 742,
      "him": 743,
      "by": 744,
      "ooo": 745,
      "sur": 746,
      "don": 747,
      "wra": 748,
      "ba3d": 749,
      "bbi": 750,
      "3o": 751,
      "ywa": 752,
      "clubi": 753,
      "3ma": 754,
      "ten": 755,
      "br": 756,
      "bch": 757,
      "nas": 758,
      "nt": 759,
      "fran": 760,
      "pi": 761,
      "taraji": 762,
      "ms": 763,
      "zeb": 764,
      "dam": 765,
      "yezi": 766,
      "lot": 767,
      "7al": 768,
      "vous": 769,
      "at": 770,
      "afri": 771,
      "sa7": 772,
      "jomhour": 773,
      "saha": 774,
      "yal": 775,
      "fin": 776,
      "weld": 777,
      "leh": 778,
      "sir": 779,
      "koura": 780,
      "der": 781,
      "rahi": 782,
      "hada": 783,
      "tak": 784,
      "tfou": 785,
      "pré": 786,
      "macha": 787,
      "touma": 788,
      "kem": 789,
      "hay": 790,
      "ra9": 791,
      "ons": 792,
      "3om": 793,
      "naf": 794,
      "fff": 795,
      "chwaya": 796,
      "3andou": 797,
      "yfa": 798,
      "lina": 799,
      "a9": 800,
      "m3ana": 801,
      "hedhi": 802,
      "wela": 803,
      "cha3eb": 804,
      "ehi": 805,
      "youm": 806,
      "7na": 807,
      "gou": 808,
      "yji": 809,
      "han": 810,
      "behi": 811,
      "den": 812,
      "mazel": 813,
      "da5": 814,
      "mach": 815,
      "7atta": 816,
      "bira": 817,
      "zar": 818,
      "teb": 819,
      "rage": 820,
      "kbir": 821,
      "zz": 822,
      "hahahaha": 823,
      "ju": 824,
      "bour": 825,
      "theb": 826,
      "marzouki": 827,
      "encha": 828,
      "feha": 829,
      "ver": 830,
      "tas": 831,
      "dina": 832,
      "3ib": 833,
      "nheb": 834,
      "aime": 835,
      "7ba": 836,
      "ib": 837,
      "lm": 838,
      "friki": 839,
      "joueur": 840,
      "sayeb": 841,
      "wa7ed": 842,
      "like": 843,
      "gage": 844,
      "tsa": 845,
      "bouk": 846,
      "du": 847,
      "bl": 848,
      "ker": 849,
      "nor": 850,
      "pu": 851,
      "bia": 852,
      "biya": 853,
      "page": 854,
      "eh": 855,
      "ba7": 856,
      "yr": 857,
      "rat": 858,
      "beb": 859,
      "hé": 860,
      "ly": 861,
      "tem": 862,
      "y7eb": 863,
      "lib": 864,
      "por": 865,
      "ta7ki": 866,
      "rya": 867,
      "fara": 868,
      "re9": 869,
      "fina": 870,
      "rjel": 871,
      "hadha": 872,
      "kam": 873,
      "sse": 874,
      "s7i7": 875,
      "ta3mel": 876,
      "5ed": 877,
      "ww": 878,
      "elkol": 879,
      "bah": 880,
      "plu": 881,
      "son": 882,
      "wo": 883,
      "a7la": 884,
      "sident": 885,
      "barka": 886,
      "vp": 887,
      "nsa": 888,
      "tla3": 889,
      "ul": 890,
      "zeda": 891,
      "ave": 892,
      "edi": 893,
      "wé": 894,
      "b3a": 895,
      "aya": 896,
      "khi": 897,
      "weli": 898,
      "keya": 899,
      "gal": 900,
      "ler": 901,
      "beh": 902,
      "boss": 903,
      "ger": 904,
      "per": 905,
      "t3a": 906,
      "fi9": 907,
      "tunisie": 908,
      "alik": 909,
      "tji": 910,
      "yka": 911,
      "inta": 912,
      "kifech": 913,
      "af": 914,
      "nem": 915,
      "char": 916,
      "iii": 917,
      "dan": 918,
      "choufou": 919,
      "zebi": 920,
      "aka": 921,
      "hia": 922,
      "africa": 923,
      "svp": 924,
      "taa": 925,
      "jah": 926,
      "gi": 927,
      "ré": 928,
      "tro": 929,
      "rit": 930,
      "the": 931,
      "3lech": 932,
      "fl": 933,
      "reb": 934,
      "bb": 935,
      "zin": 936,
      "mma": 937,
      "tka": 938,
      "fihom": 939,
      "lazem": 940,
      "rani": 941,
      "lih": 942,
      "kouma": 943,
      "akber": 944,
      "président": 945,
      "hetha": 946,
      "3ak": 947,
      "ant": 948,
      "dja": 949,
      "ysa": 950,
      "mahou": 951,
      "riya": 952,
      "brabbi": 953,
      "co": 954,
      "ux": 955,
      "7ab": 956,
      "7as": 957,
      "bli": 958,
      "e3": 959,
      "ema": 960,
      "ty": 961,
      "hana": 962,
      "ray": 963,
      "vraiment": 964,
      "fet": 965,
      "fech": 966,
      "khou": 967,
      "ra2is": 968,
      "mha": 969,
      "une": 970,
      "yaa": 971,
      "gar": 972,
      "siya": 973,
      "3andi": 974,
      "jaw": 975,
      "ssem": 976,
      "plus": 977,
      "maj": 978,
      "kolna": 979,
      "sin": 980,
      "bina": 981,
      "bro": 982,
      "rfou": 983,
      "amin": 984,
      "bu": 985,
      "biha": 986,
      "wej": 987,
      "mu": 988,
      "tkoun": 989,
      "chan": 990,
      "9a3": 991,
      "courage": 992,
      "ih": 993,
      "mt": 994,
      "rik": 995,
      "tour": 996,
      "avec": 997,
      "e7": 998,
      "jen": 999,
      "kbira": 1000,
      "up": 1001,
      "mage": 1002,
      "ta9": 1003,
      "eka": 1004,
      "mik": 1005,
      "ké": 1006,
      "bit": 1007,
      "edh": 1008,
      "toula": 1009,
      "m3ah": 1010,
      "mout": 1011,
      "ça": 1012,
      "na9": 1013,
      "3asba": 1014,
      "mka": 1015,
      "jour": 1016,
      "lebled": 1017,
      "bellehi": 1018,
      "msa": 1019,
      "africain": 1020,
      "a5": 1021,
      "tout": 1022,
      "akther": 1023,
      "ya3mel": 1024,
      "donc": 1025,
      "ela": 1026,
      "él": 1027,
      "mani": 1028,
      "chno": 1029,
      "toi": 1030,
      "awel": 1031,
      "ban": 1032,
      "dhou": 1033,
      "tari": 1034,
      "belehi": 1035,
      "fla": 1036,
      "l9a": 1037,
      "hatha": 1038,
      "8a": 1039,
      "tit": 1040,
      "jal": 1041,
      "ba3ed": 1042,
      "mela": 1043,
      "sam": 1044,
      "marbou": 1045,
      "wa9t": 1046,
      "fek": 1047,
      "rin": 1048,
      "snin": 1049,
      "lak": 1050,
      "yab": 1051,
      "10": 1052,
      "f9": 1053,
      "3adi": 1054,
      "fikom": 1055,
      "rib": 1056,
      "ye7": 1057,
      "loo": 1058,
      "ya3ti": 1059,
      "ts": 1060,
      "jdid": 1061,
      "mej": 1062,
      "3likom": 1063,
      "3andek": 1064,
      "sti": 1065,
      "lefri9i": 1066,
      "fa9": 1067,
      "niya": 1068,
      "if": 1069,
      "lab": 1070,
      "7ay": 1071,
      "yma": 1072,
      "jab": 1073,
      "kir": 1074,
      "rou7ek": 1075,
      "3el": 1076,
      "mhour": 1077,
      "3a9": 1078,
      "te7": 1079,
      "3ich": 1080,
      "klay": 1081,
      "nia": 1082,
      "alf": 1083,
      "khali": 1084,
      "nchalla": 1085,
      "blad": 1086,
      "ich": 1087,
      "hethi": 1088,
      "enty": 1089,
      "nahdha": 1090,
      "king": 1091,
      "mchi": 1092,
      "tf": 1093,
      "3lihom": 1094,
      "3et": 1095,
      "9alou": 1096,
      "yh": 1097,
      "far5": 1098,
      "3eb": 1099,
      "mem": 1100,
      "wou": 1101,
      "det": 1102,
      "shi": 1103,
      "rap": 1104,
      "dim": 1105,
      "boun": 1106,
      "jeh": 1107,
      "bor": 1108,
      "khal": 1109,
      "rasmi": 1110,
      "bn": 1111,
      "ement": 1112,
      "bravobravo": 1113,
      "kalb": 1114,
      "atta": 1115,
      "ghir": 1116,
      "teh": 1117,
      "ma3ad": 1118,
      "tana": 1119,
      "fach": 1120,
      "love": 1121,
      "inchalah": 1122,
      "ct": 1123,
      "nech": 1124,
      "7it": 1125,
      "yelzem": 1126,
      "baba": 1127,
      "dis": 1128,
      "hba": 1129,
      "mos": 1130,
      "dd": 1131,
      "e5dem": 1132,
      "tk": 1133,
      "sha": 1134,
      "eni": 1135,
      "boutoula": 1136,
      "neya": 1137,
      "alex": 1138,
      "ton": 1139,
      "zouz": 1140,
      "ra7": 1141,
      "boub": 1142,
      "ans": 1143,
      "tinu": 1144,
      "3l": 1145,
      "5o": 1146,
      "nsi": 1147,
      "lit": 1148,
      "nak": 1149,
      "3ada": 1150,
      "omek": 1151,
      "continu": 1152,
      "nchlh": 1153,
      "5edma": 1154,
      "mra": 1155,
      "t5a": 1156,
      "elle": 1157,
      "ssou": 1158,
      "maz": 1159,
      "big": 1160,
      "four": 1161,
      "non": 1162,
      "yos": 1163,
      "lotfi": 1164,
      "t9oul": 1165,
      "lip": 1166,
      "lezem": 1167,
      "rou7": 1168,
      "jami": 1169,
      "and": 1170,
      "a9wa": 1171,
      "pla": 1172,
      "zzi": 1173,
      "top": 1174,
      "dheb": 1175,
      "chnowa": 1176,
      "enna": 1177,
      "be7": 1178,
      "has": 1179,
      "ex": 1180,
      "tv": 1181,
      "7ib": 1182,
      "hez": 1183,
      "ya7ki": 1184,
      "kamel": 1185,
      "koll": 1186,
      "ya3tik": 1187,
      "nchala": 1188,
      "thom": 1189,
      "raja3": 1190,
      "9a7ba": 1191,
      "bouh": 1192,
      "9oulou": 1193,
      "o5": 1194,
      "o5ra": 1195,
      "walahi": 1196,
      "cef": 1197,
      "aw": 1198,
      "ys": 1199,
      "yin": 1200,
      "bouna": 1201,
      "ye5i": 1202,
      "2a": 1203,
      "dr": 1204,
      "dir": 1205,
      "yar7mou": 1206,
      "eu": 1207,
      "la3bed": 1208,
      "tef": 1209,
      "aaa": 1210,
      "yk": 1211,
      "ykoun": 1212,
      "mri": 1213,
      "leha": 1214,
      "winti": 1215,
      "sed": 1216,
      "raby": 1217,
      "moncef": 1218,
      "ta7ana": 1219,
      "b1": 1220,
      "bsara": 1221,
      "deb": 1222,
      "hon": 1223,
      "of": 1224,
      "nar": 1225,
      "bat": 1226,
      "chiboub": 1227,
      "del": 1228,
      "lclub": 1229,
      "ès": 1230,
      "law": 1231,
      "monta": 1232,
      "hakka": 1233,
      "hani": 1234,
      "ahla": 1235,
      "quipe": 1236,
      "5d": 1237,
      "famma": 1238,
      "yef": 1239,
      "i7": 1240,
      "bas": 1241,
      "degage": 1242,
      "jbou": 1243,
      "kor": 1244,
      "sad": 1245,
      "7ar": 1246,
      "joumhour": 1247,
      "khater": 1248,
      "ida": 1249,
      "pp": 1250,
      "chem": 1251,
      "flouss": 1252,
      "we7ed": 1253,
      "nayek": 1254,
      "3ana": 1255,
      "tfouh": 1256,
      "fes": 1257,
      "tous": 1258,
      "akbar": 1259,
      "forza": 1260,
      "jam3ya": 1261,
      "bha": 1262,
      "mla": 1263,
      "pfff": 1264,
      "meh": 1265,
      "match": 1266,
      "masa": 1267,
      "lehi": 1268,
      "beau": 1269,
      "yas": 1270,
      "tayara": 1271,
      "thar": 1272,
      "heka": 1273,
      "jr": 1274,
      "kleb": 1275,
      "yan": 1276,
      "tala": 1277,
      "ta3ref": 1278,
      "kifek": 1279,
      "ta7an": 1280,
      "jam3eya": 1281,
      "ation": 1282,
      "chô": 1283,
      "tif": 1284,
      "mez": 1285,
      "aid": 1286,
      "hor": 1287,
      "hadi": 1288,
      "enchallah": 1289,
      "jey": 1290,
      "kont": 1291,
      "loool": 1292,
      "7ka": 1293,
      "wata": 1294,
      "gran": 1295,
      "yess": 1296,
      "yak": 1297,
      "jan": 1298,
      "chômage": 1299,
      "bed": 1300,
      "okh": 1301,
      "tch": 1302,
      "mari": 1303,
      "end": 1304,
      "sion": 1305,
      "yarhmou": 1306,
      "chof": 1307,
      "jé": 1308,
      "y7": 1309,
      "yn": 1310,
      "yt": 1311,
      "y5a": 1312,
      "ing": 1313,
      "kina": 1314,
      "fe9": 1315,
      "rajil": 1316,
      "sanfara": 1317,
      "clip": 1318,
      "rye": 1319,
      "tat": 1320,
      "wensa": 1321,
      "normal": 1322,
      "echa3b": 1323,
      "n7": 1324,
      "yya": 1325,
      "zo": 1326,
      "labes": 1327,
      "car": 1328,
      "ep": 1329,
      "ifa": 1330,
      "zok": 1331,
      "3at": 1332,
      "9at": 1333,
      "neha": 1334,
      "7id": 1335,
      "mte": 1336,
      "rouhek": 1337,
      "mich": 1338,
      "marra": 1339,
      "tahki": 1340,
      "bi3": 1341,
      "za3ma": 1342,
      "weh": 1343,
      "gui": 1344,
      "7ram": 1345,
      "sor": 1346,
      "math": 1347,
      "to9": 1348,
      "ck": 1349,
      "ghi": 1350,
      "iji": 1351,
      "sem": 1352,
      "tor": 1353,
      "sil": 1354,
      "barna": 1355,
      "m3ek": 1356,
      "nta": 1357,
      "ona": 1358,
      "ple": 1359,
      "a7sen": 1360,
      "av": 1361,
      "hy": 1362,
      "pri": 1363,
      "tni": 1364,
      "na7": 1365,
      "wak": 1366,
      "ne9": 1367,
      "ghal": 1368,
      "wa7dek": 1369,
      "cpr": 1370,
      "set": 1371,
      "wes": 1372,
      "hahaha": 1373,
      "hadhi": 1374,
      "5alli": 1375,
      "chance": 1376,
      "cher": 1377,
      "yat": 1378,
      "kolha": 1379,
      "thawra": 1380,
      "maf": 1381,
      "chnou": 1382,
      "taf": 1383,
      "3liha": 1384,
      "5ouya": 1385,
      "hmd": 1386,
      "denya": 1387,
      "hathi": 1388,
      "naj": 1389,
      "sab": 1390,
      "wa7na": 1391,
      "echa": 1392,
      "thou": 1393,
      "ma9": 1394,
      "rahom": 1395,
      "jouer": 1396,
      "201": 1397,
      "ani": 1398,
      "krou": 1399,
      "lat": 1400,
      "lez": 1401,
      "dher": 1402,
      "yar7am": 1403,
      "poli": 1404,
      "akh": 1405,
      "rjou": 1406,
      "sna": 1407,
      "jay": 1408,
      "ye5dem": 1409,
      "a3mel": 1410,
      "ado": 1411,
      "yons": 1412,
      "mata": 1413,
      "wahed": 1414,
      "ette": 1415,
      "rec": 1416,
      "teur": 1417,
      "ghar": 1418,
      "d5": 1419,
      "kn": 1420,
      "sl": 1421,
      "3ali": 1422,
      "miboun": 1423,
      "5ay": 1424,
      "zina": 1425,
      "dwa": 1426,
      "kaf": 1427,
      "100": 1428,
      "gra": 1429,
      "gna": 1430,
      "jit": 1431,
      "ner": 1432,
      "ma5": 1433,
      "chy": 1434,
      "3alem": 1435,
      "hib": 1436,
      "eta": 1437,
      "i3": 1438,
      "hatta": 1439,
      "le7": 1440,
      "barnem": 1441,
      "wella": 1442,
      "film": 1443,
      "e9": 1444,
      "titre": 1445,
      "sia": 1446,
      "3andha": 1447,
      "milli": 1448,
      "lhom": 1449,
      "vu": 1450,
      "hat": 1451,
      "chok": 1452,
      "lef": 1453,
      "dhar": 1454,
      "wa7da": 1455,
      "continuation": 1456,
      "cu": 1457,
      "elha": 1458,
      "fa3": 1459,
      "daw": 1460,
      "mis": 1461,
      "douk": 1462,
      "n7ebou": 1463,
      "alexis": 1464,
      "mta": 1465,
      "twali": 1466,
      "ens": 1467,
      "cha5": 1468,
      "touna": 1469,
      "chbik": 1470,
      "fah": 1471,
      "sser": 1472,
      "nous": 1473,
      "yemchi": 1474,
      "clubiste": 1475,
      "fé": 1476,
      "rar": 1477,
      "lan": 1478,
      "ood": 1479,
      "walli": 1480,
      "djabou": 1481,
      "baa": 1482,
      "7ala": 1483,
      "3leh": 1484,
      "y3": 1485,
      "bellahi": 1486,
      "tofla": 1487,
      "mahouch": 1488,
      "brou": 1489,
      "ene": 1490,
      "wakil": 1491,
      "3amlou": 1492,
      "tres": 1493,
      "saw": 1494,
      "saber": 1495,
      "famech": 1496,
      "houa": 1497,
      "wallahi": 1498,
      "marbou7a": 1499,
      "fu": 1500,
      "hra": 1501,
      "lifri9i": 1502,
      "bihom": 1503,
      "9aw": 1504,
      "yyy": 1505,
      "3ba": 1506,
      "ded": 1507,
      "sol": 1508,
      "wrabi": 1509,
      "sa7bi": 1510,
      "foo": 1511,
      "slo": 1512,
      "chn": 1513,
      "kid": 1514,
      "mouna": 1515,
      "beji": 1516,
      "hedi": 1517,
      "trava": 1518,
      "3d": 1519,
      "az": 1520,
      "jer": 1521,
      "hid": 1522,
      "zarti": 1523,
      "grand": 1524,
      "travail": 1525,
      "3ez": 1526,
      "iss": 1527,
      "sli": 1528,
      "tla": 1529,
      "yda": 1530,
      "chek": 1531,
      "int": 1532,
      "9anet": 1533,
      "yezzi": 1534,
      "mezel": 1535,
      "9od": 1536,
      "yeser": 1537,
      "7mou": 1538,
      "hya": 1539,
      "hdem": 1540,
      "ta5": 1541,
      "ins": 1542,
      "anni": 1543,
      "quoi": 1544,
      "f9ek": 1545,
      "y3a": 1546,
      "yheb": 1547,
      "éri": 1548,
      "entouma": 1549,
      "lech": 1550,
      "walh": 1551,
      "kkk": 1552,
      "iin": 1553,
      "lyoum": 1554,
      "os": 1555,
      "yaaa": 1556,
      "lee": 1557,
      "bab": 1558,
      "touch": 1559,
      "mina": 1560,
      "3idek": 1561,
      "ma3adech": 1562,
      "dech": 1563,
      "t7a": 1564,
      "yit": 1565,
      "ence": 1566,
      "sala": 1567,
      "dak": 1568,
      "rou7ou": 1569,
      "fehri": 1570,
      "aj": 1571,
      "nh": 1572,
      "yhi": 1573,
      "ini": 1574,
      "kari": 1575,
      "zan": 1576,
      "weldi": 1577,
      "vide": 1578,
      "adore": 1579,
      "l3": 1580,
      "le5er": 1581,
      "ri9": 1582,
      "m3alim": 1583,
      "contre": 1584,
      "yar7em": 1585,
      "enchalah": 1586,
      "attaqu": 1587,
      "aal": 1588,
      "e5er": 1589,
      "good": 1590,
      "nd": 1591,
      "etna": 1592,
      "ja7": 1593,
      "jar": 1594,
      "homch": 1595,
      "mena": 1596,
      "yarham": 1597,
      "respe": 1598,
      "7k": 1599,
      "hech": 1600,
      "la9": 1601,
      "nat": 1602,
      "tay": 1603,
      "tique": 1604,
      "kat": 1605,
      "sidi": 1606,
      "faw": 1607,
      "m3akom": 1608,
      "barek": 1609,
      "beha": 1610,
      "heya": 1611,
      "raba": 1612,
      "lifriki": 1613,
      "hich": 1614,
      "notre": 1615,
      "bk": 1616,
      "bhom": 1617,
      "lè": 1618,
      "rad": 1619,
      "lad": 1620,
      "na7na": 1621,
      "thel": 1622,
      "zim": 1623,
      "9adech": 1624,
      "8ir": 1625,
      "ction": 1626,
      "llh": 1627,
      "tw": 1628,
      "belna": 1629,
      "chey": 1630,
      "mnin": 1631,
      "comme": 1632,
      "kén": 1633,
      "yesser": 1634,
      "e5": 1635,
      "omha": 1636,
      "mili": 1637,
      "mosta": 1638,
      "iwa": 1639,
      "t3": 1640,
      "las": 1641,
      "nabara": 1642,
      "louma": 1643,
      "louch": 1644,
      "clubisti": 1645,
      "honte": 1646,
      "9ra": 1647,
      "b5ir": 1648,
      "dra": 1649,
      "mcha": 1650,
      "wn": 1651,
      "wed": 1652,
      "nab": 1653,
      "bich": 1654,
      "mour": 1655,
      "9ar": 1656,
      "bouch": 1657,
      "5abet": 1658,
      "kho": 1659,
      "noun": 1660,
      "cham": 1661,
      "signa": 1662,
      "fad": 1663,
      "7ik": 1664,
      "3en": 1665,
      "abon": 1666,
      "twensa": 1667,
      "raho": 1668,
      "ennes": 1669,
      "essa": 1670,
      "kifeh": 1671,
      "loul": 1672,
      "rabii": 1673,
      "zah": 1674,
      "nos": 1675,
      "adi": 1676,
      "a3la": 1677,
      "cla": 1678,
      "i5": 1679,
      "yon": 1680,
      "7ak": 1681,
      "marzou9i": 1682,
      "jdida": 1683,
      "fed": 1684,
      "kra": 1685,
      "us": 1686,
      "etha": 1687,
      "alla": 1688,
      "menha": 1689,
      "aak": 1690,
      "nour": 1691,
      "video": 1692,
      "maya": 1693,
      "chri": 1694,
      "dhal": 1695,
      "aman": 1696,
      "lém": 1697,
      "my": 1698,
      "mè": 1699,
      "zer": 1700,
      "wasel": 1701,
      "toul": 1702,
      "zayed": 1703,
      "beli": 1704,
      "wa9tech": 1705,
      "dislike": 1706,
      "dine": 1707,
      "web": 1708,
      "fait": 1709,
      "boul": 1710,
      "menta": 1711,
      "bravoo": 1712,
      "zawali": 1713,
      "keep": 1714,
      "lb": 1715,
      "éé": 1716,
      "mad": 1717,
      "mada": 1718,
      "bikom": 1719,
      "bassem": 1720,
      "9a3ed": 1721,
      "ssel": 1722,
      "welli": 1723,
      "7or": 1724,
      "fy": 1725,
      "sma3": 1726,
      "tbarka": 1727,
      "tam": 1728,
      "bii": 1729,
      "salem": 1730,
      "mella": 1731,
      "rod": 1732,
      "joulia": 1733,
      "youn": 1734,
      "ya3mlou": 1735,
      "ta7ya": 1736,
      "a3ti": 1737,
      "7ot": 1738,
      "ath": 1739,
      "jme": 1740,
      "cheb": 1741,
      "natir": 1742,
      "sa3": 1743,
      "farej": 1744,
      "ria7i": 1745,
      "saybou": 1746,
      "bsara7a": 1747,
      "7keya": 1748,
      "hk": 1749,
      "ija": 1750,
      "rj": 1751,
      "wech": 1752,
      "laz": 1753,
      "jibou": 1754,
      "coup": 1755,
      "khouya": 1756,
      "7ez": 1757,
      "l3a": 1758,
      "machallah": 1759,
      "te5dem": 1760,
      "ssen": 1761,
      "kher": 1762,
      "jouliya": 1763,
      "très": 1764,
      "sanfour": 1765,
      "equipe": 1766,
      "ika": 1767,
      "haya": 1768,
      "ye3": 1769,
      "dho": 1770,
      "touness": 1771,
      "attaquant": 1772,
      "8al": 1773,
      "8ali": 1774,
      "awled": 1775,
      "éb": 1776,
      "éd": 1777,
      "oul": 1778,
      "cab": 1779,
      "kle": 1780,
      "etou": 1781,
      "fat": 1782,
      "parti": 1783,
      "3mor": 1784,
      "lol": 1785,
      "wli": 1786,
      "raa": 1787,
      "jai": 1788,
      "ille": 1789,
      "wehed": 1790,
      "parc": 1791,
      "kamcha": 1792,
      "dna": 1793,
      "rf": 1794,
      "wa3": 1795,
      "wa7id": 1796,
      "baaa": 1797,
      "meli": 1798,
      "iit": 1799,
      "veau": 1800,
      "tnajem": 1801,
      "kelma": 1802,
      "t7in": 1803,
      "fdha": 1804,
      "nha": 1805,
      "um": 1806,
      "jaa": 1807,
      "mit": 1808,
      "belahi": 1809,
      "mine": 1810,
      "mahlek": 1811,
      "wahra": 1812,
      "inchalla": 1813,
      "enta5": 1814,
      "yechfih": 1815,
      "www": 1816,
      "amine": 1817,
      "ked": 1818,
      "lmou": 1819,
      "rass": 1820,
      "nati": 1821,
      "tach": 1822,
      "thab": 1823,
      "benzarti": 1824,
      "ma7lek": 1825,
      "rya7i": 1826,
      "shih": 1827,
      "wat": 1828,
      "nich": 1829,
      "keyet": 1830,
      "yo9": 1831,
      "temchi": 1832,
      "i7eb": 1833,
      "sy": 1834,
      "ya5": 1835,
      "7at": 1836,
      "fak": 1837,
      "louled": 1838,
      "did": 1839,
      "menhom": 1840,
      "raj3ou": 1841,
      "dégage": 1842,
      "7et": 1843,
      "9et": 1844,
      "ie": 1845,
      "sbe7": 1846,
      "ère": 1847,
      "hach": 1848,
      "laa": 1849,
      "leclub": 1850,
      "nit": 1851,
      "rous": 1852,
      "zab": 1853,
      "ghalia": 1854,
      "hamed": 1855,
      "ami": 1856,
      "ew": 1857,
      "hka": 1858,
      "ij": 1859,
      "nchoufou": 1860,
      "pl": 1861,
      "tjib": 1862,
      "zed": 1863,
      "bras": 1864,
      "tarja3": 1865,
      "zeyed": 1866,
      "badel": 1867,
      "signaler": 1868,
      "fem": 1869,
      "gla": 1870,
      "oma": 1871,
      "wma": 1872,
      "ék": 1873,
      "lay": 1874,
      "chkon": 1875,
      "lement": 1876,
      "kit": 1877,
      "touh": 1878,
      "yena": 1879,
      "menek": 1880,
      "llahi": 1881,
      "ya3ref": 1882,
      "tal9a": 1883,
      "ita": 1884,
      "ha9": 1885,
      "mag": 1886,
      "ense": 1887,
      "illa": 1888,
      "bouha": 1889,
      "kouki": 1890,
      "oop": 1891,
      "rrr": 1892,
      "trop": 1893,
      "joueret": 1894,
      "bjeh": 1895,
      "cor": 1896,
      "nti": 1897,
      "sek": 1898,
      "wy": 1899,
      "laaa": 1900,
      "bahi": 1901,
      "da9": 1902,
      "belek": 1903,
      "9i9a": 1904,
      "ssar": 1905,
      "ghali": 1906,
      "wini": 1907,
      "just": 1908,
      "rye7i": 1909,
      "fici": 1910,
      "tich": 1911,
      "em3ak": 1912,
      "dakh": 1913,
      "alger": 1914,
      "m3ahom": 1915,
      "zabour": 1916,
      "hamdou": 1917,
      "touns": 1918,
      "sloma": 1919,
      "hna": 1920,
      "isa": 1921,
      "haz": 1922,
      "biii": 1923,
      "fiii": 1924,
      "ommek": 1925,
      "alih": 1926,
      "surtout": 1927,
      "3ek": 1928,
      "akid": 1929,
      "sn": 1930,
      "tri": 1931,
      "wna": 1932,
      "day": 1933,
      "new": 1934,
      "sahbi": 1935,
      "juste": 1936,
      "9wi": 1937,
      "iya": 1938,
      "mlo": 1939,
      "raaa": 1940,
      "enes": 1941,
      "jamais": 1942,
      "sss": 1943,
      "maryou": 1944,
      "farjou": 1945,
      "meri": 1946,
      "foot": 1947,
      "4a": 1948,
      "7el": 1949,
      "bkhir": 1950,
      "mwa": 1951,
      "nchouf": 1952,
      "sé": 1953,
      "trou": 1954,
      "tchouf": 1955,
      "vid": 1956,
      "machi": 1957,
      "rakom": 1958,
      "saf": 1959,
      "hil": 1960,
      "winou": 1961,
      "yo5": 1962,
      "mille": 1963,
      "alina": 1964,
      "joon": 1965,
      "3maltou": 1966,
      "respect": 1967,
      "5ii": 1968,
      "lka": 1969,
      "ren": 1970,
      "ere": 1971,
      "hiwar": 1972,
      "m3aak": 1973,
      "dhel": 1974,
      "anti": 1975,
      "ywaf9ek": 1976,
      "dom": 1977,
      "lt": 1978,
      "lma": 1979,
      "ykha": 1980,
      "chnia": 1981,
      "3as": 1982,
      "hit": 1983,
      "fan": 1984,
      "9ab": 1985,
      "nef": 1986,
      "ma3neha": 1987,
      "na3ref": 1988,
      "inchala": 1989,
      "recr": 1990,
      "30": 1991,
      "blé": 1992,
      "rwe7": 1993,
      "hala": 1994,
      "eth": 1995,
      "sai": 1996,
      "hik": 1997,
      "rif": 1998,
      "7an": 1999,
      "7ach": 2000,
      "ta3mlou": 2001,
      "morta": 2002,
      "dandouk": 2003,
      "barnamej": 2004,
      "jri": 2005,
      "ycha": 2006,
      "haa": 2007,
      "chniya": 2008,
      "le9": 2009,
      "leya": 2010,
      "sais": 2011,
      "mim": 2012,
      "dhaher": 2013,
      "anta": 2014,
      "na3rfou": 2015,
      "wahdek": 2016,
      "hand": 2017,
      "bya": 2018,
      "neb": 2019,
      "wya": 2020,
      "ych": 2021,
      "yba": 2022,
      "ell": 2023,
      "fare": 2024,
      "alg": 2025,
      "homa": 2026,
      "na3mou": 2027,
      "kolou": 2028,
      "sty": 2029,
      "chnouwa": 2030,
      "politique": 2031,
      "3e": 2032,
      "ac": 2033,
      "jmou": 2034,
      "lmo": 2035,
      "tli": 2036,
      "wt": 2037,
      "yched": 2038,
      "naa": 2039,
      "omou": 2040,
      "rina": 2041,
      "olo": 2042,
      "te9": 2043,
      "khed": 2044,
      "entra": 2045,
      "yekhi": 2046,
      "amma": 2047,
      "béch": 2048,
      "publi": 2049,
      "manich": 2050,
      "max": 2051,
      "3awen": 2052,
      "wadi": 2053,
      "chad": 2054,
      "sif": 2055,
      "menou": 2056,
      "roj": 2057,
      "yahki": 2058,
      "klam": 2059,
      "goul": 2060,
      "offici": 2061,
      "aidek": 2062,
      "19": 2063,
      "bni": 2064,
      "jm": 2065,
      "sr": 2066,
      "yè": 2067,
      "és": 2068,
      "ét": 2069,
      "matha": 2070,
      "said": 2071,
      "erjel": 2072,
      "zidou": 2073,
      "stade": 2074,
      "commenta": 2075,
      "mawjou": 2076,
      "port": 2077,
      "behya": 2078,
      "88": 2079,
      "flo": 2080,
      "wle": 2081,
      "mahich": 2082,
      "baya": 2083,
      "ti7": 2084,
      "kab": 2085,
      "yetraba": 2086,
      "joueurs": 2087,
      "ces": 2088,
      "hd": 2089,
      "idha": 2090,
      "mle": 2091,
      "zbou": 2092,
      "oun": 2093,
      "oula": 2094,
      "haaa": 2095,
      "elmou": 2096,
      "omk": 2097,
      "tih": 2098,
      "alor": 2099,
      "meta": 2100,
      "zaweli": 2101,
      "fou9": 2102,
      "ahsen": 2103,
      "sour": 2104,
      "tab9a": 2105,
      "50": 2106,
      "css": 2107,
      "t9a": 2108,
      "t3ich": 2109,
      "hah": 2110,
      "fal": 2111,
      "wena": 2112,
      "chid": 2113,
      "mechi": 2114,
      "sob": 2115,
      "3inek": 2116,
      "musi": 2117,
      "recrut": 2118,
      "jed": 2119,
      "sfa": 2120,
      "tn": 2121,
      "ouk": 2122,
      "fila": 2123,
      "dia": 2124,
      "all": 2125,
      "rabiii": 2126,
      "ne7": 2127,
      "tho": 2128,
      "sayed": 2129,
      "jours": 2130,
      "gel": 2131,
      "hwa": 2132,
      "icha": 2133,
      "mla3": 2134,
      "pet": 2135,
      "som": 2136,
      "naw": 2137,
      "3alik": 2138,
      "bay": 2139,
      "dayma": 2140,
      "touha": 2141,
      "gati": 2142,
      "9it": 2143,
      "na3mlou": 2144,
      "wahda": 2145,
      "jemla": 2146,
      "suis": 2147,
      "ryahi": 2148,
      "ass": 2149,
      "a3lik": 2150,
      "att": 2151,
      "gaaa": 2152,
      "ikoun": 2153,
      "lkom": 2154,
      "n9o": 2155,
      "tcha": 2156,
      "wek": 2157,
      "madem": 2158,
      "3amel": 2159,
      "fia": 2160,
      "bali": 2161,
      "9anoun": 2162,
      "tefhem": 2163,
      "rouf": 2164,
      "5ar": 2165,
      "aala": 2166,
      "waldik": 2167,
      "machrou": 2168,
      "bt": 2169,
      "o9": 2170,
      "liha": 2171,
      "faire": 2172,
      "kolhom": 2173,
      "koulou": 2174,
      "3ik": 2175,
      "beya": 2176,
      "ma3na": 2177,
      "trek": 2178,
      "viva": 2179,
      "wenta": 2180,
      "3leha": 2181,
      "yehdi": 2182,
      "bda": 2183,
      "ghou": 2184,
      "likom": 2185,
      "naya": 2186,
      "kara": 2187,
      "nikom": 2188,
      "me3": 2189,
      "mo5": 2190,
      "mohamed": 2191,
      "dhe": 2192,
      "walit": 2193,
      "twansa": 2194,
      "libya": 2195,
      "5sara": 2196,
      "rom": 2197,
      "yd": 2198,
      "yik": 2199,
      "ouh": 2200,
      "ouch": 2201,
      "mai": 2202,
      "radi": 2203,
      "laha": 2204,
      "na7i": 2205,
      "wan": 2206,
      "fi9ou": 2207,
      "faha": 2208,
      "3iya": 2209,
      "def": 2210,
      "dema": 2211,
      "za7": 2212,
      "jim": 2213,
      "thama": 2214,
      "7i7": 2215,
      "blas": 2216,
      "messa": 2217,
      "champi": 2218,
      "gho": 2219,
      "n9oul": 2220,
      "slem": 2221,
      "oum": 2222,
      "fida": 2223,
      "kaw": 2224,
      "dara": 2225,
      "touni": 2226,
      "rouh": 2227,
      "neh": 2228,
      "berasmi": 2229,
      "bel7a9": 2230,
      "ance": 2231,
      "wlad": 2232,
      "nés": 2233,
      "3andhom": 2234,
      "9bel": 2235,
      "esa": 2236,
      "m3ou": 2237,
      "ps": 2238,
      "pon": 2239,
      "mass": 2240,
      "mata3": 2241,
      "errajel": 2242,
      "kolkom": 2243,
      "to5": 2244,
      "kef": 2245,
      "coupe": 2246,
      "s7i7a": 2247,
      "3od": 2248,
      "kafon": 2249,
      "gaaage": 2250,
      "j3ou": 2251,
      "lfa": 2252,
      "mli": 2253,
      "wrak": 2254,
      "habi": 2255,
      "ella": 2256,
      "libled": 2257,
      "wadh": 2258,
      "bak": 2259,
      "chah": 2260,
      "kach": 2261,
      "nida": 2262,
      "moutou": 2263,
      "reau": 2264,
      "tez": 2265,
      "houlek": 2266,
      "amana": 2267,
      "wissem": 2268,
      "3oud": 2269,
      "da5el": 2270,
      "alors": 2271,
      "bè": 2272,
      "md": 2273,
      "ndou": 2274,
      "haf": 2275,
      "mafamech": 2276,
      "rades": 2277,
      "choi": 2278,
      "lila": 2279,
      "yarah": 2280,
      "tara": 2281,
      "kad": 2282,
      "kais": 2283,
      "kifou": 2284,
      "niveau": 2285,
      "entom": 2286,
      "yetna": 2287,
      "ttt": 2288,
      "ma3ak": 2289,
      "from": 2290,
      "tari5": 2291,
      "barnemej": 2292,
      "erajel": 2293,
      "hram": 2294,
      "itha": 2295,
      "mê": 2296,
      "mam": 2297,
      "manou": 2298,
      "chbih": 2299,
      "billahi": 2300,
      "til": 2301,
      "7ajet": 2302,
      "moi": 2303,
      "lowa": 2304,
      "na3ma": 2305,
      "meskina": 2306,
      "3ayel": 2307,
      "nafs": 2308,
      "jenjoon": 2309,
      "chokran": 2310,
      "sfax": 2311,
      "5in": 2312,
      "ged": 2313,
      "happ": 2314,
      "rachwa": 2315,
      "ta7i": 2316,
      "chabeb": 2317,
      "sieur": 2318,
      "rid": 2319,
      "7aj": 2320,
      "one": 2321,
      "mia": 2322,
      "ye5": 2323,
      "zanatir": 2324,
      "tos": 2325,
      "rok": 2326,
      "ires": 2327,
      "llam": 2328,
      "yarhem": 2329,
      "hamdi": 2330,
      "sayer": 2331,
      "flousek": 2332,
      "nahda": 2333,
      "3awnou": 2334,
      "france": 2335,
      "msg": 2336,
      "versa": 2337,
      "jabri": 2338,
      "korsi": 2339,
      "3mel": 2340,
      "3dou": 2341,
      "7ok": 2342,
      "cette": 2343,
      "rasou": 2344,
      "ya5i": 2345,
      "ensen": 2346,
      "fir": 2347,
      "sare9": 2348,
      "chaab": 2349,
      "ri3": 2350,
      "eme": 2351,
      "ma3k": 2352,
      "heda": 2353,
      "vie": 2354,
      "3oun": 2355,
      "9odem": 2356,
      "7oukouma": 2357,
      "tant": 2358,
      "bureau": 2359,
      "zboubna": 2360,
      "200": 2361,
      "bnet": 2362,
      "bhim": 2363,
      "fok": 2364,
      "l7a9": 2365,
      "n9ol": 2366,
      "seli": 2367,
      "haj": 2368,
      "laf": 2369,
      "najem": 2370,
      "3az": 2371,
      "leflous": 2372,
      "waj": 2373,
      "omkom": 2374,
      "faut": 2375,
      "dans": 2376,
      "yee": 2377,
      "deh": 2378,
      "iim": 2379,
      "yarh": 2380,
      "nchalh": 2381,
      "m3alm": 2382,
      "gue": 2383,
      "3ayla": 2384,
      "mnayek": 2385,
      "tounsia": 2386,
      "beaucoup": 2387,
      "jaime": 2388,
      "happy": 2389,
      "33": 2390,
      "9lou": 2391,
      "cri": 2392,
      "kbal": 2393,
      "rbi": 2394,
      "wha": 2395,
      "wjou": 2396,
      "nawa": 2397,
      "tira": 2398,
      "rij": 2399,
      "kich": 2400,
      "rouhou": 2401,
      "yesa": 2402,
      "3ando": 2403,
      "ya3ni": 2404,
      "maalem": 2405,
      "mte3ek": 2406,
      "tunisien": 2407,
      "projet": 2408,
      "clubist": 2409,
      "hasbouna": 2410,
      "7in": 2411,
      "mk": 2412,
      "ses": 2413,
      "wir": 2414,
      "ywali": 2415,
      "elna": 2416,
      "nass": 2417,
      "ya9": 2418,
      "omo": 2419,
      "chaine": 2420,
      "kiw": 2421,
      "be3": 2422,
      "boy": 2423,
      "uuk": 2424,
      "makech": 2425,
      "yara7mou": 2426,
      "meme": 2427,
      "bent": 2428,
      "ft": 2429,
      "ira": 2430,
      "tba": 2431,
      "zé": 2432,
      "makh": 2433,
      "massa": 2434,
      "3ale": 2435,
      "tia": 2436,
      "kalem": 2437,
      "rien": 2438,
      "kim": 2439,
      "dire": 2440,
      "dab": 2441,
      "deja": 2442,
      "3amla": 2443,
      "veut": 2444,
      "hahah": 2445,
      "no9": 2446,
      "masla7": 2447,
      "blech": 2448,
      "wild": 2449,
      "3malt": 2450,
      "franca": 2451,
      "yab9a": 2452,
      "mazal": 2453,
      "karim": 2454,
      "ata": 2455,
      "get": 2456,
      "jor": 2457,
      "lbled": 2458,
      "wem": 2459,
      "3aj": 2460,
      "bayou": 2461,
      "chab": 2462,
      "riba": 2463,
      "fam": 2464,
      "nidhal": 2465,
      "ya3tek": 2466,
      "yarja3": 2467,
      "aussi": 2468,
      "peau": 2469,
      "wahna": 2470,
      "billehi": 2471,
      "uuh": 2472,
      "besh": 2473,
      "point": 2474,
      "jebni": 2475,
      "impor": 2476,
      "yarat": 2477,
      "b3adh": 2478,
      "zantour": 2479,
      "style": 2480,
      "3ej": 2481,
      "ry": 2482,
      "trab": 2483,
      "wis": 2484,
      "zet": 2485,
      "yare": 2486,
      "ya7i": 2487,
      "3ass": 2488,
      "enfin": 2489,
      "wach": 2490,
      "sawer": 2491,
      "fadh": 2492,
      "toujours": 2493,
      "boula": 2494,
      "yefhem": 2495,
      "thez": 2496,
      "toz": 2497,
      "iik": 2498,
      "ook": 2499,
      "akthar": 2500,
      "tahya": 2501,
      "mmm": 2502,
      "yelz": 2503,
      "3awed": 2504,
      "5dmou": 2505,
      "9rib": 2506,
      "grou": 2507,
      "pre": 2508,
      "rine": 2509,
      "tom": 2510,
      "tol": 2511,
      "chkou": 2512,
      "enou": 2513,
      "wana": 2514,
      "fid": 2515,
      "sak": 2516,
      "salam": 2517,
      "siyes": 2518,
      "famille": 2519,
      "kila": 2520,
      "dafi": 2521,
      "m3alam": 2522,
      "ilkol": 2523,
      "3ia": 2524,
      "wila": 2525,
      "je7": 2526,
      "jeya": 2527,
      "masta": 2528,
      "wa9et": 2529,
      "yia": 2530,
      "samir": 2531,
      "ywaf": 2532,
      "mkach": 2533,
      "jami3": 2534,
      "officiel": 2535,
      "3n": 2536,
      "7keyet": 2537,
      "93ad": 2538,
      "b7ou": 2539,
      "b1000": 2540,
      "frou": 2541,
      "gram": 2542,
      "iheb": 2543,
      "l9": 2544,
      "lba": 2545,
      "maaa": 2546,
      "yad": 2547,
      "taja": 2548,
      "walet": 2549,
      "ete": 2550,
      "sib": 2551,
      "homme": 2552,
      "5as": 2553,
      "khra": 2554,
      "mochkla": 2555,
      "enchala": 2556,
      "norma": 2557,
      "toile": 2558,
      "marbouha": 2559,
      "idara": 2560,
      "watani": 2561,
      "avant": 2562,
      "travailler": 2563,
      "machrou3": 2564,
      "bre": 2565,
      "i9": 2566,
      "iir": 2567,
      "l7a": 2568,
      "nel": 2569,
      "mams": 2570,
      "rach": 2571,
      "lich": 2572,
      "yach": 2573,
      "hihi": 2574,
      "kaleb": 2575,
      "nice": 2576,
      "miya": 2577,
      "miss": 2578,
      "too": 2579,
      "tooop": 2580,
      "dhek": 2581,
      "youtu": 2582,
      "hezou": 2583,
      "bledna": 2584,
      "chway": 2585,
      "bledi": 2586,
      "9olt": 2587,
      "akahaw": 2588,
      "khedma": 2589,
      "7kom": 2590,
      "99": 2591,
      "a9al": 2592,
      "dz": 2593,
      "fsa": 2594,
      "ite": 2595,
      "im3ak": 2596,
      "km": 2597,
      "ui": 2598,
      "yom": 2599,
      "zga": 2600,
      "tali": 2601,
      "tahana": 2602,
      "rima": 2603,
      "loum": 2604,
      "nee": 2605,
      "degaaage": 2606,
      "zada": 2607,
      "kora": 2608,
      "monsieur": 2609,
      "mél": 2610,
      "person": 2611,
      "fekra": 2612,
      "saison": 2613,
      "3lé": 2614,
      "77": 2615,
      "are": 2616,
      "i5a": 2617,
      "kek": 2618,
      "twalli": 2619,
      "yha": 2620,
      "nadh": 2621,
      "tation": 2622,
      "lekom": 2623,
      "bala": 2624,
      "inna": 2625,
      "inter": 2626,
      "salah": 2627,
      "kas": 2628,
      "capo": 2629,
      "de5": 2630,
      "tola": 2631,
      "leklem": 2632,
      "arri": 2633,
      "retour": 2634,
      "job": 2635,
      "zeby": 2636,
      "mchit": 2637,
      "9odret": 2638,
      "anniversa": 2639,
      "3raf": 2640,
      "9el": 2641,
      "a5er": 2642,
      "sraf": 2643,
      "lena": 2644,
      "leur": 2645,
      "sa5": 2646,
      "esh": 2647,
      "da3": 2648,
      "dhaw": 2649,
      "weldik": 2650,
      "ta3mil": 2651,
      "minha": 2652,
      "anna": 2653,
      "tawfi9": 2654,
      "far7a": 2655,
      "ghneya": 2656,
      "mayji": 2657,
      "contra": 2658,
      "techri": 2659,
      "mehri": 2660,
      "okhra": 2661,
      "bhe": 2662,
      "era": 2663,
      "idi": 2664,
      "l7": 2665,
      "mtaa": 2666,
      "ru": 2667,
      "t7ib": 2668,
      "mafama": 2669,
      "lihom": 2670,
      "hhom": 2671,
      "dez": 2672,
      "be9i": 2673,
      "dha7": 2674,
      "ro7ek": 2675,
      "3lach": 2676,
      "ta3ti": 2677,
      "hot": 2678,
      "note": 2679,
      "hamza": 2680,
      "masha": 2681,
      "3omri": 2682,
      "3omrou": 2683,
      "y7ebou": 2684,
      "recrutement": 2685,
      "5id": 2686,
      "9ef": 2687,
      "cv": 2688,
      "ftha": 2689,
      "ges": 2690,
      "gol": 2691,
      "jma3": 2692,
      "koo": 2693,
      "lga": 2694,
      "tched": 2695,
      "ybi": 2696,
      "ée": 2697,
      "mami": 2698,
      "tahiya": 2699,
      "waw": 2700,
      "m3aha": 2701,
      "death": 2702,
      "wij": 2703,
      "tawwa": 2704,
      "9albi": 2705,
      "abed": 2706,
      "3aych": 2707,
      "dhif": 2708,
      "yezina": 2709,
      "b3ath": 2710,
      "chnwa": 2711,
      "maryoul": 2712,
      "bhi": 2713,
      "cent": 2714,
      "krah": 2715,
      "nu": 2716,
      "la7a": 2717,
      "sidek": 2718,
      "7abi": 2719,
      "emi": 2720,
      "dah": 2721,
      "rou7ik": 2722,
      "mona": 2723,
      "moins": 2724,
      "deyma": 2725,
      "ziz": 2726,
      "3anna": 2727,
      "mabrouuuk": 2728,
      "arbi": 2729,
      "stor": 2730,
      "ssir": 2731,
      "wa9tha": 2732,
      "la7keya": 2733,
      "meskin": 2734,
      "3ini": 2735,
      "sebsi": 2736,
      "pivo": 2737,
      "zzz": 2738,
      "dinar": 2739,
      "pub": 2740,
      "9a3da": 2741,
      "ya3tikom": 2742,
      "message": 2743,
      "cer": 2744,
      "dmou": 2745,
      "nenta5": 2746,
      "tnik": 2747,
      "yta": 2748,
      "rayou": 2749,
      "3ach": 2750,
      "3aaa": 2751,
      "watan": 2752,
      "salim": 2753,
      "sala7": 2754,
      "saif": 2755,
      "sik": 2756,
      "fadina": 2757,
      "mir": 2758,
      "bark": 2759,
      "roc": 2760,
      "paro": 2761,
      "amal": 2762,
      "soub": 2763,
      "berrasmi": 2764,
      "lebes": 2765,
      "thi9a": 2766,
      "yahf": 2767,
      "sa7a7": 2768,
      "7al9a": 2769,
      "mridh": 2770,
      "yonsrek": 2771,
      "vidé": 2772,
      "blh": 2773,
      "ejam3iya": 2774,
      "efriki": 2775,
      "ffa": 2776,
      "kl": 2777,
      "tl": 2778,
      "yra": 2779,
      "y9a": 2780,
      "èn": 2781,
      "chal": 2782,
      "ris": 2783,
      "ye7i": 2784,
      "mot": 2785,
      "nesma": 2786,
      "douh": 2787,
      "martou": 2788,
      "ture": 2789,
      "ard": 2790,
      "a3mlou": 2791,
      "doc": 2792,
      "9alleb": 2793,
      "mas2": 2794,
      "sans": 2795,
      "zebbi": 2796,
      "basket": 2797,
      "jbouj": 2798,
      "algéri": 2799,
      "youtube": 2800,
      "ada": 2801,
      "ataw": 2802,
      "keb": 2803,
      "nji": 2804,
      "nmout": 2805,
      "sk": 2806,
      "slm": 2807,
      "tkha": 2808,
      "zen": 2809,
      "zwa": 2810,
      "nay": 2811,
      "tani": 2812,
      "eto": 2813,
      "ont": 2814,
      "ni3ma": 2815,
      "m3adheb": 2816,
      "houch": 2817,
      "ssed": 2818,
      "5arej": 2819,
      "minhom": 2820,
      "gad": 2821,
      "khawla": 2822,
      "raj3": 2823,
      "quel": 2824,
      "ineur": 2825,
      "blasa": 2826,
      "ssion": 2827,
      "m3lem": 2828,
      "nahtha": 2829,
      "raiis": 2830,
      "comp": 2831,
      "ra2iss": 2832,
      "9a3din": 2833,
      "anniversaire": 2834,
      "3bou": 2835,
      "7yet": 2836,
      "bess": 2837,
      "gent": 2838,
      "hla": 2839,
      "kes": 2840,
      "oh": 2841,
      "pou": 2842,
      "pho": 2843,
      "y9oul": 2844,
      "hadh": 2845,
      "madha": 2846,
      "chalah": 2847,
      "kahaw": 2848,
      "sim": 2849,
      "oneya": 2850,
      "louna": 2851,
      "allh": 2852,
      "mous": 2853,
      "9ahba": 2854,
      "bouzid": 2855,
      "te5": 2856,
      "ne3ma": 2857,
      "them": 2858,
      "than": 2859,
      "para": 2860,
      "entren": 2861,
      "ahmed": 2862,
      "9oli": 2863,
      "lkolna": 2864,
      "raji3oun": 2865,
      "lotf": 2866,
      "nafti": 2867,
      "mostawa": 2868,
      "mezyena": 2869,
      "14": 2870,
      "3er": 2871,
      "ara": 2872,
      "b3id": 2873,
      "dro": 2874,
      "gg": 2875,
      "ima": 2876,
      "jb": 2877,
      "lya": 2878,
      "mzi": 2879,
      "nr": 2880,
      "rc": 2881,
      "tkom": 2882,
      "y7a": 2883,
      "zek": 2884,
      "mafhem": 2885,
      "3ama": 2886,
      "enya": 2887,
      "batal": 2888,
      "5ab": 2889,
      "5ayeb": 2890,
      "aan": 2891,
      "andou": 2892,
      "sef": 2893,
      "manel": 2894,
      "waldi": 2895,
      "raiss": 2896,
      "tini": 2897,
      "admin": 2898,
      "kemla": 2899,
      "3omra": 2900,
      "bsaraha": 2901,
      "mariem": 2902,
      "b3": 2903,
      "blo": 2904,
      "eux": 2905,
      "mom": 2906,
      "off": 2907,
      "rhou": 2908,
      "yfar": 2909,
      "yatla3": 2910,
      "baki": 2911,
      "chala": 2912,
      "chapeau": 2913,
      "hih": 2914,
      "cas": 2915,
      "mo3": 2916,
      "3ichou": 2917,
      "zay": 2918,
      "melli": 2919,
      "tunes": 2920,
      "3alam": 2921,
      "zouza": 2922,
      "chef": 2923,
      "birth": 2924,
      "fort": 2925,
      "alech": 2926,
      "nty": 2927,
      "fare5": 2928,
      "public": 2929,
      "3em": 2930,
      "assa": 2931,
      "b3ad": 2932,
      "but": 2933,
      "b9odret": 2934,
      "nen": 2935,
      "t9ou": 2936,
      "tnek": 2937,
      "ma3andou": 2938,
      "raja": 2939,
      "chel": 2940,
      "chmeta": 2941,
      "3ami": 2942,
      "baz": 2943,
      "intouma": 2944,
      "safi": 2945,
      "saba": 2946,
      "7asi": 2947,
      "dith": 2948,
      "rebi": 2949,
      "tok": 2950,
      "rabby": 2951,
      "douba": 2952,
      "fehom": 2953,
      "tur": 2954,
      "ques": 2955,
      "youss": 2956,
      "ma39oul": 2957,
      "sout": 2958,
      "est7a9": 2959,
      "yich": 2960,
      "nessma": 2961,
      "machari3": 2962,
      "mte3ou": 2963,
      "entraineur": 2964,
      "gir": 2965,
      "l3ar": 2966,
      "nul": 2967,
      "rjal": 2968,
      "tbi": 2969,
      "tzid": 2970,
      "yjib": 2971,
      "èè": 2972,
      "équipe": 2973,
      "taha": 2974,
      "tahan": 2975,
      "ennahdha": 2976,
      "dich": 2977,
      "moufida": 2978,
      "tena": 2979,
      "sseb": 2980,
      "mok": 2981,
      "jibelna": 2982,
      "fehem": 2983,
      "noub": 2984,
      "confi": 2985,
      "thib": 2986,
      "walid": 2987,
      "hawka": 2988,
      "5alina": 2989,
      "forsa": 2990,
      "klemek": 2991,
      "oooh": 2992,
      "tbarkallah": 2993,
      "15": 2994,
      "chneya": 2995,
      "line": 2996,
      "nari": 2997,
      "omhom": 2998,
      "cha7": 2999,
      "ri7": 3000,
      "jama": 3001,
      "jana": 3002,
      "oni": 3003,
      "dal": 3004,
      "me7": 3005,
      "dew": 3006,
      "ji3an": 3007,
      "allahou": 3008,
      "9ik": 3009,
      "nouchi": 3010,
      "mta3ek": 3011,
      "9alb": 3012,
      "kalba": 3013,
      "yahdi": 3014,
      "nahna": 3015,
      "m3allim": 3016,
      "sbab": 3017,
      "ynajem": 3018,
      "enchalla": 3019,
      "play": 3020,
      "montasar": 3021,
      "semi": 3022,
      "fehri1": 3023,
      "zgaw": 3024,
      "3bad": 3025,
      "5raj": 3026,
      "dt": 3027,
      "fb": 3028,
      "hr": 3029,
      "ihi": 3030,
      "lfri9i": 3031,
      "maha": 3032,
      "raha": 3033,
      "la3b": 3034,
      "elf": 3035,
      "nan": 3036,
      "yaf": 3037,
      "ett": 3038,
      "mois": 3039,
      "nesta": 3040,
      "3andik": 3041,
      "not": 3042,
      "tanbir": 3043,
      "5iir": 3044,
      "klab": 3045,
      "ilayhi": 3046,
      "3morha": 3047,
      "plz": 3048,
      "mortaz": 3049,
      "ghodwa": 3050,
      "vidéo": 3051,
      "16": 3052,
      "bz": 3053,
      "ejam3ia": 3054,
      "nwa": 3055,
      "yl": 3056,
      "waaa": 3057,
      "eri": 3058,
      "jazi": 3059,
      "kolo": 3060,
      "3it": 3061,
      "defi": 3062,
      "kenet": 3063,
      "galou": 3064,
      "iid": 3065,
      "your": 3066,
      "ya3mil": 3067,
      "ya3rfou": 3068,
      "tawfik": 3069,
      "tared": 3070,
      "9alo": 3071,
      "jem3a": 3072,
      "telna": 3073,
      "3ayech": 3074,
      "3inik": 3075,
      "mnay": 3076,
      "riyahi": 3077,
      "7kaya": 3078,
      "ryehi": 3079,
      "5r": 3080,
      "cro": 3081,
      "eel": 3082,
      "hè": 3083,
      "ikh": 3084,
      "kedh": 3085,
      "rcha": 3086,
      "rech": 3087,
      "sya": 3088,
      "sport": 3089,
      "zb": 3090,
      "oumour": 3091,
      "hath": 3092,
      "mati": 3093,
      "elfa": 3094,
      "chtar": 3095,
      "wahid": 3096,
      "riehi": 3097,
      "emchi": 3098,
      "ils": 3099,
      "rez": 3100,
      "aam": 3101,
      "andek": 3102,
      "kounou": 3103,
      "jeu": 3104,
      "lkolha": 3105,
      "ma7la": 3106,
      "ma7leha": 3107,
      "karti": 3108,
      "3andkom": 3109,
      "tfarej": 3110,
      "machakel": 3111,
      "wejhek": 3112,
      "mkacha5": 3113,
      "masa5": 3114,
      "ghalya": 3115,
      "4al": 3116,
      "9in": 3117,
      "ahhh": 3118,
      "cra": 3119,
      "d5al": 3120,
      "eek": 3121,
      "fra": 3122,
      "nna": 3123,
      "rwa7": 3124,
      "y3aw": 3125,
      "ous": 3126,
      "rain": 3127,
      "elga": 3128,
      "insen": 3129,
      "sada9": 3130,
      "7aya": 3131,
      "jabou": 3132,
      "nina": 3133,
      "rouk": 3134,
      "brass": 3135,
      "voir": 3136,
      "votre": 3137,
      "5atr": 3138,
      "dour": 3139,
      "seya": 3140,
      "enah": 3141,
      "malg": 3142,
      "ssan": 3143,
      "baraka": 3144,
      "yar7mo": 3145,
      "3idkom": 3146,
      "3andna": 3147,
      "going": 3148,
      "puis": 3149,
      "khalli": 3150,
      "7lowa": 3151,
      "dk": 3152,
      "mà": 3153,
      "mtek": 3154,
      "nhi": 3155,
      "ntouma": 3156,
      "tfar": 3157,
      "tsir": 3158,
      "tjr": 3159,
      "wh": 3160,
      "wm": 3161,
      "wr": 3162,
      "hama": 3163,
      "madh": 3164,
      "magh": 3165,
      "elmo": 3166,
      "nadi": 3167,
      "sana": 3168,
      "esmou": 3169,
      "faza": 3170,
      "m3aaak": 3171,
      "mij": 3172,
      "bela": 3173,
      "bena": 3174,
      "nestana": 3175,
      "fe3": 3176,
      "sloumaaa": 3177,
      "wira": 3178,
      "ya39ou": 3179,
      "malyoun": 3180,
      "felna": 3181,
      "flousou": 3182,
      "leblad": 3183,
      "ya7f": 3184,
      "3arbi": 3185,
      "yehdik": 3186,
      "linti": 3187,
      "t7ebou": 3188,
      "fransa": 3189,
      "much": 3190,
      "ghalta": 3191,
      "11": 3192,
      "8ar": 3193,
      "efri9i": 3194,
      "gé": 3195,
      "hin": 3196,
      "jmal": 3197,
      "lom": 3198,
      "nka": 3199,
      "rja": 3200,
      "wkol": 3201,
      "yb": 3202,
      "îne": 3203,
      "ouuu": 3204,
      "ra3": 3205,
      "rag": 3206,
      "ra7a": 3207,
      "tata": 3208,
      "3alina": 3209,
      "was": 3210,
      "sali": 3211,
      "salouma": 3212,
      "ekel": 3213,
      "ekher": 3214,
      "alh": 3215,
      "yez": 3216,
      "dhaf": 3217,
      "ga3": 3218,
      "jouwer": 3219,
      "soussa": 3220,
      "tartour": 3221,
      "virage": 3222,
      "stp": 3223,
      "part": 3224,
      "medeb": 3225,
      "nnn": 3226,
      "jaweb": 3227,
      "upl": 3228,
      "7ezb": 3229,
      "commentaire": 3230,
      "rcd": 3231,
      "13": 3232,
      "aha": 3233,
      "a3lina": 3234,
      "best": 3235,
      "echa3eb": 3236,
      "fre": 3237,
      "klou": 3238,
      "ny": 3239,
      "ysir": 3240,
      "hazi": 3241,
      "ma7a": 3242,
      "yam": 3243,
      "yaser": 3244,
      "less": 3245,
      "lefri": 3246,
      "bili": 3247,
      "waya": 3248,
      "bajbouj": 3249,
      "etoi": 3250,
      "samara": 3251,
      "esmha": 3252,
      "sit": 3253,
      "9as": 3254,
      "mission": 3255,
      "barch": 3256,
      "zir": 3257,
      "lobna": 3258,
      "minou": 3259,
      "how": 3260,
      "ahlou": 3261,
      "mat5a": 3262,
      "kanet": 3263,
      "blaset": 3264,
      "na3mel": 3265,
      "trabel": 3266,
      "lll": 3267,
      "media": 3268,
      "yechfik": 3269,
      "bachir": 3270,
      "kemel": 3271,
      "nhebou": 3272,
      "mt3": 3273,
      "y5alik": 3274,
      "selim": 3275,
      "pivot": 3276,
      "entreneur": 3277,
      "3r": 3278,
      "5sar": 3279,
      "90": 3280,
      "9dar": 3281,
      "bza": 3282,
      "eja": 3283,
      "feli": 3284,
      "hu": 3285,
      "kbar": 3286,
      "pense": 3287,
      "tlou": 3288,
      "t7i": 3289,
      "teli": 3290,
      "yla": 3291,
      "y5ali": 3292,
      "èd": 3293,
      "éch": 3294,
      "malh": 3295,
      "chnawa": 3296,
      "yana": 3297,
      "yass": 3298,
      "lehom": 3299,
      "bid": 3300,
      "waret": 3301,
      "fique": 3302,
      "inch": 3303,
      "ka3ba": 3304,
      "7ana": 3305,
      "em3a": 3306,
      "rea": 3307,
      "9ara": 3308,
      "beche": 3309,
      "gag": 3310,
      "gafsa": 3311,
      "khor": 3312,
      "enti5abet": 3313,
      "a7ki": 3314,
      "wentouma": 3315,
      "lkoll": 3316,
      "telha": 3317,
      "tunisia": 3318,
      "sul": 3319,
      "raison": 3320,
      "iiiw": 3321,
      "yoster": 3322,
      "fawzi": 3323,
      "même": 3324,
      "importe": 3325,
      "3lah": 3326,
      "97ab": 3327,
      "boo": 3328,
      "bjah": 3329,
      "dhh": 3330,
      "i3a": 3331,
      "ifri9i": 3332,
      "jil": 3333,
      "ltawa": 3334,
      "mja": 3335,
      "nssa": 3336,
      "ode": 3337,
      "qa": 3338,
      "ven": 3339,
      "ele": 3340,
      "nal": 3341,
      "nabil": 3342,
      "taba3": 3343,
      "lew": 3344,
      "bidou": 3345,
      "chai": 3346,
      "tic": 3347,
      "tiii": 3348,
      "hichi": 3349,
      "fas": 3350,
      "diya": 3351,
      "tej": 3352,
      "kollou": 3353,
      "houkouma": 3354,
      "komch": 3355,
      "moin": 3356,
      "zam": 3357,
      "3lam": 3358,
      "lui": 3359,
      "citation": 3360,
      "a3mal": 3361,
      "inti5abet": 3362,
      "mnayka": 3363,
      "fo9": 3364,
      "fois": 3365,
      "brcha": 3366,
      "3omrek": 3367,
      "hahahahaha": 3368,
      "galb": 3369,
      "galo": 3370,
      "labess": 3371,
      "7kayet": 3372,
      "janna": 3373,
      "hahahah": 3374,
      "khoya": 3375,
      "snine": 3376,
      "etoile": 3377,
      "3ta": 3378,
      "40": 3379,
      "7ya": 3380,
      "awla": 3381,
      "amena": 3382,
      "bdit": 3383,
      "dy": 3384,
      "mz": 3385,
      "nè": 3386,
      "red": 3387,
      "rja3": 3388,
      "t9ol": 3389,
      "uv": 3390,
      "ure": 3391,
      "y9oulou": 3392,
      "èl": 3393,
      "ém": 3394,
      "éli": 3395,
      "laka": 3396,
      "chet": 3397,
      "lili": 3398,
      "yakhi": 3399,
      "yasser": 3400,
      "bis": 3401,
      "bi3a": 3402,
      "bac": 3403,
      "omok": 3404,
      "tina": 3405,
      "kay": 3406,
      "rig": 3407,
      "fac": 3408,
      "lougha": 3409,
      "9alet": 3410,
      "houd": 3411,
      "cation": 3412,
      "5an": 3413,
      "mennou": 3414,
      "ta3mal": 3415,
      "elik": 3416,
      "wih": 3417,
      "wiya": 3418,
      "hob": 3419,
      "jew": 3420,
      "manech": 3421,
      "bonjour": 3422,
      "uuu": 3423,
      "makch": 3424,
      "sere9": 3425,
      "derby": 3426,
      "behia": 3427,
      "zinek": 3428,
      "tfol": 3429,
      "chnya": 3430,
      "baaarcha": 3431,
      "yarahmou": 3432,
      "frou5": 3433,
      "m3adhebhom": 3434,
      "birthday": 3435,
      "youssef": 3436,
      "23": 3437,
      "25": 3438,
      "70": 3439,
      "7lou": 3440,
      "jla": 3441,
      "m5a": 3442,
      "mche": 3443,
      "sla": 3444,
      "s3ib": 3445,
      "vit": 3446,
      "mali": 3447,
      "lazim": 3448,
      "el3a": 3449,
      "taya7": 3450,
      "le3": 3451,
      "ettounsi": 3452,
      "sa9": 3453,
      "ekom": 3454,
      "chak": 3455,
      "chans": 3456,
      "kah": 3457,
      "kaya": 3458,
      "janoub": 3459,
      "fay": 3460,
      "fahem": 3461,
      "loula": 3462,
      "dimo": 3463,
      "reg": 3464,
      "reya": 3465,
      "ye9": 3466,
      "we9": 3467,
      "yous": 3468,
      "wili": 3469,
      "ghani": 3470,
      "tru": 3471,
      "alikom": 3472,
      "9olou": 3473,
      "this": 3474,
      "wa9teh": 3475,
      "possi": 3476,
      "kilma": 3477,
      "3awra": 3478,
      "yeziw": 3479,
      "montassar": 3480,
      "jboura": 3481,
      "grave": 3482,
      "sliiim": 3483,
      "jme3a": 3484,
      "partie": 3485,
      "5iiir": 3486,
      "champion": 3487,
      "normalement": 3488,
      "mortaz9a": 3489,
      "bc": 3490,
      "bki": 3491,
      "eha": 3492,
      "gr": 3493,
      "hb": 3494,
      "jon": 3495,
      "jma3a": 3496,
      "l5ir": 3497,
      "ned": 3498,
      "vé": 3499,
      "willi": 3500,
      "ymout": 3501,
      "lawled": 3502,
      "elka": 3503,
      "taj": 3504,
      "fini": 3505,
      "fibel": 3506,
      "baad": 3507,
      "batala": 3508,
      "omik": 3509,
      "rie": 3510,
      "m3allam": 3511,
      "9aher": 3512,
      "9arar": 3513,
      "rouha": 3514,
      "mey": 3515,
      "meille": 3516,
      "5atir": 3517,
      "deux": 3518,
      "weya": 3519,
      "thin": 3520,
      "toma": 3521,
      "ta3raf": 3522,
      "ghaleb": 3523,
      "winta": 3524,
      "trah": 3525,
      "9olek": 3526,
      "yahya": 3527,
      "gued": 3528,
      "rasek": 3529,
      "tab3ou": 3530,
      "machalah": 3531,
      "3elna": 3532,
      "o5rej": 3533,
      "abonné": 3534,
      "5idma": 3535,
      "chanson": 3536,
      "18": 3537,
      "5li": 3538,
      "5bar": 3539,
      "7es": 3540,
      "9ed": 3541,
      "bka": 3542,
      "cal": 3543,
      "col": 3544,
      "fha": 3545,
      "lwa": 3546,
      "nya": 3547,
      "ndi": 3548,
      "n7i": 3549,
      "rem": 3550,
      "star": 3551,
      "sbeh": 3552,
      "oumou": 3553,
      "mahom": 3554,
      "maroc": 3555,
      "lal": 3556,
      "ché": 3557,
      "chmata": 3558,
      "leee": 3559,
      "waf": 3560,
      "fiya": 3561,
      "balek": 3562,
      "esse": 3563,
      "rim": 3564,
      "7aw": 3565,
      "moune": 3566,
      "tehel": 3567,
      "rouna": 3568,
      "barsha": 3569,
      "thal": 3570,
      "3amlin": 3571,
      "wa7dou": 3572,
      "yahdik": 3573,
      "7okouma": 3574,
      "parta": 3575,
      "dinya": 3576,
      "mte3kom": 3577,
      "yar7mek": 3578,
      "frança": 3579,
      "zart": 3580,
      "tsawer": 3581,
      "tjibou": 3582,
      "chnoua": 3583,
      "d5el": 3584,
      "nrml": 3585,
      "2el": 3586,
      "5eb": 3587,
      "5dim": 3588,
      "7em": 3589,
      "hlou": 3590,
      "mtou": 3591,
      "mté": 3592,
      "sc": 3593,
      "vis": 3594,
      "el3ar": 3595,
      "nam": 3596,
      "naaa": 3597,
      "nal9a": 3598,
      "bine": 3599,
      "fich": 3600,
      "sama7": 3601,
      "omi": 3602,
      "kik": 3603,
      "kira": 3604,
      "tousel": 3605,
      "houni": 3606,
      "koubi": 3607,
      "mennek": 3608,
      "ne3": 3609,
      "za3": 3610,
      "wewla": 3611,
      "belhi": 3612,
      "rob": 3613,
      "fe9ou": 3614,
      "rajol": 3615,
      "raje3": 3616,
      "je3": 3617,
      "ma3mal": 3618,
      "soum": 3619,
      "tekhdem": 3620,
      "botola": 3621,
      "ghan": 3622,
      "baratli": 3623,
      "lél": 3624,
      "nchallh": 3625,
      "dod": 3626,
      "ya7mi": 3627,
      "hakeka": 3628,
      "tounssi": 3629,
      "sel3a": 3630,
      "tabda": 3631,
      "afrique": 3632,
      "yal3eb": 3633,
      "tla3t": 3634,
      "nemchi": 3635,
      "wakt": 3636,
      "yonsor": 3637,
      "milliard": 3638,
      "a3tina": 3639,
      "kedheb": 3640,
      "mawjoud": 3641,
      "music": 3642,
      "clubistes": 3643,
      "bayouta": 3644,
      "contrat": 3645,
      "3ech": 3646,
      "adh": 3647,
      "bri": 3648,
      "fen": 3649,
      "fol": 3650,
      "hkom": 3651,
      "iched": 3652,
      "kteb": 3653,
      "yti": 3654,
      "çon": 3655,
      "én": 3656,
      "habet": 3657,
      "madam": 3658,
      "lar": 3659,
      "laken": 3660,
      "chbi": 3661,
      "tatla3": 3662,
      "fit": 3663,
      "fine": 3664,
      "bass": 3665,
      "etta": 3666,
      "ekhdem": 3667,
      "rih": 3668,
      "slime": 3669,
      "moush": 3670,
      "bous": 3671,
      "rou7i": 3672,
      "5alik": 3673,
      "bera": 3674,
      "ta3rfou": 3675,
      "andi": 3676,
      "fema": 3677,
      "rajl": 3678,
      "ya3raf": 3679,
      "mabrok": 3680,
      "terba7": 3681,
      "ghadi": 3682,
      "barak": 3683,
      "stro": 3684,
      "mahma": 3685,
      "tanna": 3686,
      "7ob": 3687,
      "raw3a": 3688,
      "bekri": 3689,
      "aleh": 3690,
      "fehmou": 3691,
      "yal3ab": 3692,
      "siyasa": 3693,
      "na9es": 3694,
      "magni": 3695,
      "rwe7kom": 3696,
      "mla3bi": 3697,
      "manoula": 3698,
      "3assba": 3699,
      "dhawedi": 3700,
      "photo": 3701,
      "ya39oubi": 3702,
      "5om": 3703,
      "7om": 3704,
      "7is": 3705,
      "8i": 3706,
      "cour": 3707,
      "eer": 3708,
      "e7na": 3709,
      "fsed": 3710,
      "hâ": 3711,
      "imed": 3712,
      "mza": 3713,
      "ow": 3714,
      "oin": 3715,
      "tkal": 3716,
      "tseb": 3717,
      "uk": 3718,
      "vir": 3719,
      "wch": 3720,
      "wken": 3721,
      "wtf": 3722,
      "yil": 3723,
      "yzid": 3724,
      "ér": 3725,
      "ouma": 3726,
      "ely": 3727,
      "libia": 3728,
      "ba9": 3729,
      "bassa": 3730,
      "esm": 3731,
      "essou": 3732,
      "kali": 3733,
      "kane": 3734,
      "karah": 3735,
      "edha": 3736,
      "7a7": 3737,
      "7acha": 3738,
      "kifach": 3739,
      "m3aya": 3740,
      "slimmm": 3741,
      "9alek": 3742,
      "teha": 3743,
      "thr": 3744,
      "zik": 3745,
      "minek": 3746,
      "founa": 3747,
      "9i9": 3748,
      "alaa": 3749,
      "hemek": 3750,
      "léd": 3751,
      "mta3kom": 3752,
      "9allou": 3753,
      "monde": 3754,
      "mahla": 3755,
      "mte3na": 3756,
      "darja": 3757,
      "tfouuuh": 3758,
      "titrou": 3759,
      "yelzemna": 3760,
      "leeem": 3761,
      "iwaf": 3762,
      "clubistia": 3763,
      "clubistiya": 3764,
      "corona": 3765,
      "9wiya": 3766,
      "romdha": 3767,
      "tarachi": 3768,
      "koora": 3769,
      "docteur": 3770,
      "confiance": 3771,
      "2i": 3772,
      "dma": 3773,
      "dza": 3774,
      "hen": 3775,
      "j3": 3776,
      "lkoul": 3777,
      "mess": 3778,
      "sni": 3779,
      "tkar": 3780,
      "ves": 3781,
      "w7": 3782,
      "yna3": 3783,
      "oua": 3784,
      "mama": 3785,
      "maal": 3786,
      "masou": 3787,
      "lama": 3788,
      "elou": 3789,
      "chbikom": 3790,
      "libi": 3791,
      "tala3": 3792,
      "wassel": 3793,
      "fii": 3794,
      "ba3id": 3795,
      "bayr": 3796,
      "samah": 3797,
      "saker": 3798,
      "saadi": 3799,
      "chakh": 3800,
      "challa": 3801,
      "tii": 3802,
      "tiiit": 3803,
      "kia": 3804,
      "dil": 3805,
      "nique": 3806,
      "tounisi": 3807,
      "mouh": 3808,
      "9adeh": 3809,
      "boura": 3810,
      "kour": 3811,
      "yehi": 3812,
      "caaa": 3813,
      "de9": 3814,
      "tham": 3815,
      "kenou": 3816,
      "ta3ml": 3817,
      "fouch": 3818,
      "seif": 3819,
      "ma3lem": 3820,
      "noum": 3821,
      "choufelna": 3822,
      "enas": 3823,
      "matet": 3824,
      "che5": 3825,
      "lék": 3826,
      "lelna": 3827,
      "inti5a": 3828,
      "netmana": 3829,
      "tanba7": 3830,
      "ma7soub": 3831,
      "kelb": 3832,
      "presed": 3833,
      "mchet": 3834,
      "salsel": 3835,
      "wllh": 3836,
      "god": 3837,
      "mazelt": 3838,
      "djabo": 3839,
      "euro": 3840,
      "guiba": 3841,
      "solta": 3842,
      "etounsi": 3843,
      "nationa": 3844,
      "mnaykin": 3845,
      "asa": 3846,
      "a3az": 3847,
      "bjr": 3848,
      "dè": 3849,
      "jè": 3850,
      "kech": 3851,
      "nhib": 3852,
      "vol": 3853,
      "yf": 3854,
      "yà": 3855,
      "ykhali": 3856,
      "maka": 3857,
      "mayet": 3858,
      "lis": 3859,
      "nadik": 3860,
      "takh": 3861,
      "lefriki": 3862,
      "bari": 3863,
      "ethaw": 3864,
      "tiya": 3865,
      "kana": 3866,
      "kalou": 3867,
      "dabet": 3868,
      "da5al": 3869,
      "cap": 3870,
      "sset": 3871,
      "most": 3872,
      "issi": 3873,
      "we7id": 3874,
      "dham": 3875,
      "dhahra": 3876,
      "lo5": 3877,
      "gan": 3878,
      "gat": 3879,
      "wia": 3880,
      "se7": 3881,
      "ssad": 3882,
      "merc": 3883,
      "alihom": 3884,
      "ta7chi": 3885,
      "mta3na": 3886,
      "kona": 3887,
      "9owa": 3888,
      "yekhdem": 3889,
      "ja3four": 3890,
      "sore9": 3891,
      "sba7": 3892,
      "télé": 3893,
      "nsha": 3894,
      "resul": 3895,
      "final": 3896,
      "kammel": 3897,
      "wow": 3898,
      "taamel": 3899,
      "core": 3900,
      "7asbi": 3901,
      "rou7k": 3902,
      "5dm": 3903,
      "8alya": 3904,
      "choix": 3905,
      "ta7iya": 3906,
      "magnifique": 3907,
      "12": 3908,
      "5s": 3909,
      "7kouma": 3910,
      "ag": 3911,
      "amen": 3912,
      "amel": 3913,
      "ase": 3914,
      "agh": 3915,
      "iwali": 3916,
      "jmhour": 3917,
      "mfa": 3918,
      "mba3ed": 3919,
      "nse": 3920,
      "nedi": 3921,
      "tdha": 3922,
      "tfo": 3923,
      "tbi3": 3924,
      "uf": 3925,
      "wor": 3926,
      "wine": 3927,
      "yir": 3928,
      "yid": 3929,
      "y9ol": 3930,
      "y3inek": 3931,
      "ouna": 3932,
      "tad": 3933,
      "3af": 3934,
      "leg": 3935,
      "fiih": 3936,
      "bayna": 3937,
      "inik": 3938,
      "saye": 3939,
      "ekh": 3940,
      "kadheb": 3941,
      "jaza": 3942,
      "fahmou": 3943,
      "ill": 3944,
      "deya": 3945,
      "aah": 3946,
      "7iwar": 3947,
      "akeka": 3948,
      "3alami": 3949,
      "ahl": 3950,
      "idek": 3951,
      "winchallah": 3952,
      "arja3": 3953,
      "wenchallah": 3954,
      "may7eb": 3955,
      "mahdi": 3956,
      "asba": 3957,
      "asma3": 3958,
      "bén": 3959,
      "n7ebek": 3960,
      "yechri": 3961,
      "tarajit": 3962,
      "yfadh": 3963,
      "tasma3": 3964,
      "sinon": 3965,
      "l9a7ba": 3966,
      "ya3tih": 3967,
      "3a9ba": 3968,
      "ma3adch": 3969,
      "hanikom": 3970,
      "beautif": 3971,
      "n7ebouk": 3972,
      "sliim": 3973,
      "5iiit": 3974,
      "3ayeltou": 3975,
      "7seb": 3976,
      "awal": 3977,
      "eg": 3978,
      "gj": 3979,
      "mh": 3980,
      "mba3d": 3981,
      "nom": 3982,
      "odwa": 3983,
      "slam": 3984,
      "sghar": 3985,
      "use": 3986,
      "uur": 3987,
      "yzi": 3988,
      "yssa": 3989,
      "éna": 3990,
      "oura": 3991,
      "maine": 3992,
      "chk": 3993,
      "chle": 3994,
      "nach": 3995,
      "ta2": 3996,
      "3ani": 3997,
      "leybi": 3998,
      "insha": 3999,
      "sadi": 4000,
      "chaîne": 4001,
      "tive": 4002,
      "7awel": 4003,
      "jari": 4004,
      "loub": 4005,
      "louhichi": 4006,
      "alo": 4007,
      "alli": 4008,
      "can": 4009,
      "menkom": 4010,
      "melyarat": 4011,
      "rohek": 4012,
      "lob": 4013,
      "low": 4014,
      "raj3elna": 4015,
      "youma": 4016,
      "se3a": 4017,
      "kifk": 4018,
      "zouha": 4019,
      "bok": 4020,
      "koi": 4021,
      "wallet": 4022,
      "abd": 4023,
      "yét": 4024,
      "bél": 4025,
      "program": 4026,
      "taswira": 4027,
      "hadhaka": 4028,
      "siyassa": 4029,
      "bladna": 4030,
      "3ezkom": 4031,
      "glais": 4032,
      "rasoul": 4033,
      "zwawla": 4034,
      "bayrem": 4035,
      "beautiful": 4036,
      "17": 4037,
      "3sa": 4038,
      "3nd": 4039,
      "4ir": 4040,
      "bye": 4041,
      "cel": 4042,
      "dsl": 4043,
      "jj": 4044,
      "tine": 4045,
      "tkoul": 4046,
      "tmout": 4047,
      "wj": 4048,
      "hajet": 4049,
      "maho": 4050,
      "mahomch": 4051,
      "chen": 4052,
      "yali": 4053,
      "ta5ra": 4054,
      "3amal": 4055,
      "ente": 4056,
      "le3bed": 4057,
      "bilel": 4058,
      "bilahi": 4059,
      "bilehi": 4060,
      "bai": 4061,
      "batta": 4062,
      "inty": 4063,
      "tib": 4064,
      "sii": 4065,
      "7akem": 4066,
      "louh": 4067,
      "diii": 4068,
      "dat": 4069,
      "nifa9": 4070,
      "mouha": 4071,
      "reh": 4072,
      "real": 4073,
      "me3a": 4074,
      "deha": 4075,
      "ort": 4076,
      "tha7": 4077,
      "tot": 4078,
      "passe": 4079,
      "khli": 4080,
      "ma3in": 4081,
      "berjoulia": 4082,
      "winek": 4083,
      "hamma": 4084,
      "léhi": 4085,
      "kot": 4086,
      "koli": 4087,
      "traba": 4088,
      "wenssa": 4089,
      "rance": 4090,
      "maher": 4091,
      "tahel": 4092,
      "yahmi": 4093,
      "saret": 4094,
      "yara7": 4095,
      "2020": 4096,
      "3andk": 4097,
      "yehlek": 4098,
      "7amla": 4099,
      "super": 4100,
      "3abd": 4101,
      "bourjoulia": 4102,
      "t3awen": 4103,
      "gardi": 4104,
      "3a9liya": 4105,
      "yhf": 4106,
      "yar7amhom": 4107,
      "3ezek": 4108,
      "femme": 4109,
      "fiiih": 4110,
      "commentaires": 4111,
      "888": 4112,
      "mdrrr": 4113,
      "yarhmo": 4114,
      "mayjich": 4115,
      "centre": 4116,
      "droit": 4117,
      "possible": 4118,
      "55": 4119,
      "9e": 4120,
      "9ek": 4121,
      "btek": 4122,
      "iti": 4123,
      "izi": 4124,
      "jà": 4125,
      "n7ib": 4126,
      "yor": 4127,
      "ybarek": 4128,
      "zine": 4129,
      "hasi": 4130,
      "hamou": 4131,
      "maye": 4132,
      "maah": 4133,
      "matan": 4134,
      "libiya": 4135,
      "nahi": 4136,
      "ensa": 4137,
      "encore": 4138,
      "chari": 4139,
      "tis": 4140,
      "riii": 4141,
      "jahel": 4142,
      "jaded": 4143,
      "fath": 4144,
      "emta3": 4145,
      "echkoun": 4146,
      "kika": 4147,
      "dabe": 4148,
      "teau": 4149,
      "mid": 4150,
      "miz": 4151,
      "ssin": 4152,
      "ro7": 4153,
      "lok": 4154,
      "douna": 4155,
      "foun": 4156,
      "khalik": 4157,
      "ma3rouf": 4158,
      "souti": 4159,
      "mouche": 4160,
      "hamdel": 4161,
      "asl": 4162,
      "mochkel": 4163,
      "bledou": 4164,
      "hahahahah": 4165,
      "jahl": 4166,
      "tari9a": 4167,
      "samba": 4168,
      "bnj": 4169,
      "fachel": 4170,
      "wataniya": 4171,
      "choft": 4172,
      "cute": 4173,
      "yarhamha": 4174,
      "wwwiiiw": 4175,
      "mashallah": 4176,
      "hâta": 4177,
      "3m": 4178,
      "7b": 4179,
      "bom": 4180,
      "ds": 4181,
      "klé": 4182,
      "ltounes": 4183,
      "njibou": 4184,
      "ot": 4185,
      "rbou": 4186,
      "tga": 4187,
      "uche": 4188,
      "wrabbi": 4189,
      "ydi": 4190,
      "mawa": 4191,
      "make": 4192,
      "ragh": 4193,
      "ration": 4194,
      "lakin": 4195,
      "yahi": 4196,
      "tadh": 4197,
      "tama3": 4198,
      "lem3alem": 4199,
      "lekher": 4200,
      "bidha": 4201,
      "binet": 4202,
      "wassa": 4203,
      "bagh": 4204,
      "ines": 4205,
      "sat": 4206,
      "sa3id": 4207,
      "esba": 4208,
      "es7i7": 4209,
      "cha3ib": 4210,
      "ka7": 4211,
      "sili": 4212,
      "jaya": 4213,
      "lahkeya": 4214,
      "dach": 4215,
      "toum": 4216,
      "9an": 4217,
      "rou9": 4218,
      "vooo": 4219,
      "moez": 4220,
      "3im": 4221,
      "nej": 4222,
      "tof": 4223,
      "toire": 4224,
      "weled": 4225,
      "fouk": 4226,
      "khabet": 4227,
      "hedheka": 4228,
      "a7zeb": 4229,
      "winhom": 4230,
      "viv": 4231,
      "netsawer": 4232,
      "ja3fer": 4233,
      "soit": 4234,
      "dareb": 4235,
      "alef": 4236,
      "sa7afa": 4237,
      "bourguiba": 4238,
      "kertha": 4239,
      "sont": 4240,
      "wél": 4241,
      "fechel": 4242,
      "tones": 4243,
      "nsit": 4244,
      "to93ed": 4245,
      "madame": 4246,
      "blastou": 4247,
      "algérie": 4248,
      "mziya": 4249,
      "meilleur": 4250,
      "24": 4251,
      "5it": 4252,
      "7ta": 4253,
      "9tal": 4254,
      "abou": 4255,
      "blou": 4256,
      "cine": 4257,
      "fon": 4258,
      "fdhi": 4259,
      "iha": 4260,
      "iba": 4261,
      "idik": 4262,
      "lbou": 4263,
      "lko": 4264,
      "nc": 4265,
      "n9oulou": 4266,
      "num": 4267,
      "ndhif": 4268,
      "wlah": 4269,
      "xi": 4270,
      "ykou": 4271,
      "ydha": 4272,
      "y7i": 4273,
      "yest": 4274,
      "ynik": 4275,
      "étoile": 4276,
      "émission": 4277,
      "lana": 4278,
      "laabed": 4279,
      "liste": 4280,
      "bidi": 4281,
      "omm": 4282,
      "esou": 4283,
      "erya7i": 4284,
      "siyesa": 4285,
      "ritou": 4286,
      "7a9ou": 4287,
      "kifi": 4288,
      "re7": 4289,
      "rouhik": 4290,
      "braaa": 4291,
      "mota": 4292,
      "5atrou": 4293,
      "toch": 4294,
      "7im": 4295,
      "allaho": 4296,
      "section": 4297,
      "9if": 4298,
      "ya3ml": 4299,
      "mabro": 4300,
      "kifkom": 4301,
      "wa7d": 4302,
      "farha": 4303,
      "yodh": 4304,
      "traja3": 4305,
      "walhi": 4306,
      "hethom": 4307,
      "thika": 4308,
      "bilna": 4309,
      "haded": 4310,
      "kelmet": 4311,
      "mén": 4312,
      "comment": 4313,
      "meddeb": 4314,
      "5ouh": 4315,
      "9ader": 4316,
      "nchllh": 4317,
      "nasma3": 4318,
      "denia": 4319,
      "libre": 4320,
      "bahya": 4321,
      "bbj": 4322,
      "blida": 4323,
      "a5tana": 4324,
      "ye7ki": 4325,
      "rou7ha": 4326,
      "cardi": 4327,
      "2019": 4328,
      "millions": 4329,
      "jerba": 4330,
      "jme3et": 4331,
      "7ezeb": 4332,
      "meriem": 4333,
      "n9olek": 4334,
      "parole": 4335,
      "jaziri": 4336,
      "virus": 4337,
      "samahni": 4338,
      "presedent": 4339,
      "ethawra": 4340,
      "3sba": 4341,
      "3sal": 4342,
      "ahawka": 4343,
      "ctif": 4344,
      "dkh": 4345,
      "fhim": 4346,
      "hyet": 4347,
      "i7a": 4348,
      "jin": 4349,
      "jek": 4350,
      "lon": 4351,
      "leli": 4352,
      "nra": 4353,
      "n5a": 4354,
      "ob": 4355,
      "rk": 4356,
      "sné": 4357,
      "yber": 4358,
      "maza": 4359,
      "rasi": 4360,
      "lima": 4361,
      "yarabi": 4362,
      "tahia": 4363,
      "3alih": 4364,
      "bib": 4365,
      "insa": 4366,
      "sabr": 4367,
      "tiram": 4368,
      "his": 4369,
      "kai": 4370,
      "7adh": 4371,
      "jamel": 4372,
      "fari9": 4373,
      "eche": 4374,
      "lahou": 4375,
      "dad": 4376,
      "nikou": 4377,
      "ilna": 4378,
      "rouch": 4379,
      "yej": 4380,
      "me3ak": 4381,
      "moh": 4382,
      "thaw": 4383,
      "look": 4384,
      "gandou": 4385,
      "khrej": 4386,
      "joum": 4387,
      "joun": 4388,
      "fout": 4389,
      "ents": 4390,
      "lekleb": 4391,
      "youfa": 4392,
      "yousel": 4393,
      "sex": 4394,
      "9ima": 4395,
      "jeune": 4396,
      "hedhom": 4397,
      "3amlet": 4398,
      "a7san": 4399,
      "ahsan": 4400,
      "3allem": 4401,
      "yostor": 4402,
      "blassa": 4403,
      "aliha": 4404,
      "hebou": 4405,
      "stin": 4406,
      "wallh": 4407,
      "ssit": 4408,
      "baldi": 4409,
      "aml": 4410,
      "amlou": 4411,
      "abda": 4412,
      "kker": 4413,
      "dhib": 4414,
      "mawdhou": 4415,
      "3abed": 4416,
      "frère": 4417,
      "lazemna": 4418,
      "wejh": 4419,
      "yosr": 4420,
      "ma5yeb": 4421,
      "vue": 4422,
      "respec": 4423,
      "nabbara": 4424,
      "yo5rej": 4425,
      "mli7": 4426,
      "9loubna": 4427,
      "chkoune": 4428,
      "sama7ni": 4429,
      "3zouza": 4430,
      "aham": 4431,
      "bkol": 4432,
      "btala": 4433,
      "bkit": 4434,
      "dzi": 4435,
      "ide": 4436,
      "mrak": 4437,
      "mfach": 4438,
      "nk": 4439,
      "oc": 4440,
      "pé": 4441,
      "vr": 4442,
      "vza": 4443,
      "vas": 4444,
      "wzid": 4445,
      "wedh": 4446,
      "znatir": 4447,
      "hadou": 4448,
      "elkom": 4449,
      "yarab": 4450,
      "yakh": 4451,
      "talla": 4452,
      "inou": 4453,
      "chaa": 4454,
      "cha3ab": 4455,
      "jat": 4456,
      "darou": 4457,
      "niii": 4458,
      "toufa": 4459,
      "mouta": 4460,
      "9afila": 4461,
      "miled": 4462,
      "voi": 4463,
      "moha": 4464,
      "3iba": 4465,
      "meni": 4466,
      "wey": 4467,
      "aab": 4468,
      "aalik": 4469,
      "zibi": 4470,
      "well": 4471,
      "lool": 4472,
      "gauche": 4473,
      "anou": 4474,
      "lekbir": 4475,
      "yousr": 4476,
      "sera": 4477,
      "sera9": 4478,
      "hedhy": 4479,
      "ité": 4480,
      "zoula": 4481,
      "bob": 4482,
      "matji": 4483,
      "key": 4484,
      "merde": 4485,
      "sayib": 4486,
      "na3r": 4487,
      "traba7": 4488,
      "ghne": 4489,
      "la3bou": 4490,
      "tal3ou": 4491,
      "heki": 4492,
      "yizi": 4493,
      "mekch": 4494,
      "tele": 4495,
      "karl": 4496,
      "jebt": 4497,
      "forma": 4498,
      "marzougui": 4499,
      "mte3k": 4500,
      "jomhou": 4501,
      "badlou": 4502,
      "mordha": 4503,
      "tfaraj": 4504,
      "riya7i": 4505,
      "e3lem": 4506,
      "ghira": 4507,
      "d5ol": 4508,
      "chokri": 4509,
      "fuck": 4510,
      "klemou": 4511,
      "dommage": 4512,
      "1920": 4513,
      "slemtek": 4514,
      "masla7t": 4515,
      "jma3et": 4516,
      "mas2ou": 4517,
      "jeunes": 4518,
      "gardien": 4519,
      "2m": 4520,
      "3t": 4521,
      "4ali": 4522,
      "7t": 4523,
      "abir": 4524,
      "btou": 4525,
      "dch": 4526,
      "dri": 4527,
      "fza": 4528,
      "fess": 4529,
      "hli": 4530,
      "kine": 4531,
      "kèn": 4532,
      "là": 4533,
      "lenti": 4534,
      "msi": 4535,
      "mze": 4536,
      "rb": 4537,
      "sech": 4538,
      "sbou": 4539,
      "vs": 4540,
      "wè": 4541,
      "wrou": 4542,
      "y7ib": 4543,
      "hassen": 4544,
      "matar": 4545,
      "makan": 4546,
      "elhom": 4547,
      "el5ir": 4548,
      "taaa": 4549,
      "3alim": 4550,
      "3ame": 4551,
      "letha": 4552,
      "bila": 4553,
      "bizer": 4554,
      "wa7ad": 4555,
      "bana": 4556,
      "bacha": 4557,
      "sama": 4558,
      "esna": 4559,
      "ers": 4560,
      "charaf": 4561,
      "site": 4562,
      "rite": 4563,
      "faraj": 4564,
      "nike": 4565,
      "slimin": 4566,
      "mousta": 4567,
      "9adem": 4568,
      "roud": 4569,
      "houkom": 4570,
      "3ifa": 4571,
      "meno": 4572,
      "bez": 4573,
      "thek": 4574,
      "that": 4575,
      "loma": 4576,
      "douha": 4577,
      "pauv": 4578,
      "chi5": 4579,
      "marek": 4580,
      "fouh": 4581,
      "khar": 4582,
      "quali": 4583,
      "veux": 4584,
      "ghaliya": 4585,
      "mabroukkk": 4586,
      "benesba": 4587,
      "ta7t": 4588,
      "wallit": 4589,
      "peur": 4590,
      "peup": 4591,
      "tetfarej": 4592,
      "thim": 4593,
      "tal3eb": 4594,
      "3lehom": 4595,
      "mekech": 4596,
      "m3k": 4597,
      "rahma": 4598,
      "helek": 4599,
      "tunisiens": 4600,
      "ynaj": 4601,
      "ward": 4602,
      "sal7ou": 4603,
      "derbi": 4604,
      "nhebek": 4605,
      "galbi": 4606,
      "zing": 4607,
      "ysaber": 4608,
      "jendouba": 4609,
      "yabda": 4610,
      "fa9r": 4611,
      "borjo": 4612,
      "ssoud": 4613,
      "ya7kiw": 4614,
      "watania": 4615,
      "classe": 4616,
      "algeria": 4617,
      "mwabna": 4618,
      "nawfel": 4619,
      "demain": 4620,
      "jamahir": 4621,
      "kedhb": 4622,
      "malgré": 4623,
      "m5a5": 4624,
      "bcp": 4625,
      "4i": 4626,
      "7e": 4627,
      "8ay": 4628,
      "9or": 4629,
      "dhom": 4630,
      "ifriki": 4631,
      "kber": 4632,
      "ls": 4633,
      "len": 4634,
      "ltaw": 4635,
      "lmara": 4636,
      "sle": 4637,
      "shou": 4638,
      "tè": 4639,
      "t5ali": 4640,
      "ution": 4641,
      "wwa": 4642,
      "wka": 4643,
      "wfa": 4644,
      "whouma": 4645,
      "yok": 4646,
      "zwewla": 4647,
      "haba": 4648,
      "mafa": 4649,
      "mafia": 4650,
      "ra5": 4651,
      "rassi": 4652,
      "el7a": 4653,
      "chin": 4654,
      "liblad": 4655,
      "najeh": 4656,
      "wabna": 4657,
      "waten": 4658,
      "fisa3": 4659,
      "barou": 4660,
      "baby": 4661,
      "inte": 4662,
      "etkom": 4663,
      "chara": 4664,
      "chabab": 4665,
      "loun": 4666,
      "louha": 4667,
      "m3all": 4668,
      "moun": 4669,
      "rena": 4670,
      "9abel": 4671,
      "rouni": 4672,
      "houna": 4673,
      "kouch": 4674,
      "migalo": 4675,
      "ye5dmou": 4676,
      "castro": 4677,
      "vote": 4678,
      "5amej": 4679,
      "jia": 4680,
      "thb": 4681,
      "beleh": 4682,
      "toh": 4683,
      "toha": 4684,
      "doum": 4685,
      "gara": 4686,
      "gali": 4687,
      "annee": 4688,
      "khay": 4689,
      "with": 4690,
      "akbir": 4691,
      "ahlem": 4692,
      "soud": 4693,
      "prin": 4694,
      "ghalet": 4695,
      "baramej": 4696,
      "farkh": 4697,
      "vision": 4698,
      "arjel": 4699,
      "saybo": 4700,
      "a3m": 4701,
      "9albek": 4702,
      "lkolhom": 4703,
      "mahleha": 4704,
      "mahboul": 4705,
      "lilna": 4706,
      "thil": 4707,
      "la7ram": 4708,
      "la79i9a": 4709,
      "taher": 4710,
      "5ire": 4711,
      "besoin": 4712,
      "statu": 4713,
      "5allik": 4714,
      "sbah": 4715,
      "sidkom": 4716,
      "marat": 4717,
      "willa": 4718,
      "belleh": 4719,
      "profes": 4720,
      "tounsiya": 4721,
      "frer": 4722,
      "yjibou": 4723,
      "da5il": 4724,
      "tkalem": 4725,
      "eure": 4726,
      "waktech": 4727,
      "kraheb": 4728,
      "biiir": 4729,
      "fdhaya7": 4730,
      "ghoul": 4731,
      "wjouh": 4732,
      "5maj": 4733,
      "aki": 4734,
      "bdi": 4735,
      "bkom": 4736,
      "fda": 4737,
      "gne": 4738,
      "kr": 4739,
      "ky": 4740,
      "lta": 4741,
      "oha": 4742,
      "och": 4743,
      "stu": 4744,
      "sghir": 4745,
      "tj": 4746,
      "tkou": 4747,
      "tchoufou": 4748,
      "t7ot": 4749,
      "w5a": 4750,
      "wooo": 4751,
      "yis": 4752,
      "yna3mou": 4753,
      "ème": 4754,
      "mafi": 4755,
      "maken": 4756,
      "maya3": 4757,
      "rayes": 4758,
      "chhar": 4759,
      "chwya": 4760,
      "tafi": 4761,
      "taka": 4762,
      "takila": 4763,
      "en7eb": 4764,
      "wath": 4765,
      "etc": 4766,
      "eti": 4767,
      "erye7i": 4768,
      "kaa": 4769,
      "kamil": 4770,
      "diri": 4771,
      "daa": 4772,
      "dawi": 4773,
      "regar": 4774,
      "9adek": 4775,
      "home": 4776,
      "rouhi": 4777,
      "cato": 4778,
      "menk": 4779,
      "issa": 4780,
      "islem": 4781,
      "lo5ra": 4782,
      "douch": 4783,
      "jouleya": 4784,
      "ano": 4785,
      "fef": 4786,
      "rajja3": 4787,
      "rajél": 4788,
      "ention": 4789,
      "jeweb": 4790,
      "terrain": 4791,
      "kifhom": 4792,
      "manna": 4793,
      "cep": 4794,
      "trés": 4795,
      "saybouna": 4796,
      "bladi": 4797,
      "a3lech": 4798,
      "stes": 4799,
      "ssia": 4800,
      "ssil": 4801,
      "balf": 4802,
      "maset": 4803,
      "tal7is": 4804,
      "sow": 4805,
      "ya7ya": 4806,
      "messi": 4807,
      "park": 4808,
      "cha3be": 4809,
      "mochkol": 4810,
      "ketheb": 4811,
      "yechfi": 4812,
      "sup": 4813,
      "tenu": 4814,
      "yfarej": 4815,
      "hahahahahahahaha": 4816,
      "ykawer": 4817,
      "bbb": 4818,
      "te7ki": 4819,
      "sorm": 4820,
      "na7ki": 4821,
      "echaab": 4822,
      "5ayba": 4823,
      "féli": 4824,
      "ma3naha": 4825,
      "direct": 4826,
      "mafhemtech": 4827,
      "faceb": 4828,
      "français": 4829,
      "mawdhou3": 4830,
      "3il": 4831,
      "5ser": 4832,
      "60": 4833,
      "9ha": 4834,
      "gen": 4835,
      "hta": 4836,
      "hmo": 4837,
      "hlel": 4838,
      "i5dem": 4839,
      "jsk": 4840,
      "klm": 4841,
      "krima": 4842,
      "lhi": 4843,
      "l3am": 4844,
      "lflous": 4845,
      "m7": 4846,
      "m7a": 4847,
      "mol": 4848,
      "n3": 4849,
      "nhezou": 4850,
      "wmat": 4851,
      "wenty": 4852,
      "yhem": 4853,
      "ybi3": 4854,
      "zla": 4855,
      "out": 4856,
      "raii": 4857,
      "lamou": 4858,
      "elek": 4859,
      "el7a9": 4860,
      "elly": 4861,
      "chla": 4862,
      "chom": 4863,
      "litha": 4864,
      "liflous": 4865,
      "yaw": 4866,
      "leken": 4867,
      "letna": 4868,
      "wad": 4869,
      "baji": 4870,
      "ino": 4871,
      "insta": 4872,
      "sale": 4873,
      "salla": 4874,
      "omra": 4875,
      "timchi": 4876,
      "7abou": 4877,
      "fa5": 4878,
      "faz": 4879,
      "danadik": 4880,
      "toulou": 4881,
      "9ana": 4882,
      "koumet": 4883,
      "bravou": 4884,
      "mo9": 4885,
      "5ala": 4886,
      "3ina": 4887,
      "jiha": 4888,
      "thana": 4889,
      "thabet": 4890,
      "ziza": 4891,
      "gabes": 4892,
      "khsara": 4893,
      "marka": 4894,
      "khaoula": 4895,
      "amazing": 4896,
      "ma3loul": 4897,
      "chour": 4898,
      "manet": 4899,
      "zoul": 4900,
      "berjouliya": 4901,
      "chez": 4902,
      "sayb": 4903,
      "sayé": 4904,
      "yekh": 4905,
      "la3ba": 4906,
      "mas5a": 4907,
      "tal3et": 4908,
      "yesta": 4909,
      "abdel": 4910,
      "yedh": 4911,
      "dém": 4912,
      "medem": 4913,
      "will": 4914,
      "mnayk": 4915,
      "pourquoi": 4916,
      "manajem": 4917,
      "twanssa": 4918,
      "fergha": 4919,
      "yfadhel": 4920,
      "bourjouliya": 4921,
      "very": 4922,
      "temps": 4923,
      "behy": 4924,
      "résul": 4925,
      "shiha": 4926,
      "5dmo": 4927,
      "bhayem": 4928,
      "ghirou": 4929,
      "lezm": 4930,
      "million": 4931,
      "l3bou": 4932,
      "yo93ed": 4933,
      "syst": 4934,
      "dhefi": 4935,
      "groupe": 4936,
      "hamdellah": 4937,
      "gandoura": 4938,
      "peuple": 4939,
      "7ké": 4940,
      "8neya": 4941,
      "9es": 4942,
      "ap": 4943,
      "fm": 4944,
      "isir": 4945,
      "jna": 4946,
      "kch": 4947,
      "klém": 4948,
      "mkha": 4949,
      "rd": 4950,
      "t3i": 4951,
      "twenssa": 4952,
      "uh": 4953,
      "wfi": 4954,
      "yol": 4955,
      "yhez": 4956,
      "ywalli": 4957,
      "èt": 4958,
      "ma9a": 4959,
      "ra8": 4960,
      "raki": 4961,
      "rayi": 4962,
      "lai": 4963,
      "chm": 4964,
      "lie": 4965,
      "lif": 4966,
      "litou": 4967,
      "lidara": 4968,
      "ya9ra": 4969,
      "tasir": 4970,
      "3ath": 4971,
      "enfa": 4972,
      "way": 4973,
      "fili": 4974,
      "salu": 4975,
      "sa7eb": 4976,
      "tikom": 4977,
      "edenya": 4978,
      "7ass": 4979,
      "jad": 4980,
      "fazet": 4981,
      "louken": 4982,
      "dalil": 4983,
      "mi3": 4984,
      "mih": 4985,
      "mojr": 4986,
      "5arjou": 4987,
      "dewi": 4988,
      "degag": 4989,
      "bee": 4990,
      "belli": 4991,
      "dhah": 4992,
      "mele5er": 4993,
      "zied": 4994,
      "rof": 4995,
      "ta3mlo": 4996,
      "dhed": 4997,
      "papa": 4998,
      "minik": 4999,
      "luck": 5000,
      "khdem": 5001,
      "anné": 5002,
      "khaw": 5003,
      "ssal": 5004,
      "nok": 5005,
      "wino": 5006,
      "tnayek": 5007,
      "cha3bha": 5008,
      "7out": 5009,
      "peut": 5010,
      "yestana": 5011,
      "hekka": 5012,
      "nahdi": 5013,
      "5aliw": 5014,
      "guer": 5015,
      "wildi": 5016,
      "jomhor": 5017,
      "edawla": 5018,
      "frank": 5019,
      "mazelna": 5020,
      "lmra": 5021,
      "joueuret": 5022,
      "blhi": 5023,
      "avez": 5024,
      "peri": 5025,
      "7abs": 5026,
      "siyasi": 5027,
      "majles": 5028,
      "wejha": 5029,
      "ta9ra": 5030,
      "a5tak": 5031,
      "ddd": 5032,
      "5oya": 5033,
      "jamia": 5034,
      "floussek": 5035,
      "mathlou": 5036,
      "please": 5037,
      "i3lem": 5038,
      "y3awen": 5039,
      "8alta": 5040,
      "femma": 5041,
      "laybi": 5042,
      "dakhel": 5043,
      "hamdoullah": 5044,
      "bléd": 5045,
      "attention": 5046,
      "kach5a": 5047,
      "simple": 5048,
      "ma3andouch": 5049,
      "enahdha": 5050,
      "formation": 5051,
      "2ak": 5052,
      "5or": 5053,
      "7ed": 5054,
      "9sar": 5055,
      "abonne": 5056,
      "bol": 5057,
      "b9a": 5058,
      "clo": 5059,
      "dre": 5060,
      "fg": 5061,
      "gre": 5062,
      "hlek": 5063,
      "hkeya": 5064,
      "hkeyet": 5065,
      "ijam3iya": 5066,
      "nwali": 5067,
      "op": 5068,
      "rra": 5069,
      "sine": 5070,
      "ted": 5071,
      "tne": 5072,
      "tfih": 5073,
      "wsa": 5074,
      "wsel": 5075,
      "xe": 5076,
      "y3ay": 5077,
      "êtes": 5078,
      "main": 5079,
      "mane": 5080,
      "rama": 5081,
      "el9a": 5082,
      "najam": 5083,
      "lea": 5084,
      "wari": 5085,
      "fire": 5086,
      "baha": 5087,
      "batel": 5088,
      "ome": 5089,
      "omma": 5090,
      "omni": 5091,
      "omour": 5092,
      "espe": 5093,
      "tiw": 5094,
      "ka3": 5095,
      "sisi": 5096,
      "ri2": 5097,
      "7a9a": 5098,
      "fake": 5099,
      "emlou": 5100,
      "ebou": 5101,
      "dieu": 5102,
      "nii": 5103,
      "nife9": 5104,
      "toute": 5105,
      "olm": 5106,
      "limi": 5107,
      "m3atheb": 5108,
      "mou7a": 5109,
      "mourad": 5110,
      "rouda": 5111,
      "rouge": 5112,
      "5af": 5113,
      "5asa": 5114,
      "de2": 5115,
      "isode": 5116,
      "aad": 5117,
      "thaher": 5118,
      "dhab": 5119,
      "dhawadi": 5120,
      "ta3rif": 5121,
      "chit": 5122,
      "chibob": 5123,
      "jou3": 5124,
      "marsa": 5125,
      "tunsi": 5126,
      "yetfarej": 5127,
      "9imet": 5128,
      "ma3rou": 5129,
      "barchaaa": 5130,
      "barat": 5131,
      "tarek": 5132,
      "farj": 5133,
      "tnaj": 5134,
      "ghor": 5135,
      "7ouna": 5136,
      "lkolkom": 5137,
      "kalmou": 5138,
      "yih": 5139,
      "presque": 5140,
      "posi": 5141,
      "dhia": 5142,
      "jebou": 5143,
      "9olna": 5144,
      "ma3ach": 5145,
      "manadher": 5146,
      "3omro": 5147,
      "a9ra": 5148,
      "goulou": 5149,
      "tebda": 5150,
      "sayebna": 5151,
      "ehna": 5152,
      "tkawer": 5153,
      "exp": 5154,
      "mridha": 5155,
      "mlayen": 5156,
      "3atrous": 5157,
      "2013": 5158,
      "yar7amha": 5159,
      "ykhalik": 5160,
      "mleyen": 5161,
      "de5la": 5162,
      "bheyem": 5163,
      "3aychin": 5164,
      "blhy": 5165,
      "5omej": 5166,
      "programme": 5167,
      "siliana": 5168,
      "facebook": 5169,
      "3na": 5170,
      "4lfa": 5171,
      "asi": 5172,
      "achkoun": 5173,
      "b7": 5174,
      "bh": 5175,
      "bsi": 5176,
      "bsh": 5177,
      "bdet": 5178,
      "dc": 5179,
      "ezi": 5180,
      "fli": 5181,
      "gor": 5182,
      "ktou": 5183,
      "lbe": 5184,
      "lbara": 5185,
      "l3ou": 5186,
      "lkoura": 5187,
      "mne": 5188,
      "msay": 5189,
      "mdr": 5190,
      "nda": 5191,
      "rê": 5192,
      "r9ou": 5193,
      "stop": 5194,
      "tlek": 5195,
      "test": 5196,
      "tban": 5197,
      "uve": 5198,
      "vrais": 5199,
      "ouiii": 5200,
      "ma3an": 5201,
      "ma3andi": 5202,
      "raou": 5203,
      "rabe": 5204,
      "rajal": 5205,
      "elkoura": 5206,
      "lika": 5207,
      "yadh": 5208,
      "3amar": 5209,
      "lezim": 5210,
      "baka": 5211,
      "etes": 5212,
      "saa": 5213,
      "essaha": 5214,
      "erheb": 5215,
      "chahid": 5216,
      "titro": 5217,
      "hika": 5218,
      "karou": 5219,
      "7abit": 5220,
      "jayeb": 5221,
      "fa9ou": 5222,
      "fased": 5223,
      "echri": 5224,
      "kilab": 5225,
      "mou3ar": 5226,
      "9adh": 5227,
      "mieux": 5228,
      "vos": 5229,
      "5atrek": 5230,
      "3icha": 5231,
      "bechir": 5232,
      "kenek": 5233,
      "zizi": 5234,
      "dhech": 5235,
      "dhbou": 5236,
      "paris": 5237,
      "minkom": 5238,
      "3liya": 5239,
      "jee": 5240,
      "3amil": 5241,
      "yarhm": 5242,
      "teri5": 5243,
      "sous": 5244,
      "tardou": 5245,
      "tarbiya": 5246,
      "wa7dik": 5247,
      "fard": 5248,
      "3almou": 5249,
      "vic": 5250,
      "yoh": 5251,
      "esseb": 5252,
      "ta77an": 5253,
      "ta77ana": 5254,
      "cia": 5255,
      "ssiya": 5256,
      "zez": 5257,
      "ammar": 5258,
      "tal3ab": 5259,
      "jem3iya": 5260,
      "yi7": 5261,
      "yib": 5262,
      "bessif": 5263,
      "mesh": 5264,
      "stad": 5265,
      "5alih": 5266,
      "déjà": 5267,
      "beki": 5268,
      "bét": 5269,
      "7amdou": 5270,
      "we7d": 5271,
      "ooore": 5272,
      "yal3bou": 5273,
      "kamla": 5274,
      "zebiii": 5275,
      "journa": 5276,
      "borjouliya": 5277,
      "place": 5278,
      "marina": 5279,
      "mte3i": 5280,
      "mathel": 5281,
      "to9tel": 5282,
      "tor7": 5283,
      "2011": 5284,
      "gharbia": 5285,
      "dharbet": 5286,
      "yhebou": 5287,
      "8alia": 5288,
      "rassmi": 5289,
      "maryouma": 5290,
      "rojla": 5291,
      "mawjouda": 5292,
      "sommes": 5293,
      "radio": 5294,
      "bèch": 5295,
      "nadhef": 5296,
      "7asilou": 5297,
      "question": 5298,
      "félicitation": 5299,
      "22": 5300,
      "3bi": 5301,
      "3on": 5302,
      "3end": 5303,
      "3jebni": 5304,
      "80": 5305,
      "8oneya": 5306,
      "aou": 5307,
      "amn": 5308,
      "bkolna": 5309,
      "cc": 5310,
      "cli": 5311,
      "cle": 5312,
      "cur": 5313,
      "ddem": 5314,
      "ei": 5315,
      "fch": 5316,
      "fomek": 5317,
      "hrab": 5318,
      "iz": 5319,
      "lklem": 5320,
      "m6": 5321,
      "mtha": 5322,
      "ndhi": 5323,
      "nenta": 5324,
      "nkounou": 5325,
      "ohhh": 5326,
      "orig": 5327,
      "t3ar": 5328,
      "tmani": 5329,
      "tgoul": 5330,
      "ub": 5331,
      "uni": 5332,
      "w9a": 5333,
      "wii": 5334,
      "w5ay": 5335,
      "wentom": 5336,
      "zis": 5337,
      "àà": 5338,
      "ïd": 5339,
      "habit": 5340,
      "ma3and": 5341,
      "maaak": 5342,
      "makich": 5343,
      "ral": 5344,
      "ra7i": 5345,
      "rake": 5346,
      "ravi": 5347,
      "racha7": 5348,
      "elk": 5349,
      "yaj": 5350,
      "tath": 5351,
      "3acha": 5352,
      "3ajbou": 5353,
      "enni": 5354,
      "ennas": 5355,
      "billah": 5356,
      "wab": 5357,
      "fifa": 5358,
      "sa9i": 5359,
      "saref": 5360,
      "essi": 5361,
      "tija": 5362,
      "kawer": 5363,
      "kalam": 5364,
      "silm": 5365,
      "rir": 5366,
      "7aseb": 5367,
      "loulou": 5368,
      "direc": 5369,
      "daya": 5370,
      "al3a": 5371,
      "m3aaa": 5372,
      "homech": 5373,
      "hommes": 5374,
      "bouni": 5375,
      "boutou": 5376,
      "cade": 5377,
      "barvo": 5378,
      "dena": 5379,
      "ism": 5380,
      "behom": 5381,
      "thé": 5382,
      "dha3": 5383,
      "roh": 5384,
      "pays": 5385,
      "gadafi": 5386,
      "chicha": 5387,
      "jouwaret": 5388,
      "3béd": 5389,
      "akter": 5390,
      "chouk": 5391,
      "7ebech": 5392,
      "souk": 5393,
      "mandher": 5394,
      "botoula": 5395,
      "farrej": 5396,
      "blach": 5397,
      "ba3dou": 5398,
      "a3mil": 5399,
      "mta3ou": 5400,
      "chkounou": 5401,
      "ghriba": 5402,
      "netfarej": 5403,
      "netfarjou": 5404,
      "monsef": 5405,
      "ball": 5406,
      "tahbet": 5407,
      "yahmik": 5408,
      "ma7leh": 5409,
      "besm": 5410,
      "klamek": 5411,
      "stana": 5412,
      "vamos": 5413,
      "9adrek": 5414,
      "sara7a": 5415,
      "profil": 5416,
      "wld": 5417,
      "7amra": 5418,
      "nchl": 5419,
      "nharek": 5420,
      "takrah": 5421,
      "yjik": 5422,
      "machekel": 5423,
      "5edmet": 5424,
      "7asra": 5425,
      "yaatik": 5426,
      "buzz": 5427,
      "msata": 5428,
      "yefhmou": 5429,
      "fesed": 5430,
      "mehdi": 5431,
      "ne9sa": 5432,
      "annif": 5433,
      "salafi": 5434,
      "nhbk": 5435,
      "mosta9": 5436,
      "tbarkalah": 5437,
      "algerie": 5438,
      "to5rej": 5439,
      "makhyeb": 5440,
      "3ejbet": 5441,
      "personne": 5442,
      "compte": 5443,
      "moustawa": 5444,
      "rie7i": 5445,
      "national": 5446,
      "2m1": 5447,
      "3ra": 5448,
      "3tit": 5449,
      "8oul": 5450,
      "ame": 5451,
      "bhou": 5452,
      "bkir": 5453,
      "ea": 5454,
      "fh": 5455,
      "hol": 5456,
      "kbiiir": 5457,
      "lli": 5458,
      "lmin": 5459,
      "l3ab": 5460,
      "lkalb": 5461,
      "mchou": 5462,
      "mest": 5463,
      "nmou": 5464,
      "n9ou": 5465,
      "nthi": 5466,
      "sbi": 5467,
      "syed": 5468,
      "tbar": 5469,
      "t5al": 5470,
      "y5": 5471,
      "yine": 5472,
      "yseb": 5473,
      "y3ich": 5474,
      "mahi": 5475,
      "masi": 5476,
      "matou": 5477,
      "maana": 5478,
      "chba3": 5479,
      "lida": 5480,
      "naha": 5481,
      "nal3bou": 5482,
      "ta3a": 5483,
      "taleb": 5484,
      "3awa": 5485,
      "3aref": 5486,
      "leek": 5487,
      "biba": 5488,
      "bini": 5489,
      "walou": 5490,
      "fier": 5491,
      "bache": 5492,
      "ba3ad": 5493,
      "bayen": 5494,
      "sa3a": 5495,
      "sahel": 5496,
      "ese": 5497,
      "err": 5498,
      "cha9": 5499,
      "chab3a": 5500,
      "kater": 5501,
      "katheb": 5502,
      "ridh": 5503,
      "rité": 5504,
      "7achek": 5505,
      "fadha": 5506,
      "m3além": 5507,
      "slimm": 5508,
      "9adha": 5509,
      "9aleb": 5510,
      "rouba": 5511,
      "kouk": 5512,
      "5at": 5513,
      "3ir": 5514,
      "dec": 5515,
      "zaf": 5516,
      "zari": 5517,
      "zaboura": 5518,
      "oro": 5519,
      "wef": 5520,
      "belhom": 5521,
      "belkom": 5522,
      "tha9": 5523,
      "thak": 5524,
      "dhan": 5525,
      "tooo": 5526,
      "rabyy": 5527,
      "7ichi": 5528,
      "welou": 5529,
      "dhin": 5530,
      "fe3l": 5531,
      "9iya": 5532,
      "ya3mal": 5533,
      "fihe": 5534,
      "tekdheb": 5535,
      "mat7": 5536,
      "metou": 5537,
      "metro": 5538,
      "view": 5539,
      "yo7kom": 5540,
      "malade": 5541,
      "na3raf": 5542,
      "tran": 5543,
      "autre": 5544,
      "autres": 5545,
      "ght": 5546,
      "9alha": 5547,
      "mnt": 5548,
      "walina": 5549,
      "yessa": 5550,
      "wahdou": 5551,
      "kallem": 5552,
      "jelha": 5553,
      "m3allém": 5554,
      "commen": 5555,
      "vais": 5556,
      "konna": 5557,
      "chofo": 5558,
      "forca": 5559,
      "ser9a": 5560,
      "blehi": 5561,
      "9olo": 5562,
      "weth": 5563,
      "yebki": 5564,
      "ma3adich": 5565,
      "reste": 5566,
      "surtt": 5567,
      "nts": 5568,
      "sa77a": 5569,
      "da5lou": 5570,
      "thebou": 5571,
      "hédha": 5572,
      "song": 5573,
      "flen": 5574,
      "blid": 5575,
      "garçon": 5576,
      "8alet": 5577,
      "zokom": 5578,
      "pris": 5579,
      "najla": 5580,
      "najmou": 5581,
      "akher": 5582,
      "jaych": 5583,
      "nerb7ou": 5584,
      "ta5raw": 5585,
      "milieu": 5586,
      "mosta9bel": 5587,
      "bnina": 5588,
      "flos": 5589,
      "blastek": 5590,
      "massa5": 5591,
      "b3adhna": 5592,
      "waaaw": 5593,
      "sada9ni": 5594,
      "jouweret": 5595,
      "qatar": 5596,
      "lo5rin": 5597,
      "profession": 5598,
      "2al": 5599,
      "3ha": 5600,
      "3ti": 5601,
      "3ziz": 5602,
      "5tar": 5603,
      "ayou": 5604,
      "anis": 5605,
      "a3lih": 5606,
      "ameri": 5607,
      "fom": 5608,
      "iy": 5609,
      "i9oul": 5610,
      "mda": 5611,
      "n3ichou": 5612,
      "omak": 5613,
      "rol": 5614,
      "swi": 5615,
      "sre9": 5616,
      "tfi": 5617,
      "t9oulou": 5618,
      "wiii": 5619,
      "ybou": 5620,
      "hacha": 5621,
      "hass": 5622,
      "elyoum": 5623,
      "ch3b": 5624,
      "lien": 5625,
      "liber": 5626,
      "nad": 5627,
      "tataw": 5628,
      "3alla": 5629,
      "bie": 5630,
      "wansa": 5631,
      "inek": 5632,
      "etwensa": 5633,
      "erjal": 5634,
      "kath": 5635,
      "jabet": 5636,
      "faa": 5637,
      "fann": 5638,
      "kidh": 5639,
      "louk": 5640,
      "daima": 5641,
      "roun": 5642,
      "yeux": 5643,
      "caf": 5644,
      "5ass": 5645,
      "5amja": 5646,
      "3iz": 5647,
      "zaza": 5648,
      "zaaa": 5649,
      "isra": 5650,
      "isla": 5651,
      "ission": 5652,
      "belou": 5653,
      "bel3id": 5654,
      "toil": 5655,
      "kent": 5656,
      "looo": 5657,
      "dhna": 5658,
      "dhef": 5659,
      "m3ake": 5660,
      "m3akkk": 5661,
      "doud": 5662,
      "doun": 5663,
      "dourou": 5664,
      "joud": 5665,
      "maryem": 5666,
      "annou": 5667,
      "feya": 5668,
      "wich": 5669,
      "yetkalem": 5670,
      "ya3koubi": 5671,
      "3alali": 5672,
      "souri": 5673,
      "barchaa": 5674,
      "jam3itou": 5675,
      "jam3iyet": 5676,
      "prend": 5677,
      "boha": 5678,
      "hey": 5679,
      "tarmou": 5680,
      "flouse": 5681,
      "floussou": 5682,
      "mer6": 5683,
      "yoch": 5684,
      "milyar": 5685,
      "kole": 5686,
      "aux": 5687,
      "7ouma": 5688,
      "la3eb": 5689,
      "zee": 5690,
      "hetheka": 5691,
      "amthel": 5692,
      "thi9": 5693,
      "walitou": 5694,
      "7otou": 5695,
      "7a9ek": 5696,
      "yé7i": 5697,
      "7aded": 5698,
      "chedou": 5699,
      "helna": 5700,
      "binha": 5701,
      "saraha": 5702,
      "yebda": 5703,
      "3awnek": 5704,
      "inajem": 5705,
      "franch": 5706,
      "tfouuu": 5707,
      "nafes": 5708,
      "da5la": 5709,
      "zardi": 5710,
      "antom": 5711,
      "ysab": 5712,
      "na9sou": 5713,
      "ennabara": 5714,
      "grande": 5715,
      "hmdl": 5716,
      "barnemj": 5717,
      "barnemij": 5718,
      "yezzina": 5719,
      "nhb": 5720,
      "yonser": 5721,
      "usement": 5722,
      "amir": 5723,
      "hamdoulah": 5724,
      "toop": 5725,
      "far7anin": 5726,
      "arbitre": 5727,
      "3amaliya": 5728,
      "trabelsi": 5729,
      "championnat": 5730,
      "cours": 5731,
      "europe": 5732,
      "resultat": 5733,
      "pauvre": 5734,
      "4ar": 5735,
      "5is": 5736,
      "5wet": 5737,
      "8odwa": 5738,
      "awl": 5739,
      "amina": 5740,
      "bj": 5741,
      "ehom": 5742,
      "eza": 5743,
      "esa7a": 5744,
      "etaraji": 5745,
      "fc": 5746,
      "f3ou": 5747,
      "hes": 5748,
      "ile": 5749,
      "ies": 5750,
      "kbi": 5751,
      "kro": 5752,
      "l3asba": 5753,
      "mj": 5754,
      "mya": 5755,
      "nzid": 5756,
      "nzidou": 5757,
      "ster": 5758,
      "sgha": 5759,
      "sok": 5760,
      "sra9": 5761,
      "t9": 5762,
      "tz": 5763,
      "thir": 5764,
      "twal": 5765,
      "t3ad": 5766,
      "uma": 5767,
      "vel": 5768,
      "ville": 5769,
      "wtaw": 5770,
      "west": 5771,
      "yne": 5772,
      "y3in": 5773,
      "yhanikom": 5774,
      "èch": 5775,
      "ma2": 5776,
      "mail": 5777,
      "massoud": 5778,
      "raya": 5779,
      "rayek": 5780,
      "laya": 5781,
      "elwa": 5782,
      "elkhir": 5783,
      "elghalia": 5784,
      "chor": 5785,
      "live": 5786,
      "lité": 5787,
      "nayk": 5788,
      "yala": 5789,
      "eng": 5790,
      "enek": 5791,
      "lemi": 5792,
      "letoile": 5793,
      "wale": 5794,
      "wa3lik": 5795,
      "wadha7": 5796,
      "wakahaw": 5797,
      "fiik": 5798,
      "etek": 5799,
      "etran": 5800,
      "sabet": 5801,
      "sameh": 5802,
      "sade9": 5803,
      "omg": 5804,
      "esper": 5805,
      "chams": 5806,
      "titres": 5807,
      "kawar": 5808,
      "kaml": 5809,
      "riha": 5810,
      "riyet": 5811,
      "kifik": 5812,
      "dida": 5813,
      "daaa": 5814,
      "nikel": 5815,
      "m3adha": 5816,
      "9ali": 5817,
      "9anat": 5818,
      "rouj": 5819,
      "roum": 5820,
      "rouma": 5821,
      "rouss": 5822,
      "houlik": 5823,
      "kouna": 5824,
      "mibou": 5825,
      "yejri": 5826,
      "voila": 5827,
      "moj": 5828,
      "beja": 5829,
      "zit": 5830,
      "ro7ou": 5831,
      "rab3a": 5832,
      "khawa": 5833,
      "tuni": 5834,
      "aker": 5835,
      "seul": 5836,
      "ahki": 5837,
      "kifna": 5838,
      "friqui": 5839,
      "jam3iti": 5840,
      "zour": 5841,
      "no5": 5842,
      "farjo": 5843,
      "benna": 5844,
      "mercato": 5845,
      "hamla": 5846,
      "yot": 5847,
      "esser": 5848,
      "a3tini": 5849,
      "na3tik": 5850,
      "tnajim": 5851,
      "ghet": 5852,
      "ghoneya": 5853,
      "ssilou": 5854,
      "bledek": 5855,
      "aslan": 5856,
      "yimchi": 5857,
      "yahfed": 5858,
      "nahki": 5859,
      "5itab": 5860,
      "telhom": 5861,
      "tellement": 5862,
      "méch": 5863,
      "cha3ra": 5864,
      "ejdid": 5865,
      "ting": 5866,
      "jebet": 5867,
      "marzougi": 5868,
      "yerham": 5869,
      "adooore": 5870,
      "impossible": 5871,
      "sahha": 5872,
      "sahby": 5873,
      "wlhi": 5874,
      "sujet": 5875,
      "t7el": 5876,
      "msek": 5877,
      "da5lek": 5878,
      "hahahahahah": 5879,
      "nhebouk": 5880,
      "lybia": 5881,
      "t3ada": 5882,
      "taaref": 5883,
      "lazemha": 5884,
      "bus": 5885,
      "mkache5": 5886,
      "borjoulia": 5887,
      "ra7ma": 5888,
      "exem": 5889,
      "ykounou": 5890,
      "narj3ou": 5891,
      "gharbi": 5892,
      "gratu": 5893,
      "i3ti": 5894,
      "cujet": 5895,
      "miskina": 5896,
      "intom": 5897,
      "i5dim": 5898,
      "sob7an": 5899,
      "tunisienne": 5900,
      "chab3an": 5901,
      "yare7mou": 5902,
      "yelzmou": 5903,
      "i5alik": 5904,
      "recrutements": 5905,
      "paroles": 5906,
      "arabe": 5907,
      "malheure": 5908,
      "khormo": 5909,
      "venu": 5910,
      "dzayer": 5911,
      "se7li": 5912,
      "work": 5913,
      "inshallah": 5914,
      "dabegh": 5915,
      "salut": 5916,
      "3rab": 5917,
      "56": 5918,
      "5es": 5919,
      "7ra9": 5920,
      "avo": 5921,
      "apr": 5922,
      "dm": 5923,
      "d3a": 5924,
      "ftou": 5925,
      "gga": 5926,
      "ig": 5927,
      "i9a": 5928,
      "kya": 5929,
      "keka": 5930,
      "lwakil": 5931,
      "mti": 5932,
      "m9a": 5933,
      "mhom": 5934,
      "n7a": 5935,
      "ndha": 5936,
      "nkoun": 5937,
      "offf": 5938,
      "sû": 5939,
      "sne": 5940,
      "sket": 5941,
      "s7a7": 5942,
      "w9": 5943,
      "wnchallah": 5944,
      "y9": 5945,
      "y9ou": 5946,
      "haki": 5947,
      "makom": 5948,
      "malek": 5949,
      "ma3andek": 5950,
      "rawa7": 5951,
      "rassou": 5952,
      "lass": 5953,
      "la7as": 5954,
      "li7": 5955,
      "tale": 5956,
      "tafa": 5957,
      "tage": 5958,
      "enne": 5959,
      "bi3ou": 5960,
      "wag": 5961,
      "bada": 5962,
      "insan": 5963,
      "omom": 5964,
      "essa7a": 5965,
      "eria": 5966,
      "tist": 5967,
      "ka3b": 5968,
      "kamal": 5969,
      "7assa": 5970,
      "loubna": 5971,
      "dih": 5972,
      "daoula": 5973,
      "olna": 5974,
      "olta": 5975,
      "9afa": 5976,
      "bouli": 5977,
      "bouhom": 5978,
      "kouz": 5979,
      "kouya": 5980,
      "mibouna": 5981,
      "cason": 5982,
      "voté": 5983,
      "mee": 5984,
      "mezi": 5985,
      "de3": 5986,
      "isti": 5987,
      "orli": 5988,
      "jir": 5989,
      "belik": 5990,
      "likes": 5991,
      "aaah": 5992,
      "aasba": 5993,
      "irheb": 5994,
      "ta3lim": 5995,
      "dhet": 5996,
      "chihem": 5997,
      "chiheb": 5998,
      "sloum": 5999,
      "joulya": 6000,
      "andha": 6001,
      "anglais": 6002,
      "khan": 6003,
      "raj3o": 6004,
      "wik": 6005,
      "wina": 6006,
      "3bo": 6007,
      "urs": 6008,
      "tekteb": 6009,
      "fri9": 6010,
      "tawra": 6011,
      "bos": 6012,
      "matri": 6013,
      "hef": 6014,
      "heur": 6015,
      "tarf": 6016,
      "flousik": 6017,
      "arrê": 6018,
      "walaw": 6019,
      "kanzari": 6020,
      "ba3da": 6021,
      "ta7founa": 6022,
      "mta3ha": 6023,
      "tna7i": 6024,
      "hal9a": 6025,
      "3adech": 6026,
      "masr": 6027,
      "hareb": 6028,
      "mét": 6029,
      "5aliha": 6030,
      "karhba": 6031,
      "aymen": 6032,
      "sidna": 6033,
      "maadech": 6034,
      "nét": 6035,
      "tabka": 6036,
      "kil3ada": 6037,
      "ra2i": 6038,
      "inal": 6039,
      "habtou": 6040,
      "tebki": 6041,
      "juin": 6042,
      "yrin": 6043,
      "tement": 6044,
      "porte": 6045,
      "fara5": 6046,
      "ssema": 6047,
      "afkar": 6048,
      "african": 6049,
      "continue": 6050,
      "jamila": 6051,
      "plateau": 6052,
      "lawjou": 6053,
      "ifarej": 6054,
      "sormek": 6055,
      "to93od": 6056,
      "lezmou": 6057,
      "sawt": 6058,
      "ctions": 6059,
      "faddina": 6060,
      "rjél": 6061,
      "lazmou": 6062,
      "fdha7": 6063,
      "9ablou": 6064,
      "fammech": 6065,
      "mkach5a": 6066,
      "sraft": 6067,
      "free": 6068,
      "merciii": 6069,
      "slamtek": 6070,
      "mzeya": 6071,
      "bizerte": 6072,
      "wooow": 6073,
      "exemple": 6074,
      "26": 6075,
      "3k": 6076,
      "3ine": 6077,
      "5el": 6078,
      "7kem": 6079,
      "a8": 6080,
      "ahh": 6081,
      "benti": 6082,
      "bkolha": 6083,
      "cr": 6084,
      "cest": 6085,
      "dedi": 6086,
      "d9i9a": 6087,
      "ejam3eya": 6088,
      "fhm": 6089,
      "gaa": 6090,
      "hke": 6091,
      "ier": 6092,
      "ijib": 6093,
      "i7ib": 6094,
      "kma": 6095,
      "kres": 6096,
      "lw": 6097,
      "lzem": 6098,
      "l3bed": 6099,
      "lleh": 6100,
      "mlih": 6101,
      "n3a": 6102,
      "poop": 6103,
      "tma": 6104,
      "tle": 6105,
      "tbou": 6106,
      "tza": 6107,
      "tma3": 6108,
      "tgou": 6109,
      "ute": 6110,
      "wfe": 6111,
      "wcha3b": 6112,
      "ym": 6113,
      "y9o": 6114,
      "ykon": 6115,
      "zbar": 6116,
      "z3am": 6117,
      "èm": 6118,
      "hakom": 6119,
      "mau": 6120,
      "rami": 6121,
      "rawah": 6122,
      "lakom": 6123,
      "elhiwar": 6124,
      "chbiha": 6125,
      "li9": 6126,
      "nasi": 6127,
      "nans": 6128,
      "najah": 6129,
      "yasa": 6130,
      "yatik": 6131,
      "yahia": 6132,
      "yahaf": 6133,
      "tai": 6134,
      "3ara": 6135,
      "3ale5er": 6136,
      "eno": 6137,
      "enhar": 6138,
      "ennahda": 6139,
      "ley": 6140,
      "le5ra": 6141,
      "wa7a": 6142,
      "baar": 6143,
      "omri": 6144,
      "kahba": 6145,
      "7all": 6146,
      "7abina": 6147,
      "fari": 6148,
      "fachal": 6149,
      "kife": 6150,
      "dira": 6151,
      "daher": 6152,
      "al3ab": 6153,
      "rabia": 6154,
      "m3amer": 6155,
      "mounaf": 6156,
      "9ach": 6157,
      "tejri": 6158,
      "ssek": 6159,
      "mokh": 6160,
      "mohem": 6161,
      "5adem": 6162,
      "3imed": 6163,
      "ney": 6164,
      "islam": 6165,
      "ro9": 6166,
      "ta3m": 6167,
      "ta3wi": 6168,
      "ta3rf": 6169,
      "m3akk": 6170,
      "allahoma": 6171,
      "feat": 6172,
      "rajji": 6173,
      "youslou": 6174,
      "see": 6175,
      "semaine": 6176,
      "chouhada": 6177,
      "7ebou": 6178,
      "tekseb": 6179,
      "jam3iyetna": 6180,
      "boto": 6181,
      "ghanouchi": 6182,
      "nowa": 6183,
      "tard": 6184,
      "metha": 6185,
      "che9": 6186,
      "alam": 6187,
      "lét": 6188,
      "a3da": 6189,
      "na3mlo": 6190,
      "mta3hom": 6191,
      "koma": 6192,
      "ghnaya": 6193,
      "yekhd": 6194,
      "stine": 6195,
      "tetha": 6196,
      "wa9fou": 6197,
      "wahd": 6198,
      "kalm": 6199,
      "yim": 6200,
      "sardina": 6201,
      "shkoun": 6202,
      "5alihom": 6203,
      "cha3mal": 6204,
      "3aychou": 6205,
      "3aylet": 6206,
      "ayna": 6207,
      "sara9": 6208,
      "imchi": 6209,
      "eee": 6210,
      "manach": 6211,
      "7amdi": 6212,
      "3malna": 6213,
      "nchla": 6214,
      "ywaf9": 6215,
      "tenja7": 6216,
      "yfad": 6217,
      "mazelou": 6218,
      "machin": 6219,
      "zarzis": 6220,
      "version": 6221,
      "taswir": 6222,
      "nord": 6223,
      "khiir": 6224,
      "gie": 6225,
      "3elmi": 6226,
      "o5ti": 6227,
      "mezyen": 6228,
      "mte3ik": 6229,
      "tahkiw": 6230,
      "avance": 6231,
      "ne9fou": 6232,
      "slt": 6233,
      "ma5lou": 6234,
      "fawdha": 6235,
      "zahrouni": 6236,
      "clash": 6237,
      "8aliya": 6238,
      "thabti": 6239,
      "hkaya": 6240,
      "7okm": 6241,
      "b3adhkom": 6242,
      "siyessa": 6243,
      "normale": 6244,
      "dinars": 6245,
      "naykou": 6246,
      "thank": 6247,
      "nestanew": 6248,
      "rwa7kom": 6249,
      "tounisia": 6250,
      "hasilou": 6251,
      "statut": 6252,
      "cadeau": 6253,
      "7ke": 6254,
      "ati": 6255,
      "ari": 6256,
      "amar": 6257,
      "a3li": 6258,
      "atawa": 6259,
      "b3i": 6260,
      "bsou": 6261,
      "b3d": 6262,
      "cs": 6263,
      "ezawali": 6264,
      "fél": 6265,
      "fyh": 6266,
      "gbal": 6267,
      "jra": 6268,
      "jbeli": 6269,
      "lkou": 6270,
      "lmi": 6271,
      "llem": 6272,
      "lboutoula": 6273,
      "nfa": 6274,
      "n9a": 6275,
      "nsh": 6276,
      "nkoul": 6277,
      "njib": 6278,
      "ola": 6279,
      "psy": 6280,
      "qi": 6281,
      "rweh": 6282,
      "s3iba": 6283,
      "tchi": 6284,
      "t3eb": 6285,
      "ua": 6286,
      "usa": 6287,
      "wk": 6288,
      "wkan": 6289,
      "wrah": 6290,
      "wnchalah": 6291,
      "what": 6292,
      "ykom": 6293,
      "ysou": 6294,
      "ychouf": 6295,
      "èr": 6296,
      "éf": 6297,
      "oubli": 6298,
      "oussema": 6299,
      "ma3la": 6300,
      "raak": 6301,
      "lamen": 6302,
      "layem": 6303,
      "elma": 6304,
      "liii": 6305,
      "na5": 6306,
      "nanta": 6307,
      "taou": 6308,
      "tare": 6309,
      "tafeh": 6310,
      "3awin": 6311,
      "enn": 6312,
      "ench": 6313,
      "ennou": 6314,
      "enness": 6315,
      "leti": 6316,
      "lekh": 6317,
      "bi7a": 6318,
      "binou": 6319,
      "bilél": 6320,
      "wa5": 6321,
      "waket": 6322,
      "fi9o": 6323,
      "ba9i": 6324,
      "invit": 6325,
      "etre": 6326,
      "salo": 6327,
      "esp": 6328,
      "erfou": 6329,
      "chat": 6330,
      "kabir": 6331,
      "ede": 6332,
      "sis": 6333,
      "siii": 6334,
      "rich": 6335,
      "faou": 6336,
      "emha": 6337,
      "lou8a": 6338,
      "loumour": 6339,
      "da7": 6340,
      "daf": 6341,
      "dali": 6342,
      "dane": 6343,
      "dabat": 6344,
      "toub": 6345,
      "toulha": 6346,
      "alha": 6347,
      "alwa": 6348,
      "lime": 6349,
      "ilt": 6350,
      "mouzi": 6351,
      "mousal": 6352,
      "moubarek": 6353,
      "9ah": 6354,
      "9alik": 6355,
      "9atar": 6356,
      "mikom": 6357,
      "mizi": 6358,
      "mibon": 6359,
      "mo5ou": 6360,
      "5ales": 6361,
      "menna": 6362,
      "menich": 6363,
      "nefhem": 6364,
      "ismou": 6365,
      "be9": 6366,
      "jibilna": 6367,
      "wez": 6368,
      "thed": 6369,
      "bellah": 6370,
      "aamel": 6371,
      "nesma3": 6372,
      "dhafi": 6373,
      "tona": 6374,
      "role": 6375,
      "rabha": 6376,
      "dhen": 6377,
      "gas": 6378,
      "gata3": 6379,
      "chia": 6380,
      "khraj": 6381,
      "jouret": 6382,
      "fez": 6383,
      "feel": 6384,
      "fe3el": 6385,
      "entre": 6386,
      "entii": 6387,
      "leklam": 6388,
      "yourid": 6389,
      "akwa": 6390,
      "9ouwa": 6391,
      "3amne": 6392,
      "kifch": 6393,
      "soul": 6394,
      "soura": 6395,
      "premi": 6396,
      "matech": 6397,
      "mat5ali": 6398,
      "matloub": 6399,
      "lebla": 6400,
      "vier": 6401,
      "vipa": 6402,
      "art": 6403,
      "hamd": 6404,
      "a3ref": 6405,
      "a3ml": 6406,
      "domage": 6407,
      "brabii": 6408,
      "tnajmou": 6409,
      "wenchalah": 6410,
      "lette": 6411,
      "waldek": 6412,
      "waldin": 6413,
      "talfza": 6414,
      "wa9ef": 6415,
      "wahret": 6416,
      "ya7mik": 6417,
      "hakem": 6418,
      "mék": 6419,
      "inchaallah": 6420,
      "chose": 6421,
      "ték": 6422,
      "mnawer": 6423,
      "procha": 6424,
      "produ": 6425,
      "twari": 6426,
      "fhemt": 6427,
      "respon": 6428,
      "frj": 6429,
      "yezik": 6430,
      "hédhi": 6431,
      "affaire": 6432,
      "thezou": 6433,
      "zink": 6434,
      "copi": 6435,
      "7asbou": 6436,
      "tarikh": 6437,
      "hathaka": 6438,
      "fa9er": 6439,
      "3eth": 6440,
      "wou3oud": 6441,
      "nechri": 6442,
      "t5af": 6443,
      "o5rin": 6444,
      "korza": 6445,
      "sad9ou": 6446,
      "ifadh": 6447,
      "ijibou": 6448,
      "najmo": 6449,
      "d5lou": 6450,
      "mta3i": 6451,
      "yezziw": 6452,
      "mezelt": 6453,
      "chebeb": 6454,
      "hkayet": 6455,
      "ychafiha": 6456,
      "karakouz": 6457,
      "mêla": 6458,
      "yarhmek": 6459,
      "no9ta": 6460,
      "masla7et": 6461,
      "preuve": 6462,
      "dhekra": 6463,
      "bhema": 6464,
      "nenta5eb": 6465,
      "crois": 6466,
      "y3awnek": 6467,
      "blasetha": 6468,
      "binetna": 6469,
      "résultat": 6470,
      "great": 6471,
      "franchement": 6472,
      "après": 6473,
      "21": 6474,
      "2ta": 6475,
      "3or": 6476,
      "500": 6477,
      "7ki": 6478,
      "7bou": 6479,
      "ain": 6480,
      "amou": 6481,
      "a5i": 6482,
      "awil": 6483,
      "a3lihom": 6484,
      "b7ar": 6485,
      "cta": 6486,
      "drou": 6487,
      "dor": 6488,
      "ever": 6489,
      "fomha": 6490,
      "hkouma": 6491,
      "hlowa": 6492,
      "icha3b": 6493,
      "i9oulou": 6494,
      "jbo": 6495,
      "jdod": 6496,
      "lg": 6497,
      "ltou": 6498,
      "nta3": 6499,
      "pes": 6500,
      "rà": 6501,
      "rwa": 6502,
      "spor": 6503,
      "spon": 6504,
      "tte": 6505,
      "tyy": 6506,
      "t3aw": 6507,
      "tbadel": 6508,
      "uch": 6509,
      "wlla": 6510,
      "wmay": 6511,
      "ydik": 6512,
      "ydir": 6513,
      "être": 6514,
      "elo": 6515,
      "elem": 6516,
      "chè": 6517,
      "chrit": 6518,
      "na7a": 6519,
      "tac": 6520,
      "taz": 6521,
      "tasa": 6522,
      "tass": 6523,
      "tayer": 6524,
      "lema": 6525,
      "waka": 6526,
      "fihh": 6527,
      "fikou": 6528,
      "bag": 6529,
      "bachar": 6530,
      "eter": 6531,
      "ethom": 6532,
      "sadek": 6533,
      "sawar": 6534,
      "sayab": 6535,
      "sauf": 6536,
      "esha": 6537,
      "essid": 6538,
      "eki": 6539,
      "chadit": 6540,
      "time": 6541,
      "hiz": 6542,
      "hijab": 6543,
      "ri2a": 6544,
      "7awi": 6545,
      "7alet": 6546,
      "jara": 6547,
      "face": 6548,
      "farik": 6549,
      "kiii": 6550,
      "kifah": 6551,
      "eb3ed": 6552,
      "darek": 6553,
      "toura": 6554,
      "touri": 6555,
      "almo": 6556,
      "m3aleeem": 6557,
      "ilha": 6558,
      "ilmou": 6559,
      "9ahwa": 6560,
      "rouho": 6561,
      "rou7o": 6562,
      "ye5ou": 6563,
      "brav": 6564,
      "ssé": 6565,
      "5assa": 6566,
      "5alet": 6567,
      "5ayr": 6568,
      "5amem": 6569,
      "neji": 6570,
      "deek": 6571,
      "ise": 6572,
      "iste": 6573,
      "jiya": 6574,
      "bella": 6575,
      "nesba": 6576,
      "togh": 6577,
      "kene": 6578,
      "zib": 6579,
      "ziii": 6580,
      "rabba": 6581,
      "chikha": 6582,
      "mar7": 6583,
      "ansa": 6584,
      "quelle": 6585,
      "se5": 6586,
      "3amna": 6587,
      "3amlo": 6588,
      "terbe7": 6589,
      "termtek": 6590,
      "mal9i": 6591,
      "ssama": 6592,
      "far9": 6593,
      "benza": 6594,
      "benzart": 6595,
      "metet": 6596,
      "arjou": 6597,
      "lééé": 6598,
      "milyarat": 6599,
      "na3ti": 6600,
      "kool": 6601,
      "weni": 6602,
      "m3alemmm": 6603,
      "wa9tou": 6604,
      "yesr": 6605,
      "hadded": 6606,
      "ases": 6607,
      "yahfad": 6608,
      "ma7lekom": 6609,
      "kelem": 6610,
      "sarek": 6611,
      "ramzi": 6612,
      "poste": 6613,
      "gua": 6614,
      "ayem": 6615,
      "jebhom": 6616,
      "maakom": 6617,
      "9adrou": 6618,
      "jibni": 6619,
      "ynajmou": 6620,
      "ta7anet": 6621,
      "war9a": 6622,
      "adel": 6623,
      "sub": 6624,
      "frere": 6625,
      "surtou": 6626,
      "3malet": 6627,
      "teni": 6628,
      "dubai": 6629,
      "nsaw": 6630,
      "t3ani": 6631,
      "3aks": 6632,
      "fechla": 6633,
      "broo": 6634,
      "mtk": 6635,
      "mkachakh": 6636,
      "tari9": 6637,
      "tfoooh": 6638,
      "exc": 6639,
      "yasma3": 6640,
      "n7bk": 6641,
      "wehd": 6642,
      "avanti": 6643,
      "weslet": 6644,
      "hadhika": 6645,
      "ma9boula": 6646,
      "anime": 6647,
      "latrab": 6648,
      "politi": 6649,
      "siasa": 6650,
      "miskin": 6651,
      "mta3ik": 6652,
      "iwaf9ek": 6653,
      "chrif": 6654,
      "jaafer": 6655,
      "yo93od": 6656,
      "enseur": 6657,
      "9ablek": 6658,
      "mortadha": 6659,
      "nebki": 6660,
      "champions": 6661,
      "touniss": 6662,
      "habib": 6663,
      "yelzmek": 6664,
      "9elet": 6665,
      "leurs": 6666,
      "la7asa": 6667,
      "mas2oul": 6668,
      "hadheka": 6669,
      "hatheka": 6670,
      "4alya": 6671,
      "7louwa": 6672,
      "aghla": 6673,
      "dridi": 6674,
      "msiba": 6675,
      "année": 6676,
      "league": 6677,
      "nthif": 6678,
      "etranger": 6679,
      "m3adhabhom": 6680,
      "malheureusement": 6681,
      "casoni": 6682,
      "2000": 6683,
      "3ml": 6684,
      "5ine": 6685,
      "5mis": 6686,
      "7ine": 6687,
      "95": 6688,
      "9d": 6689,
      "app": 6690,
      "action": 6691,
      "awlad": 6692,
      "b9i": 6693,
      "booo": 6694,
      "cul": 6695,
      "d9ou": 6696,
      "ec": 6697,
      "eff": 6698,
      "frr": 6699,
      "gens": 6700,
      "ibi": 6701,
      "ith": 6702,
      "jbni": 6703,
      "l2": 6704,
      "lz": 6705,
      "lca": 6706,
      "l9i": 6707,
      "nhab": 6708,
      "nhez": 6709,
      "ndhaf": 6710,
      "pen": 6711,
      "ryé7i": 6712,
      "srou": 6713,
      "slu": 6714,
      "stan": 6715,
      "tb": 6716,
      "tssa": 6717,
      "tsar": 6718,
      "wki": 6719,
      "wkha": 6720,
      "wtawa": 6721,
      "y3adi": 6722,
      "y7ot": 6723,
      "ymoutou": 6724,
      "yest7a9": 6725,
      "ouha": 6726,
      "ouer": 6727,
      "hawa": 6728,
      "rac": 6729,
      "lati": 6730,
      "elbled": 6731,
      "elkoul": 6732,
      "chmou": 6733,
      "naje7": 6734,
      "yassa": 6735,
      "tafri": 6736,
      "3ahd": 6737,
      "waa": 6738,
      "walo": 6739,
      "wasil": 6740,
      "fis": 6741,
      "fihoum": 6742,
      "fikoum": 6743,
      "balik": 6744,
      "bazoula": 6745,
      "etti": 6746,
      "sas": 6747,
      "sakh": 6748,
      "sawet": 6749,
      "eser": 6750,
      "errjel": 6751,
      "chaf": 6752,
      "tima": 6753,
      "hichem": 6754,
      "kass": 6755,
      "kadech": 6756,
      "eddawla": 6757,
      "jabo": 6758,
      "jadid": 6759,
      "fass": 6760,
      "kiya": 6761,
      "daber": 6762,
      "niw": 6763,
      "mousi": 6764,
      "mouda": 6765,
      "bout": 6766,
      "houlna": 6767,
      "mima": 6768,
      "migalou": 6769,
      "capi": 6770,
      "votez": 6771,
      "mehouch": 6772,
      "5ari": 6773,
      "5ayef": 6774,
      "newi": 6775,
      "zanati": 6776,
      "beyna": 6777,
      "beat": 6778,
      "wecha3b": 6779,
      "wehid": 6780,
      "thamma": 6781,
      "nestan": 6782,
      "mele": 6783,
      "zido": 6784,
      "ro7k": 6785,
      "3laha": 6786,
      "rabet": 6787,
      "irhab": 6788,
      "dhkom": 6789,
      "gay": 6790,
      "gaz": 6791,
      "chik": 6792,
      "chi5a": 6793,
      "khw": 6794,
      "ooom": 6795,
      "marki": 6796,
      "marto": 6797,
      "3liik": 6798,
      "lho": 6799,
      "lhé": 6800,
      "akhi": 6801,
      "hop": 6802,
      "yetfarjou": 6803,
      "ya3mlo": 6804,
      "ma3mel": 6805,
      "ahssen": 6806,
      "kifh": 6807,
      "sousa": 6808,
      "mal9it": 6809,
      "vez": 6810,
      "winkom": 6811,
      "wintouma": 6812,
      "bendir": 6813,
      "armasta": 6814,
      "yodhh": 6815,
      "saybouh": 6816,
      "ghon": 6817,
      "ghrab": 6818,
      "yekteb": 6819,
      "mayes": 6820,
      "fikra": 6821,
      "wald": 6822,
      "la3bad": 6823,
      "bal3ou": 6824,
      "masrou": 6825,
      "conter": 6826,
      "mahlekom": 6827,
      "amtha": 6828,
      "talvza": 6829,
      "tanjah": 6830,
      "yesir": 6831,
      "jem3": 6832,
      "jem3ia": 6833,
      "bil7a9": 6834,
      "te3jebni": 6835,
      "m3à": 6836,
      "technique": 6837,
      "yedek": 6838,
      "makon": 6839,
      "makboula": 6840,
      "inchalh": 6841,
      "aytem": 6842,
      "dhim": 6843,
      "déja": 6844,
      "5ouna": 6845,
      "mmem": 6846,
      "lha9": 6847,
      "testa": 6848,
      "testehel": 6849,
      "n7ebbou": 6850,
      "sahli": 6851,
      "brk": 6852,
      "sahafa": 6853,
      "derni": 6854,
      "bosss": 6855,
      "choufoulna": 6856,
      "tkamel": 6857,
      "wejhou": 6858,
      "jenjon": 6859,
      "na9sin": 6860,
      "l9anet": 6861,
      "3a9li": 6862,
      "hbat": 6863,
      "t5amem": 6864,
      "lezemna": 6865,
      "nard": 6866,
      "7arb": 6867,
      "na7kiw": 6868,
      "5ayfin": 6869,
      "azma": 6870,
      "azber": 6871,
      "7kmou": 6872,
      "tay7ou": 6873,
      "abonnem": 6874,
      "3morna": 6875,
      "illage": 6876,
      "mathal": 6877,
      "mla3bia": 6878,
      "attend": 6879,
      "mo5ek": 6880,
      "francais": 6881,
      "hihihihi": 6882,
      "7yeti": 6883,
      "tneket": 6884,
      "tjrs": 6885,
      "fo9ma": 6886,
      "dimo9ra": 6887,
      "9aherhom": 6888,
      "maallem": 6889,
      "zouhair": 6890,
      "joumhou": 6891,
      "omniti": 6892,
      "ma3roufa": 6893,
      "curva": 6894,
      "3da": 6895,
      "3tou": 6896,
      "7ra": 6897,
      "7dith": 6898,
      "adem": 6899,
      "akal": 6900,
      "cun": 6901,
      "deli": 6902,
      "dok": 6903,
      "eba": 6904,
      "eet": 6905,
      "eil": 6906,
      "eji": 6907,
      "ezouz": 6908,
      "eta7ana": 6909,
      "gt": 6910,
      "hl": 6911,
      "hà": 6912,
      "hrou": 6913,
      "hbel": 6914,
      "isi": 6915,
      "izid": 6916,
      "k2": 6917,
      "kli": 6918,
      "klè": 6919,
      "l8": 6920,
      "ld": 6921,
      "lelli": 6922,
      "lham": 6923,
      "l3alem": 6924,
      "mro": 6925,
      "n9": 6926,
      "nà": 6927,
      "nja": 6928,
      "nhe": 6929,
      "nraw": 6930,
      "ole": 6931,
      "over": 6932,
      "pk": 6933,
      "sm": 6934,
      "sè": 6935,
      "she": 6936,
      "swa7": 6937,
      "spe": 6938,
      "swis": 6939,
      "s8ar": 6940,
      "tla7": 6941,
      "tkon": 6942,
      "t9ar": 6943,
      "test7a9": 6944,
      "uz": 6945,
      "wfet": 6946,
      "wzir": 6947,
      "xx": 6948,
      "yw": 6949,
      "ykh": 6950,
      "y5al": 6951,
      "zoni": 6952,
      "éya": 6953,
      "ébou": 6954,
      "énti": 6955,
      "ouled": 6956,
      "maja": 6957,
      "mait": 6958,
      "ma9al": 6959,
      "mazem": 6960,
      "maghir": 6961,
      "rate": 6962,
      "rajou": 6963,
      "rahoum": 6964,
      "lation": 6965,
      "labas": 6966,
      "el2": 6967,
      "chbihom": 6968,
      "chweya": 6969,
      "liss": 6970,
      "lillah": 6971,
      "nai": 6972,
      "naar": 6973,
      "naik": 6974,
      "tama": 6975,
      "tawel": 6976,
      "taref": 6977,
      "taire": 6978,
      "taxi": 6979,
      "3abi": 6980,
      "3afa": 6981,
      "eness": 6982,
      "ensan": 6983,
      "ennour": 6984,
      "letoil": 6985,
      "level": 6986,
      "wa7i": 6987,
      "fitna": 6988,
      "bare": 6989,
      "base": 6990,
      "batt": 6991,
      "invi": 6992,
      "etel": 6993,
      "saleh": 6994,
      "ommik": 6995,
      "esi": 6996,
      "chaba": 6997,
      "hiii": 6998,
      "kala": 6999,
      "kanou": 7000,
      "ri7a": 7001,
      "7a9i": 7002,
      "fadi": 7003,
      "emma": 7004,
      "embre": 7005,
      "hhha": 7006,
      "kii": 7007,
      "kileb": 7008,
      "lou7ichi": 7009,
      "das": 7010,
      "dadi": 7011,
      "touz": 7012,
      "alle": 7013,
      "allez": 7014,
      "ilo": 7015,
      "mouhem": 7016,
      "9af": 7017,
      "9ays": 7018,
      "bou3": 7019,
      "boutola": 7020,
      "rousna": 7021,
      "houta": 7022,
      "mila": 7023,
      "mida": 7024,
      "yeah": 7025,
      "meha": 7026,
      "mera": 7027,
      "meya": 7028,
      "5ad": 7029,
      "nez": 7030,
      "dehom": 7031,
      "depuis": 7032,
      "zai": 7033,
      "zak": 7034,
      "ismha": 7035,
      "lemra": 7036,
      "jimla": 7037,
      "wejeh": 7038,
      "thef": 7039,
      "aar": 7040,
      "dhaou": 7041,
      "rabb": 7042,
      "logi": 7043,
      "dhha": 7044,
      "dhem": 7045,
      "doura": 7046,
      "douda": 7047,
      "mink": 7048,
      "kheb": 7049,
      "jouar": 7050,
      "mart": 7051,
      "marbo": 7052,
      "khab": 7053,
      "khas": 7054,
      "khatr": 7055,
      "kharej": 7056,
      "amam": 7057,
      "wid": 7058,
      "wit": 7059,
      "wija": 7060,
      "kount": 7061,
      "yetka": 7062,
      "yarha": 7063,
      "yarbi": 7064,
      "yar7im": 7065,
      "souh": 7066,
      "souha": 7067,
      "soutek": 7068,
      "enabara": 7069,
      "mandh": 7070,
      "ghada": 7071,
      "matkha": 7072,
      "matchou": 7073,
      "hehe": 7074,
      "berek": 7075,
      "flousse": 7076,
      "3alli": 7077,
      "yoth": 7078,
      "kant": 7079,
      "sayd": 7080,
      "blabla": 7081,
      "ta7na": 7082,
      "cision": 7083,
      "kola": 7084,
      "tracha7": 7085,
      "7ou9ou": 7086,
      "9allek": 7087,
      "maslah": 7088,
      "zeyd": 7089,
      "harba": 7090,
      "soci": 7091,
      "m3lm": 7092,
      "5alit": 7093,
      "come": 7094,
      "joyeux": 7095,
      "kontou": 7096,
      "dhi3": 7097,
      "jebha": 7098,
      "mr6": 7099,
      "maaha": 7100,
      "9addech": 7101,
      "tunisian": 7102,
      "testana": 7103,
      "achref": 7104,
      "jam3e": 7105,
      "ma3ana": 7106,
      "yerhmou": 7107,
      "lkor": 7108,
      "sahla": 7109,
      "3malha": 7110,
      "mort": 7111,
      "sure": 7112,
      "tfouhhh": 7113,
      "prés": 7114,
      "t3adi": 7115,
      "aflem": 7116,
      "9a3dou": 7117,
      "8adi": 7118,
      "f9in": 7119,
      "deth": 7120,
      "yelzemha": 7121,
      "nsitou": 7122,
      "mrith": 7123,
      "debhom": 7124,
      "i7tira": 7125,
      "jandouba": 7126,
      "janvier": 7127,
      "zoz": 7128,
      "episode": 7129,
      "ntaba3": 7130,
      "mafhm": 7131,
      "hathika": 7132,
      "ma9hour": 7133,
      "3alikom": 7134,
      "dharba": 7135,
      "fahmin": 7136,
      "fooor": 7137,
      "instru": 7138,
      "e5r": 7139,
      "zero": 7140,
      "sma3t": 7141,
      "tamthil": 7142,
      "dnadik": 7143,
      "glayeb": 7144,
      "italia": 7145,
      "te9ef": 7146,
      "n9olik": 7147,
      "siyesi": 7148,
      "mamset": 7149,
      "mamstek": 7150,
      "de5el": 7151,
      "la7assa": 7152,
      "nario": 7153,
      "yassine": 7154,
      "bidoun": 7155,
      "8irou": 7156,
      "fdhi7a": 7157,
      "ghneyet": 7158,
      "qualité": 7159,
      "instagram": 7160,
      "enfants": 7161,
      "m3athebhom": 7162,
      "boutoulet": 7163,
      "5tr": 7164,
      "5rit": 7165,
      "7il": 7166,
      "7kou": 7167,
      "7low": 7168,
      "9ri": 7169,
      "9da": 7170,
      "ane": 7171,
      "ayyy": 7172,
      "amour": 7173,
      "cet": 7174,
      "cmn": 7175,
      "clib": 7176,
      "crea": 7177,
      "dkhal": 7178,
      "efa": 7179,
      "eyy": 7180,
      "fdh": 7181,
      "gek": 7182,
      "gri": 7183,
      "ihem": 7184,
      "i5ali": 7185,
      "i3inek": 7186,
      "jmé": 7187,
      "keli": 7188,
      "lmos": 7189,
      "lbeji": 7190,
      "mbrou": 7191,
      "nkha": 7192,
      "pli": 7193,
      "rgui": 7194,
      "sbe": 7195,
      "sooo": 7196,
      "sbeb": 7197,
      "s8ir": 7198,
      "tm": 7199,
      "tsayeb": 7200,
      "tfarjou": 7201,
      "wm3a": 7202,
      "zbi": 7203,
      "zmou": 7204,
      "zor": 7205,
      "çu": 7206,
      "éma": 7207,
      "éka": 7208,
      "ouel": 7209,
      "hawla": 7210,
      "maou": 7211,
      "malem": 7212,
      "maji": 7213,
      "maqu": 7214,
      "mafih": 7215,
      "massi": 7216,
      "laj": 7217,
      "lawa7": 7218,
      "latif": 7219,
      "ch3ar": 7220,
      "ligue": 7221,
      "nag": 7222,
      "nabi": 7223,
      "yasi": 7224,
      "tayah": 7225,
      "3alouch": 7226,
      "leo": 7227,
      "wara": 7228,
      "wada": 7229,
      "wass": 7230,
      "want": 7231,
      "wani3ma": 7232,
      "bahia": 7233,
      "sada": 7234,
      "sale7": 7235,
      "erriahi": 7236,
      "eryahi": 7237,
      "tie": 7238,
      "kama": 7239,
      "kadha": 7240,
      "katar": 7241,
      "kayen": 7242,
      "7ama": 7243,
      "7aba": 7244,
      "7alla": 7245,
      "7abes": 7246,
      "fai": 7247,
      "fakar": 7248,
      "faker": 7249,
      "echou": 7250,
      "loughet": 7251,
      "dama": 7252,
      "damna": 7253,
      "dant": 7254,
      "nir": 7255,
      "niko": 7256,
      "nizar": 7257,
      "moussi": 7258,
      "mouwaten": 7259,
      "9a7": 7260,
      "9ak": 7261,
      "9am": 7262,
      "tew": 7263,
      "rouhk": 7264,
      "houdi": 7265,
      "koune": 7266,
      "misel": 7267,
      "yezou": 7268,
      "brah": 7269,
      "me3alem": 7270,
      "mehich": 7271,
      "mo7": 7272,
      "moto": 7273,
      "barr": 7274,
      "beba": 7275,
      "beyen": 7276,
      "jibo": 7277,
      "belk": 7278,
      "aand": 7279,
      "zitouni": 7280,
      "ro7ik": 7281,
      "irjel": 7282,
      "lotef": 7283,
      "lo3ba": 7284,
      "dhor": 7285,
      "chib": 7286,
      "chim": 7287,
      "mark": 7288,
      "foul": 7289,
      "fouah": 7290,
      "amari": 7291,
      "3likoum": 7292,
      "youh": 7293,
      "youns": 7294,
      "akthir": 7295,
      "gerar": 7296,
      "sehla": 7297,
      "yet7a": 7298,
      "ya3m": 7299,
      "yarj3ou": 7300,
      "urgent": 7301,
      "3alamiya": 7302,
      "termet": 7303,
      "kifkif": 7304,
      "sou9": 7305,
      "lesh": 7306,
      "tawla": 7307,
      "jam3itek": 7308,
      "idin": 7309,
      "zouk": 7310,
      "kez": 7311,
      "wa7lek": 7312,
      "chayy": 7313,
      "3aleli": 7314,
      "3oum": 7315,
      "nchal": 7316,
      "blass": 7317,
      "ta7il": 7318,
      "kolek": 7319,
      "tnajam": 7320,
      "traji": 7321,
      "intidabet": 7322,
      "9offa": 7323,
      "betha": 7324,
      "7ouni": 7325,
      "mechya": 7326,
      "mechia": 7327,
      "peux": 7328,
      "mahmou": 7329,
      "sofi": 7330,
      "yestehel": 7331,
      "hekom": 7332,
      "hadhom": 7333,
      "asel": 7334,
      "m3o": 7335,
      "uut": 7336,
      "selem": 7337,
      "telhe": 7338,
      "pression": 7339,
      "compris": 7340,
      "cha3bi": 7341,
      "chwayya": 7342,
      "3ind": 7343,
      "konet": 7344,
      "houmch": 7345,
      "déf": 7346,
      "dék": 7347,
      "téch": 7348,
      "ser9": 7349,
      "effe": 7350,
      "mte3ha": 7351,
      "mte3hom": 7352,
      "5ouk": 7353,
      "béhi": 7354,
      "chedin": 7355,
      "mché": 7356,
      "9oltou": 7357,
      "tesh": 7358,
      "tesma3": 7359,
      "eeek": 7360,
      "maw9ef": 7361,
      "habt": 7362,
      "fere": 7363,
      "fer8a": 7364,
      "3maltha": 7365,
      "nharin": 7366,
      "nharet": 7367,
      "tfakrou": 7368,
      "eyh": 7369,
      "ywafa9": 7370,
      "zebla": 7371,
      "yal9a": 7372,
      "hadaka": 7373,
      "mazelet": 7374,
      "jus": 7375,
      "vers": 7376,
      "dance": 7377,
      "rayess": 7378,
      "khouh": 7379,
      "brojla": 7380,
      "8aleb": 7381,
      "f9ir": 7382,
      "3a9lia": 7383,
      "3etha": 7384,
      "borhen": 7385,
      "tehki": 7386,
      "hasbi": 7387,
      "5dma": 7388,
      "sad9": 7389,
      "mezwed": 7390,
      "aidkom": 7391,
      "janjoun": 7392,
      "okhrej": 7393,
      "privé": 7394,
      "hmdlh": 7395,
      "thou3": 7396,
      "teurs": 7397,
      "y3tik": 7398,
      "yarhamhom": 7399,
      "tayra": 7400,
      "faw9a": 7401,
      "e5ti": 7402,
      "3asma": 7403,
      "rwe7hom": 7404,
      "saied": 7405,
      "saidi": 7406,
      "entrain": 7407,
      "publique": 7408,
      "mle3bi": 7409,
      "musica": 7410,
      "musique": 7411,
      "petit": 7412,
      "projets": 7413,
      "93adna": 7414,
      "geste": 7415,
      "bhima": 7416,
      "yichfih": 7417,
      "girl": 7418,
      "tbib": 7419,
      "d5alt": 7420,
      "puisque": 7421,
      "sa9si": 7422,
      "nshallah": 7423,
      "battala": 7424,
      "kléb": 7425,
      "braaavo": 7426,
      "respecte": 7427,
      "chompi": 7428,
      "gorge": 7429,
      "félicitations": 7430,
      "original": 7431,
      "sûr": 7432,
      "faouzi": 7433,
      "3amnewel": 7434,
      "gerard": 7435,
      "1m": 7436,
      "2l": 7437,
      "3mar": 7438,
      "7ch": 7439,
      "7mo": 7440,
      "96": 7441,
      "9ba": 7442,
      "9er": 7443,
      "9lil": 7444,
      "awa": 7445,
      "ayy": 7446,
      "apres": 7447,
      "bde": 7448,
      "b3ou": 7449,
      "byy": 7450,
      "b9it": 7451,
      "dya": 7452,
      "dbou": 7453,
      "dji": 7454,
      "equi": 7455,
      "erais": 7456,
      "ezaweli": 7457,
      "fs": 7458,
      "f9ou": 7459,
      "fommek": 7460,
      "gtel": 7461,
      "golo": 7462,
      "iel": 7463,
      "i3lam": 7464,
      "kbel": 7465,
      "kbarat": 7466,
      "lbi": 7467,
      "ljam3iya": 7468,
      "m5": 7469,
      "mw": 7470,
      "meb": 7471,
      "msh": 7472,
      "pc": 7473,
      "rkhi": 7474,
      "soo": 7475,
      "spo": 7476,
      "slip": 7477,
      "t5": 7478,
      "val": 7479,
      "wbech": 7480,
      "w3ed": 7481,
      "wbarra": 7482,
      "wléd": 7483,
      "yro": 7484,
      "y5dem": 7485,
      "y9ad": 7486,
      "ykhal": 7487,
      "yzidou": 7488,
      "zil": 7489,
      "èk": 7490,
      "ouuuh": 7491,
      "ma8": 7492,
      "maek": 7493,
      "mato": 7494,
      "mazou": 7495,
      "ma5ir": 7496,
      "mana3": 7497,
      "mast": 7498,
      "ma8ir": 7499,
      "makomch": 7500,
      "raka": 7501,
      "la5": 7502,
      "lala": 7503,
      "ellah": 7504,
      "elboutoula": 7505,
      "ches": 7506,
      "chbeha": 7507,
      "lid": 7508,
      "lir": 7509,
      "ligne": 7510,
      "na7ou": 7511,
      "nant": 7512,
      "yama": 7513,
      "yata": 7514,
      "taba": 7515,
      "tarajji": 7516,
      "3ati": 7517,
      "3afat": 7518,
      "le3b": 7519,
      "wafi": 7520,
      "wafe9": 7521,
      "warina": 7522,
      "ethi": 7523,
      "etheb": 7524,
      "ettounsia": 7525,
      "sarah": 7526,
      "saib": 7527,
      "ommou": 7528,
      "tim": 7529,
      "hina": 7530,
      "ritha": 7531,
      "jam3a": 7532,
      "faj": 7533,
      "fala": 7534,
      "fassa": 7535,
      "fadhel": 7536,
      "emission": 7537,
      "kifak": 7538,
      "lahin": 7539,
      "lahom": 7540,
      "louja": 7541,
      "dif": 7542,
      "division": 7543,
      "nim": 7544,
      "rabiya": 7545,
      "9ari": 7546,
      "teek": 7547,
      "te7ou": 7548,
      "rou7a": 7549,
      "kolt": 7550,
      "kolli": 7551,
      "kollo": 7552,
      "houssem": 7553,
      "kouh": 7554,
      "kouha": 7555,
      "yecer": 7556,
      "cain": 7557,
      "meta3": 7558,
      "moda": 7559,
      "moche": 7560,
      "mo3ar": 7561,
      "5amsa": 7562,
      "ne5": 7563,
      "barbi": 7564,
      "deman": 7565,
      "zabor": 7566,
      "za3im": 7567,
      "becha": 7568,
      "jik": 7569,
      "liklem": 7570,
      "aabed": 7571,
      "to7kom": 7572,
      "ro7i": 7573,
      "7ibou": 7574,
      "weldek": 7575,
      "mino": 7576,
      "game": 7577,
      "gadefi": 7578,
      "iiin": 7579,
      "khe": 7580,
      "khin": 7581,
      "slouuu": 7582,
      "feyda": 7583,
      "khaled": 7584,
      "khayeb": 7585,
      "khatrek": 7586,
      "quer": 7587,
      "quand": 7588,
      "wina3mou": 7589,
      "wiouuu": 7590,
      "akel": 7591,
      "hona": 7592,
      "seu": 7593,
      "yetek": 7594,
      "yet3ada": 7595,
      "jeyeb": 7596,
      "9ouch": 7597,
      "ya3n": 7598,
      "ma3raf": 7599,
      "hedhe": 7600,
      "yarhamou": 7601,
      "chouka": 7602,
      "7ebo": 7603,
      "ahel": 7604,
      "kifo": 7605,
      "tekh": 7606,
      "man9olek": 7607,
      "tounesna": 7608,
      "mat3": 7609,
      "mat7ebech": 7610,
      "tarji": 7611,
      "wa7ch": 7612,
      "far8a": 7613,
      "beni": 7614,
      "meti": 7615,
      "lelhom": 7616,
      "ess7i7": 7617,
      "bladou": 7618,
      "a3leh": 7619,
      "dos": 7620,
      "koth": 7621,
      "rajell": 7622,
      "intikhabet": 7623,
      "9os": 7624,
      "9olet": 7625,
      "ghrib": 7626,
      "netha": 7627,
      "mayhem": 7628,
      "hall": 7629,
      "3adna": 7630,
      "mask": 7631,
      "mas5in": 7632,
      "ze9": 7633,
      "zeyid": 7634,
      "tet7a": 7635,
      "tet3ada": 7636,
      "ja3far": 7637,
      "lilhom": 7638,
      "la7kaya": 7639,
      "wahf": 7640,
      "wahch": 7641,
      "wahdik": 7642,
      "hadra": 7643,
      "as7ab": 7644,
      "m3ya": 7645,
      "ma7lak": 7646,
      "ma7kma": 7647,
      "sard": 7648,
      "meskine": 7649,
      "parler": 7650,
      "dinia": 7651,
      "cha3biya": 7652,
      "ejjam3ia": 7653,
      "chohra": 7654,
      "force": 7655,
      "sidhom": 7656,
      "yék": 7657,
      "darna": 7658,
      "jom3a": 7659,
      "aleha": 7660,
      "jibt": 7661,
      "bellehy": 7662,
      "prob": 7663,
      "profi": 7664,
      "ader": 7665,
      "eeel": 7666,
      "lkbir": 7667,
      "sahtek": 7668,
      "wledna": 7669,
      "kethb": 7670,
      "tfad": 7671,
      "tfaker": 7672,
      "nasm3ou": 7673,
      "mskin": 7674,
      "machari": 7675,
      "ra9btek": 7676,
      "yfadha": 7677,
      "hedhika": 7678,
      "machek": 7679,
      "porno": 7680,
      "ta7kiw": 7681,
      "fara7": 7682,
      "elkoll": 7683,
      "tla3et": 7684,
      "affa": 7685,
      "charf": 7686,
      "giba": 7687,
      "ysahel": 7688,
      "fetna": 7689,
      "yaamel": 7690,
      "ye7mi": 7691,
      "ya3tiha": 7692,
      "te7chi": 7693,
      "tfooo": 7694,
      "bountou": 7695,
      "tkt": 7696,
      "nakrhou": 7697,
      "yanfa3": 7698,
      "hors": 7699,
      "yakrah": 7700,
      "prise": 7701,
      "lezmek": 7702,
      "le7keya": 7703,
      "vues": 7704,
      "sawrou": 7705,
      "9oddem": 7706,
      "ajma3in": 7707,
      "9raya": 7708,
      "3endek": 7709,
      "a3lam": 7710,
      "klemik": 7711,
      "i7ebou": 7712,
      "dhaherli": 7713,
      "na3rfouh": 7714,
      "flow": 7715,
      "mla3biya": 7716,
      "5arjet": 7717,
      "championa": 7718,
      "first": 7719,
      "siyessi": 7720,
      "kilabou": 7721,
      "ywafkek": 7722,
      "i9ti": 7723,
      "yomken": 7724,
      "waldih": 7725,
      "tahane": 7726,
      "felicitation": 7727,
      "ghannouchi": 7728,
      "bousbi3": 7729,
      "vesti": 7730,
      "matjich": 7731,
      "traba7kom": 7732,
      "borjoliya": 7733,
      "princi": 7734,
      "raiiis": 7735,
      "esperance": 7736,
      "asifouah": 7737,
      "tbandir": 7738,
      "karoui": 7739,
      "journaliste": 7740,
      "3ejbetni": 7741,
      "tatawin": 7742,
      "engli": 7743,
      "nikelhom": 7744,
      "miboune": 7745,
      "botox": 7746,
      "tafrika": 7747,
      "maquillage": 7748,
      "gorgeous": 7749,
      "2eme": 7750,
      "3ela": 7751,
      "400": 7752,
      "93a": 7753,
      "abi": 7754,
      "aslou": 7755,
      "a5dem": 7756,
      "adhi": 7757,
      "atef": 7758,
      "aziz": 7759,
      "b2": 7760,
      "bref": 7761,
      "bdina": 7762,
      "bkolkom": 7763,
      "bdew": 7764,
      "cé": 7765,
      "eed": 7766,
      "elah": 7767,
      "e7eb": 7768,
      "echar": 7769,
      "ezebi": 7770,
      "gle": 7771,
      "grib": 7772,
      "gene": 7773,
      "hda": 7774,
      "hmek": 7775,
      "im3a": 7776,
      "ihez": 7777,
      "jbal": 7778,
      "kri": 7779,
      "khom": 7780,
      "ljam3ia": 7781,
      "mzel": 7782,
      "nkol": 7783,
      "n3i": 7784,
      "nine": 7785,
      "nkaw": 7786,
      "og": 7787,
      "omar": 7788,
      "pt": 7789,
      "pire": 7790,
      "rbe7": 7791,
      "sb": 7792,
      "sp": 7793,
      "snn": 7794,
      "tja": 7795,
      "tgha": 7796,
      "tbad": 7797,
      "tchid": 7798,
      "uel": 7799,
      "vent": 7800,
      "wta": 7801,
      "woo": 7802,
      "wja3": 7803,
      "wba3d": 7804,
      "yj": 7805,
      "ysi": 7806,
      "ytir": 7807,
      "yenta5": 7808,
      "ytraba": 7809,
      "zna": 7810,
      "zza": 7811,
      "éw": 7812,
      "élu": 7813,
      "ôt": 7814,
      "halouma": 7815,
      "hasard": 7816,
      "maman": 7817,
      "mata3ref": 7818,
      "ma3andhom": 7819,
      "rath": 7820,
      "rached": 7821,
      "ragued": 7822,
      "rapeur": 7823,
      "elba": 7824,
      "eljam3iya": 7825,
      "elbeji": 7826,
      "chr": 7827,
      "chir": 7828,
      "chbeba": 7829,
      "liby": 7830,
      "yasir": 7831,
      "tassir": 7832,
      "le5": 7833,
      "bile": 7834,
      "bient": 7835,
      "binek": 7836,
      "bayer": 7837,
      "inf": 7838,
      "saheb": 7839,
      "sakar": 7840,
      "sakrou": 7841,
      "sakker": 7842,
      "omor": 7843,
      "eseb": 7844,
      "eshih": 7845,
      "ekbes": 7846,
      "eryehi": 7847,
      "tilna": 7848,
      "hira": 7849,
      "kafa": 7850,
      "kano": 7851,
      "kamlou": 7852,
      "kader": 7853,
      "kanat": 7854,
      "silim": 7855,
      "siyé": 7856,
      "rijel": 7857,
      "riyehi": 7858,
      "jala": 7859,
      "jaze": 7860,
      "farah": 7861,
      "fans": 7862,
      "fakrou": 7863,
      "kib": 7864,
      "kile": 7865,
      "dio": 7866,
      "dica": 7867,
      "nidham": 7868,
      "touk": 7869,
      "touuu": 7870,
      "almou": 7871,
      "alllah": 7872,
      "al3eb": 7873,
      "m3ach": 7874,
      "9ais": 7875,
      "9atha": 7876,
      "9afe": 7877,
      "9adhi": 7878,
      "9ayma": 7879,
      "homm": 7880,
      "tehom": 7881,
      "te5ou": 7882,
      "houk": 7883,
      "kouni": 7884,
      "mile": 7885,
      "yeheb": 7886,
      "meak": 7887,
      "mora": 7888,
      "mowa": 7889,
      "movie": 7890,
      "5alou": 7891,
      "5atik": 7892,
      "5atro": 7893,
      "5arj": 7894,
      "neyek": 7895,
      "bared": 7896,
      "barlamen": 7897,
      "dega": 7898,
      "lemfach": 7899,
      "jibour": 7900,
      "thbou": 7901,
      "tha3": 7902,
      "thah": 7903,
      "zia": 7904,
      "rohi": 7905,
      "rable": 7906,
      "7iya": 7907,
      "weldin": 7908,
      "irya7i": 7909,
      "double": 7910,
      "minnek": 7911,
      "khyr": 7912,
      "khalil": 7913,
      "se3": 7914,
      "yeti": 7915,
      "yetrabba": 7916,
      "ma3ch": 7917,
      "nou3": 7918,
      "3aml": 7919,
      "3amha": 7920,
      "3ala9a": 7921,
      "3ala9al": 7922,
      "souch": 7923,
      "sou2el": 7924,
      "tekna": 7925,
      "man7eb": 7926,
      "bona": 7927,
      "mates": 7928,
      "hewya": 7929,
      "kebir": 7930,
      "mouchkla": 7931,
      "fargha": 7932,
      "mete": 7933,
      "trem": 7934,
      "argent": 7935,
      "yod5el": 7936,
      "dope": 7937,
      "kod": 7938,
      "tra7": 7939,
      "trak": 7940,
      "gher": 7941,
      "ghlot": 7942,
      "betbi": 7943,
      "mayhi": 7944,
      "la3rab": 7945,
      "halbled": 7946,
      "balhom": 7947,
      "3adda": 7948,
      "peu": 7949,
      "zeyda": 7950,
      "mnha": 7951,
      "tta9": 7952,
      "mahzla": 7953,
      "sod": 7954,
      "la7zeb": 7955,
      "waher": 7956,
      "jemhour": 7957,
      "hadhouma": 7958,
      "sant": 7959,
      "te3mel": 7960,
      "yiin": 7961,
      "ezz": 7962,
      "abtal": 7963,
      "3arf": 7964,
      "3arka": 7965,
      "7ogra": 7966,
      "parle": 7967,
      "dini": 7968,
      "compa": 7969,
      "cha3rek": 7970,
      "zidna": 7971,
      "3aycha": 7972,
      "3aychek": 7973,
      "retha": 7974,
      "dhil": 7975,
      "tér": 7976,
      "medi": 7977,
      "efhem": 7978,
      "klemha": 7979,
      "bless": 7980,
      "cheda": 7981,
      "n7ebo": 7982,
      "prote": 7983,
      "3idk": 7984,
      "sud": 7985,
      "we7na": 7986,
      "fhemtech": 7987,
      "raisna": 7988,
      "yeziou": 7989,
      "3omr": 7990,
      "3andouch": 7991,
      "enchalh": 7992,
      "kamlo": 7993,
      "behin": 7994,
      "rayis": 7995,
      "ra2isna": 7996,
      "jawna": 7997,
      "jawek": 7998,
      "9a3d": 7999,
      "9a3dine": 8000,
      "jeni": 8001,
      "na9ra": 8002,
      "8ani": 8003,
      "jabha": 8004,
      "yelzemhom": 8005,
      "tonis": 8006,
      "5obz": 8007,
      "nakrah": 8008,
      "andna": 8009,
      "hasra": 8010,
      "ykeb": 8011,
      "monta5ab": 8012,
      "korssi": 8013,
      "ppp": 8014,
      "chemch": 8015,
      "chofna": 8016,
      "jém": 8017,
      "jéy": 8018,
      "ne9sin": 8019,
      "najm": 8020,
      "2015": 8021,
      "yonsrik": 8022,
      "future": 8023,
      "futur": 8024,
      "slimani": 8025,
      "oskot": 8026,
      "dakni": 8027,
      "8irek": 8028,
      "chebbi": 8029,
      "l3ama": 8030,
      "rassek": 8031,
      "natija": 8032,
      "amiiin": 8033,
      "brasmi": 8034,
      "rwe7na": 8035,
      "ychfih": 8036,
      "wledi": 8037,
      "sobhan": 8038,
      "karama": 8039,
      "wadh3": 8040,
      "nidaa": 8041,
      "ta7ia": 8042,
      "7okoma": 8043,
      "9loub": 8044,
      "important": 8045,
      "maaalem": 8046,
      "tajamo3": 8047,
      "interview": 8048,
      "etofla": 8049,
      "nestanou": 8050,
      "7ayawen": 8051,
      "ya7fdhek": 8052,
      "jawebni": 8053,
      "mat5afech": 8054,
      "grinta": 8055,
      "william": 8056,
      "koursi": 8057,
      "volution": 8058,
      "fessed": 8059,
      "belehy": 8060,
      "freret": 8061,
      "simplement": 8062,
      "5asatan": 8063,
      "kawarji": 8064,
      "rwehkom": 8065,
      "feeling": 8066,
      "excell": 8067,
      "sluma": 8068,
      "effectif": 8069,
      "3à": 8070,
      "3be": 8071,
      "300": 8072,
      "44": 8073,
      "4odwa": 8074,
      "79": 8075,
      "7lel": 8076,
      "7kit": 8077,
      "79i9": 8078,
      "8ona": 8079,
      "a4": 8080,
      "aba": 8081,
      "alem": 8082,
      "atha": 8083,
      "arab": 8084,
      "b5": 8085,
      "dnc": 8086,
      "echay": 8087,
      "ejam3ya": 8088,
      "fd": 8089,
      "fma": 8090,
      "fti": 8091,
      "gooo": 8092,
      "hch": 8093,
      "hena": 8094,
      "idou": 8095,
      "ichi": 8096,
      "i9ou": 8097,
      "irajil": 8098,
      "jma": 8099,
      "jwa": 8100,
      "jmouch": 8101,
      "j3o": 8102,
      "jbali": 8103,
      "kwa": 8104,
      "lf": 8105,
      "lbo": 8106,
      "lkhir": 8107,
      "lblad": 8108,
      "lweh": 8109,
      "lyouma": 8110,
      "mni": 8111,
      "mga": 8112,
      "mhak": 8113,
      "nchof": 8114,
      "ost": 8115,
      "rwa7na": 8116,
      "sd": 8117,
      "sma": 8118,
      "stou": 8119,
      "slek": 8120,
      "tsi": 8121,
      "trabi": 8122,
      "tnech": 8123,
      "tri9": 8124,
      "t3awnou": 8125,
      "unis": 8126,
      "wd": 8127,
      "wro": 8128,
      "who": 8129,
      "wdima": 8130,
      "wlé": 8131,
      "woi": 8132,
      "wsol": 8133,
      "wsa5": 8134,
      "xis": 8135,
      "ytou": 8136,
      "ymou": 8137,
      "ydez": 8138,
      "zr": 8139,
      "zy": 8140,
      "éh": 8141,
      "ête": 8142,
      "oussama": 8143,
      "hado": 8144,
      "habes": 8145,
      "masir": 8146,
      "ra3i": 8147,
      "rakoum": 8148,
      "laire": 8149,
      "elii": 8150,
      "elkalb": 8151,
      "ch9": 8152,
      "chrib": 8153,
      "chma3neha": 8154,
      "lilah": 8155,
      "nais": 8156,
      "naja7": 8157,
      "nayik": 8158,
      "yada": 8159,
      "ya5ra": 8160,
      "tag": 8161,
      "tarou": 8162,
      "table": 8163,
      "tayeb": 8164,
      "tayech": 8165,
      "tats": 8166,
      "entou": 8167,
      "enour": 8168,
      "bitha": 8169,
      "biih": 8170,
      "birasmi": 8171,
      "wasa": 8172,
      "waslou": 8173,
      "wawla": 8174,
      "wahad": 8175,
      "wa9a3": 8176,
      "wawww": 8177,
      "bati": 8178,
      "bani": 8179,
      "bath": 8180,
      "insi": 8181,
      "etkoun": 8182,
      "etta7ana": 8183,
      "sabou": 8184,
      "same": 8185,
      "saket": 8186,
      "saïd": 8187,
      "chadi": 8188,
      "chahed": 8189,
      "tista": 8190,
      "tiste": 8191,
      "kaka": 8192,
      "kalo": 8193,
      "edin": 8194,
      "eddine": 8195,
      "rijal": 8196,
      "7adher": 8197,
      "jalou": 8198,
      "jalha": 8199,
      "jayin": 8200,
      "jahil": 8201,
      "fais": 8202,
      "emin": 8203,
      "dari": 8204,
      "dani": 8205,
      "nidha": 8206,
      "touslou": 8207,
      "olé": 8208,
      "moul": 8209,
      "moussa": 8210,
      "mousalsel": 8211,
      "9asba": 8212,
      "9a3id": 8213,
      "tefeh": 8214,
      "teee": 8215,
      "mita": 8216,
      "camera": 8217,
      "moo": 8218,
      "3idik": 8219,
      "barrou": 8220,
      "barnous": 8221,
      "deg": 8222,
      "za9": 8223,
      "isna": 8224,
      "issam": 8225,
      "thlou": 8226,
      "bell": 8227,
      "aalih": 8228,
      "thaa": 8229,
      "thala": 8230,
      "dhaya3": 8231,
      "melyar": 8232,
      "roo": 8233,
      "rose": 8234,
      "ro7o": 8235,
      "7ijeb": 8236,
      "7izb": 8237,
      "ta3ya": 8238,
      "loi": 8239,
      "lokh": 8240,
      "gass": 8241,
      "chikh": 8242,
      "chihemek": 8243,
      "oool": 8244,
      "mar7ba": 8245,
      "marzen": 8246,
      "jamil": 8247,
      "sloumaa": 8248,
      "raj3et": 8249,
      "wiou": 8250,
      "sey": 8251,
      "sehel": 8252,
      "yetha": 8253,
      "yethom": 8254,
      "ma3ej": 8255,
      "ma3nd": 8256,
      "nouna": 8257,
      "nouwa": 8258,
      "yar7a": 8259,
      "a7ssen": 8260,
      "choula": 8261,
      "pret": 8262,
      "now": 8263,
      "noir": 8264,
      "hebi": 8265,
      "heure": 8266,
      "bercha": 8267,
      "berka": 8268,
      "lebsa": 8269,
      "wlayed": 8270,
      "3alm": 8271,
      "arwa": 8272,
      "artic": 8273,
      "3oub": 8274,
      "3ouh": 8275,
      "esso": 8276,
      "mill": 8277,
      "black": 8278,
      "ba3dh": 8279,
      "ta7ou": 8280,
      "ta7et": 8281,
      "kodem": 8282,
      "tnaber": 8283,
      "trage": 8284,
      "intideb": 8285,
      "9ofa": 8286,
      "betkom": 8287,
      "netfli": 8288,
      "mayel": 8289,
      "waldeek": 8290,
      "masma3": 8291,
      "masra7i": 8292,
      "zef": 8293,
      "zeur": 8294,
      "tetkalem": 8295,
      "mnech": 8296,
      "harb": 8297,
      "mahleh": 8298,
      "thiz": 8299,
      "wahkom": 8300,
      "jem3i": 8301,
      "ya7chi": 8302,
      "7a9na": 8303,
      "dinek": 8304,
      "comenta": 8305,
      "coun": 8306,
      "ejjam3iya": 8307,
      "guel": 8308,
      "inchaalah": 8309,
      "maaneha": 8310,
      "klemk": 8311,
      "bleu": 8312,
      "bés": 8313,
      "koulna": 8314,
      "bint": 8315,
      "ynawer": 8316,
      "ta7ane": 8317,
      "warri": 8318,
      "propo": 8319,
      "nék": 8320,
      "fehmin": 8321,
      "sebssi": 8322,
      "yer7am": 8323,
      "bnaya": 8324,
      "yenja7": 8325,
      "salm": 8326,
      "sallem": 8327,
      "wlhh": 8328,
      "badr": 8329,
      "godd": 8330,
      "t7b": 8331,
      "fr7ou": 8332,
      "yalli": 8333,
      "yalzem": 8334,
      "hadak": 8335,
      "machala": 8336,
      "a9reb": 8337,
      "machya": 8338,
      "thebti": 8339,
      "nhebo": 8340,
      "ibn": 8341,
      "duo": 8342,
      "hétha": 8343,
      "rjelha": 8344,
      "edio": 8345,
      "khil": 8346,
      "khiiit": 8347,
      "char3": 8348,
      "siyassi": 8349,
      "majd": 8350,
      "buz": 8351,
      "buteur": 8352,
      "msaken": 8353,
      "a5ta": 8354,
      "a5bar": 8355,
      "samsoum": 8356,
      "fekret": 8357,
      "yabka": 8358,
      "ghirek": 8359,
      "t5arej": 8360,
      "lezemha": 8361,
      "awle": 8362,
      "tefha": 8363,
      "montage": 8364,
      "bhama": 8365,
      "beauté": 8366,
      "hadika": 8367,
      "yakrhou": 8368,
      "normalment": 8369,
      "na7nou": 8370,
      "rjoulia": 8371,
      "siassa": 8372,
      "cha5s": 8373,
      "solution": 8374,
      "tlawej": 8375,
      "chekh": 8376,
      "leeek": 8377,
      "las3ad": 8378,
      "3endi": 8379,
      "3endou": 8380,
      "adidas": 8381,
      "class": 8382,
      "mentalité": 8383,
      "7orra": 8384,
      "sma3na": 8385,
      "sma3tha": 8386,
      "lazmek": 8387,
      "klemi": 8388,
      "raabi": 8389,
      "kedeb": 8390,
      "sym": 8391,
      "algeri": 8392,
      "7achetna": 8393,
      "mimtou": 8394,
      "mimtak": 8395,
      "wledha": 8396,
      "recrutment": 8397,
      "yehdikom": 8398,
      "mata3rfou": 8399,
      "to5roj": 8400,
      "3ayeltek": 8401,
      "2008": 8402,
      "333": 8403,
      "ywaf9ik": 8404,
      "mkach5in": 8405,
      "dzl": 8406,
      "3aaar": 8407,
      "bakitni": 8408,
      "rwa7hom": 8409,
      "linti5abet": 8410,
      "nkamlou": 8411,
      "hlouwa": 8412,
      "mté3": 8413,
      "yonsorna": 8414,
      "titrouet": 8415,
      "nshalah": 8416,
      "chkun": 8417,
      "battal": 8418,
      "ro7ha": 8419,
      "fond": 8420,
      "farhanin": 8421,
      "histoire": 8422,
      "octo": 8423,
      "m3alllem": 8424,
      "mojrem": 8425,
      "nokta": 8426,
      "perience": 8427,
      "mathlouthi": 8428,
      "ramadan": 8429,
      "ma3andich": 8430,
      "titrowet": 8431,
      "victoire": 8432,
      "ndhifa": 8433,
      "m3aaalem": 8434,
      "sbitar": 8435,
      "professionnel": 8436,
      "buscher": 8437,
      "nshlh": 8438,
      "mouzika": 8439,
      "premier": 8440,
      "responsa": 8441,
      "marbo7a": 8442,
      "mbrouk": 8443,
      "affaires": 8444,
      "netflix": 8445,
      "1er": 8446,
      "27": 8447,
      "39": 8448,
      "3rou": 8449,
      "3jeb": 8450,
      "5e": 8451,
      "5ol": 8452,
      "5ef": 8453,
      "7ja": 8454,
      "7lib": 8455,
      "7eta": 8456,
      "8ne": 8457,
      "8ira": 8458,
      "8riba": 8459,
      "93": 8460,
      "9dima": 8461,
      "amer": 8462,
      "a5ra": 8463,
      "amor": 8464,
      "amis": 8465,
      "b7o": 8466,
      "bdé": 8467,
      "cré": 8468,
      "dyar": 8469,
      "dyoun": 8470,
      "eeb": 8471,
      "fomou": 8472,
      "iw": 8473,
      "ied": 8474,
      "ikha": 8475,
      "ibarek": 8476,
      "jmi3": 8477,
      "kena": 8478,
      "l4": 8479,
      "lmar": 8480,
      "lber": 8481,
      "lgh": 8482,
      "l3ada": 8483,
      "lfilm": 8484,
      "l3a9ba": 8485,
      "mlah": 8486,
      "mlé": 8487,
      "nf": 8488,
      "nj": 8489,
      "nssi": 8490,
      "nseb": 8491,
      "n3aw": 8492,
      "n7ab": 8493,
      "oy": 8494,
      "oba": 8495,
      "owel": 8496,
      "pis": 8497,
      "rch": 8498,
      "rmi": 8499,
      "rwe": 8500,
      "rbo": 8501,
      "rfo": 8502,
      "r5is": 8503,
      "sra": 8504,
      "swa": 8505,
      "sbé": 8506,
      "séri": 8507,
      "slaf": 8508,
      "syesa": 8509,
      "tfi9": 8510,
      "t7ar": 8511,
      "tghani": 8512,
      "vedio": 8513,
      "wnchala": 8514,
      "xa": 8515,
      "ytna": 8516,
      "yraj3ou": 8517,
      "ydhaher": 8518,
      "ydour": 8519,
      "ytab3ou": 8520,
      "ène": 8521,
      "hassi": 8522,
      "hatt": 8523,
      "hathom": 8524,
      "maki": 8525,
      "mate": 8526,
      "masar": 8527,
      "ma9ol": 8528,
      "mamsa": 8529,
      "ma7ach": 8530,
      "radh": 8531,
      "raaak": 8532,
      "lani": 8533,
      "la5bar": 8534,
      "elkha": 8535,
      "chra": 8536,
      "chfama": 8537,
      "lii": 8538,
      "lite": 8539,
      "naja": 8540,
      "nawer": 8541,
      "nayak": 8542,
      "yam3alem": 8543,
      "enheb": 8544,
      "leme": 8545,
      "barik": 8546,
      "etelha": 8547,
      "et7in": 8548,
      "sayara": 8549,
      "sa3d": 8550,
      "sari9": 8551,
      "este": 8552,
      "erou": 8553,
      "erhab": 8554,
      "errais": 8555,
      "chadou": 8556,
      "chadin": 8557,
      "ti3": 8558,
      "hida": 8559,
      "katha": 8560,
      "kayet": 8561,
      "kalib": 8562,
      "sidik": 8563,
      "riye7i": 8564,
      "7af": 8565,
      "fana": 8566,
      "faux": 8567,
      "fakir": 8568,
      "fassed": 8569,
      "façon": 8570,
      "emte3": 8571,
      "kis": 8572,
      "lahwa": 8573,
      "dii": 8574,
      "dicta": 8575,
      "dawer": 8576,
      "touu": 8577,
      "toujour": 8578,
      "touuur": 8579,
      "olya": 8580,
      "m3adech": 8581,
      "iltou": 8582,
      "mou3a": 8583,
      "mouhamed": 8584,
      "moudareb": 8585,
      "repon": 8586,
      "homlek": 8587,
      "tefah": 8588,
      "rouli": 8589,
      "mi7": 8590,
      "mizel": 8591,
      "milia": 8592,
      "yema": 8593,
      "yeee": 8594,
      "cam": 8595,
      "brahim": 8596,
      "voti": 8597,
      "voil": 8598,
      "mosa": 8599,
      "mo7a": 8600,
      "mode": 8601,
      "mooo": 8602,
      "modareb": 8603,
      "5araj": 8604,
      "5ayel": 8605,
      "5ayen": 8606,
      "5arya": 8607,
      "3iii": 8608,
      "menech": 8609,
      "belah": 8610,
      "bera7": 8611,
      "betawfi9": 8612,
      "lemkach5a": 8613,
      "jina": 8614,
      "we3a": 8615,
      "thra": 8616,
      "belf": 8617,
      "belg": 8618,
      "belha": 8619,
      "likleb": 8620,
      "aandou": 8621,
      "thawadi": 8622,
      "tod5ol": 8623,
      "bechwaya": 8624,
      "7i7a": 8625,
      "7iii": 8626,
      "wele": 8627,
      "dhrab": 8628,
      "galeb": 8629,
      "chiya": 8630,
      "lunet": 8631,
      "jouli": 8632,
      "marti": 8633,
      "marhba": 8634,
      "anne": 8635,
      "fous": 8636,
      "khayef": 8637,
      "khayba": 8638,
      "rajli": 8639,
      "entiel": 8640,
      "amara": 8641,
      "quement": 8642,
      "lhe": 8643,
      "3bd": 8644,
      "aktar": 8645,
      "clube": 8646,
      "ma3n": 8647,
      "ma3né": 8648,
      "nouv": 8649,
      "nouslou": 8650,
      "nouveau": 8651,
      "hedh": 8652,
      "3alamin": 8653,
      "terma": 8654,
      "riadh": 8655,
      "riadhi": 8656,
      "fils": 8657,
      "filna": 8658,
      "souissi": 8659,
      "demi": 8660,
      "demo": 8661,
      "tekel": 8662,
      "tekdhbou": 8663,
      "tawal": 8664,
      "manfou": 8665,
      "jam3ietna": 8666,
      "mal9a": 8667,
      "mabrouuk": 8668,
      "matna": 8669,
      "hezeb": 8670,
      "heyla": 8671,
      "wa7di": 8672,
      "fark": 8673,
      "far7an": 8674,
      "bene": 8675,
      "mett": 8676,
      "okkk": 8677,
      "arret": 8678,
      "léfri9i": 8679,
      "sayes": 8680,
      "blanc": 8681,
      "ba3th": 8682,
      "ta7kou": 8683,
      "ta7nou": 8684,
      "na3n": 8685,
      "na3rf": 8686,
      "doi": 8687,
      "brabiii": 8688,
      "tnajm": 8689,
      "trans": 8690,
      "track": 8691,
      "wenchalla": 8692,
      "auto": 8693,
      "9olik": 8694,
      "sten": 8695,
      "may7": 8696,
      "flousk": 8697,
      "masrou9": 8698,
      "rant": 8699,
      "contu": 8700,
      "contr": 8701,
      "contenu": 8702,
      "mahlak": 8703,
      "tal3a": 8704,
      "tanja7": 8705,
      "wa9fa": 8706,
      "la7dha": 8707,
      "la7dith": 8708,
      "kalbi": 8709,
      "kallik": 8710,
      "ash": 8711,
      "ya7kou": 8712,
      "sanfou": 8713,
      "te3ba": 8714,
      "hakek": 8715,
      "3arfa": 8716,
      "rejel": 8717,
      "parce": 8718,
      "stage": 8719,
      "5al9": 8720,
      "mochek": 8721,
      "guys": 8722,
      "rawlou": 8723,
      "joh": 8724,
      "joeur": 8725,
      "3inou": 8726,
      "désol": 8727,
      "5ouf": 8728,
      "5outh": 8729,
      "binzart": 8730,
      "pourtant": 8731,
      "ma3alem": 8732,
      "mawthou3": 8733,
      "sal7": 8734,
      "habs": 8735,
      "bader": 8736,
      "yehdina": 8737,
      "yehmik": 8738,
      "kethba": 8739,
      "yechfiha": 8740,
      "t7es": 8741,
      "t7ine": 8742,
      "t7éb": 8743,
      "ywafe9": 8744,
      "zebyy": 8745,
      "yal3ib": 8746,
      "machaallah": 8747,
      "machalla": 8748,
      "yfadhal": 8749,
      "yjiw": 8750,
      "da5let": 8751,
      "blèd": 8752,
      "lyri": 8753,
      "sonia": 8754,
      "ayamet": 8755,
      "khidma": 8756,
      "galya": 8757,
      "3akes": 8758,
      "e3ti": 8759,
      "siyasiya": 8760,
      "majech": 8761,
      "majless": 8762,
      "bank": 8763,
      "sam7ouni": 8764,
      "stia": 8765,
      "3ebra": 8766,
      "moslmin": 8767,
      "t5adem": 8768,
      "ellement": 8769,
      "yostrek": 8770,
      "experience": 8771,
      "jbouch": 8772,
      "masala7": 8773,
      "yasla7": 8774,
      "7kayat": 8775,
      "n7b": 8776,
      "n7bou": 8777,
      "9atlou": 8778,
      "wehna": 8779,
      "barnamij": 8780,
      "pleur": 8781,
      "ne9es": 8782,
      "5alliw": 8783,
      "echabeb": 8784,
      "2016": 8785,
      "féha": 8786,
      "mezelou": 8787,
      "mezelet": 8788,
      "jard": 8789,
      "wnti": 8790,
      "lbs": 8791,
      "tbarkala": 8792,
      "a3tih": 8793,
      "nchoufouk": 8794,
      "plzzz": 8795,
      "fiiik": 8796,
      "trio": 8797,
      "merite": 8798,
      "yo5roj": 8799,
      "lteli": 8800,
      "saique": 8801,
      "mimtek": 8802,
      "mathabina": 8803,
      "petrol": 8804,
      "atten": 8805,
      "nikomek": 8806,
      "wadh7a": 8807,
      "7ajja": 8808,
      "mkch": 8809,
      "3ajla": 8810,
      "arrière": 8811,
      "fthaya7": 8812,
      "njibo": 8813,
      "raj3lna": 8814,
      "5rajt": 8815,
      "kedhba": 8816,
      "géné": 8817,
      "7yati": 8818,
      "7awlou": 8819,
      "scé": 8820,
      "legend": 8821,
      "chleka": 8822,
      "yberek": 8823,
      "mrakba": 8824,
      "4alia": 8825,
      "suppor": 8826,
      "nwaliw": 8827,
      "tnajjem": 8828,
      "essebsi": 8829,
      "choukran": 8830,
      "chba3na": 8831,
      "ayoub": 8832,
      "kidhb": 8833,
      "islami": 8834,
      "kbiir": 8835,
      "mseken": 8836,
      "always": 8837,
      "prochain": 8838,
      "politici": 8839,
      "logique": 8840,
      "jouaret": 8841,
      "jusqu": 8842,
      "slouuuma": 8843,
      "article": 8844,
      "2k": 8845,
      "35": 8846,
      "3tak": 8847,
      "3jab": 8848,
      "48": 8849,
      "5fou": 8850,
      "7er": 8851,
      "7eja": 8852,
      "7leybi": 8853,
      "8ou": 8854,
      "9il": 8855,
      "9sou": 8856,
      "9rit": 8857,
      "9ray": 8858,
      "9weya": 8859,
      "ahad": 8860,
      "a3likom": 8861,
      "act": 8862,
      "a3liha": 8863,
      "amouna": 8864,
      "axe": 8865,
      "bd": 8866,
      "b7a": 8867,
      "bll": 8868,
      "blk": 8869,
      "cin": 8870,
      "fè": 8871,
      "gour": 8872,
      "ht": 8873,
      "hlik": 8874,
      "ifar": 8875,
      "imout": 8876,
      "i3awen": 8877,
      "kt": 8878,
      "ku": 8879,
      "kdheb": 8880,
      "kbiii": 8881,
      "lki": 8882,
      "lslim": 8883,
      "lsou": 8884,
      "lwali": 8885,
      "lhak": 8886,
      "l7o": 8887,
      "ltounis": 8888,
      "lfehri": 8889,
      "l7al9a": 8890,
      "m9": 8891,
      "mest7a9": 8892,
      "nb": 8893,
      "nde": 8894,
      "nkar": 8895,
      "nsal": 8896,
      "ngoul": 8897,
      "nmoutou": 8898,
      "pha": 8899,
      "pff": 8900,
      "proud": 8901,
      "rba": 8902,
      "rchid": 8903,
      "sho": 8904,
      "sci": 8905,
      "tlo": 8906,
      "tsay": 8907,
      "t7o": 8908,
      "thoum": 8909,
      "t3ab": 8910,
      "tlab": 8911,
      "t3awed": 8912,
      "t9oli": 8913,
      "utes": 8914,
      "véri": 8915,
      "w3la": 8916,
      "went": 8917,
      "wbara": 8918,
      "wess": 8919,
      "whowa": 8920,
      "yde": 8921,
      "ymchi": 8922,
      "yti7": 8923,
      "ysa7a7": 8924,
      "y3ichou": 8925,
      "zma": 8926,
      "zon": 8927,
      "zal": 8928,
      "zkom": 8929,
      "éta": 8930,
      "ére": 8931,
      "éme": 8932,
      "équi": 8933,
      "hai": 8934,
      "halou": 8935,
      "habou": 8936,
      "halik": 8937,
      "hawel": 8938,
      "hatem": 8939,
      "maba": 8940,
      "marit": 8941,
      "raes": 8942,
      "ramo": 8943,
      "radhi": 8944,
      "lawej": 8945,
      "layam": 8946,
      "el7o": 8947,
      "elleh": 8948,
      "chon": 8949,
      "chni": 8950,
      "chil": 8951,
      "chbeb": 8952,
      "nada": 8953,
      "nami": 8954,
      "nage": 8955,
      "nala3bou": 8956,
      "yaya": 8957,
      "yasta": 8958,
      "ya5ou": 8959,
      "tabi": 8960,
      "tada": 8961,
      "ta9a": 8962,
      "ta3i": 8963,
      "tagh": 8964,
      "takel": 8965,
      "taram": 8966,
      "ta5ou": 8967,
      "taraf": 8968,
      "tabarka": 8969,
      "talab": 8970,
      "3aya": 8971,
      "3adou": 8972,
      "3abir": 8973,
      "enia": 8974,
      "englais": 8975,
      "leem": 8976,
      "leflouss": 8977,
      "biz": 8978,
      "bima": 8979,
      "bizar": 8980,
      "bidaya": 8981,
      "wassi": 8982,
      "fihhh": 8983,
      "fi3l": 8984,
      "babou": 8985,
      "back": 8986,
      "etwansa": 8987,
      "sabat": 8988,
      "sa3at": 8989,
      "esti": 8990,
      "eslim": 8991,
      "chaque": 8992,
      "hizb": 8993,
      "kaaa": 8994,
      "kazi": 8995,
      "kadh": 8996,
      "ka3ed": 8997,
      "kaad": 8998,
      "kadeb": 8999,
      "eder": 9000,
      "edana": 9001,
      "siesa": 9002,
      "ridha": 9003,
      "7asa": 9004,
      "7awla": 9005,
      "7ayel": 9006,
      "7atit": 9007,
      "7assilou": 9008,
      "fa9o": 9009,
      "fadit": 9010,
      "dib": 9011,
      "diman": 9012,
      "diff": 9013,
      "da2": 9014,
      "daba": 9015,
      "dami": 9016,
      "toucha": 9017,
      "touhom": 9018,
      "touche": 9019,
      "toulna": 9020,
      "rabi3": 9021,
      "ily": 9022,
      "mou2": 9023,
      "reha": 9024,
      "9ass": 9025,
      "9ata3": 9026,
      "9atel": 9027,
      "boukom": 9028,
      "kolle": 9029,
      "kolchay": 9030,
      "houh": 9031,
      "koule": 9032,
      "year": 9033,
      "kome": 9034,
      "cara": 9035,
      "braby": 9036,
      "vois": 9037,
      "voleur": 9038,
      "ssine": 9039,
      "moss": 9040,
      "mosal": 9041,
      "mosaique": 9042,
      "5am": 9043,
      "5ayer": 9044,
      "menzel": 9045,
      "neur": 9046,
      "zad": 9047,
      "zana": 9048,
      "zaki": 9049,
      "bej": 9050,
      "be7na": 9051,
      "ored": 9052,
      "jitna": 9053,
      "wejeb": 9054,
      "thech": 9055,
      "belha9": 9056,
      "aali": 9057,
      "aaleh": 9058,
      "thara": 9059,
      "thahra": 9060,
      "thabhom": 9061,
      "nestanna": 9062,
      "dhak": 9063,
      "tod5el": 9064,
      "melk": 9065,
      "melle5er": 9066,
      "ros": 9067,
      "roho": 9068,
      "7iss": 9069,
      "wellah": 9070,
      "douni": 9071,
      "pala": 9072,
      "papara": 9073,
      "pablo": 9074,
      "galia": 9075,
      "chih": 9076,
      "chi3ar": 9077,
      "khyy": 9078,
      "mardh": 9079,
      "martek": 9080,
      "jamhour": 9081,
      "khair": 9082,
      "enti5a": 9083,
      "qué": 9084,
      "3anda": 9085,
      "yout": 9086,
      "younsi": 9087,
      "hobi": 9088,
      "holek": 9089,
      "seh": 9090,
      "sew": 9091,
      "seyeb": 9092,
      "yetla3": 9093,
      "9id": 9094,
      "9im": 9095,
      "9i9i": 9096,
      "ya3rf": 9097,
      "ma3ek": 9098,
      "ma3netha": 9099,
      "3amek": 9100,
      "yarhim": 9101,
      "sousse": 9102,
      "manti": 9103,
      "jam3iyya": 9104,
      "mabrouka": 9105,
      "ssam": 9106,
      "ssara": 9107,
      "bomaye": 9108,
      "ghana": 9109,
      "noss": 9110,
      "keen": 9111,
      "tarmek": 9112,
      "tarred": 9113,
      "bonheur": 9114,
      "wa7dk": 9115,
      "5irr": 9116,
      "5irlek": 9117,
      "winha": 9118,
      "bentou": 9119,
      "bennour": 9120,
      "metna": 9121,
      "ardh": 9122,
      "che7": 9123,
      "mero": 9124,
      "hamha": 9125,
      "sayidi": 9126,
      "ta7en": 9127,
      "na3en": 9128,
      "na3mil": 9129,
      "doh": 9130,
      "domaine": 9131,
      "mta3k": 9132,
      "tnaket": 9133,
      "ghla": 9134,
      "mechin": 9135,
      "mechekel": 9136,
      "3adel": 9137,
      "flouso": 9138,
      "zeh": 9139,
      "confir": 9140,
      "congratu": 9141,
      "mahboula": 9142,
      "amra": 9143,
      "amri": 9144,
      "lilkom": 9145,
      "tansa": 9146,
      "sof": 9147,
      "sora9": 9148,
      "wahr": 9149,
      "kalma": 9150,
      "kalmo": 9151,
      "besif": 9152,
      "tounés": 9153,
      "selouma": 9154,
      "rahmou": 9155,
      "ding": 9156,
      "ejdida": 9157,
      "mochk": 9158,
      "raw7ou": 9159,
      "joli": 9160,
      "jebna": 9161,
      "wertani": 9162,
      "werteni": 9163,
      "serie": 9164,
      "maaal": 9165,
      "bienvenu": 9166,
      "cheded": 9167,
      "rasha": 9168,
      "fore": 9169,
      "ynabrou": 9170,
      "ma3ah": 9171,
      "yerba7": 9172,
      "yer7mou": 9173,
      "yer7em": 9174,
      "eeh": 9175,
      "jdide": 9176,
      "twahach": 9177,
      "keteb": 9178,
      "wraha": 9179,
      "ba3dhou": 9180,
      "3os": 9181,
      "brvo": 9182,
      "zebou": 9183,
      "atrous": 9184,
      "hanna": 9185,
      "da5l": 9186,
      "hahahahahaha": 9187,
      "tasla7": 9188,
      "tsawir": 9189,
      "ta3melha": 9190,
      "5edmou": 9191,
      "bahri": 9192,
      "wé7": 9193,
      "khit": 9194,
      "perdu": 9195,
      "t3alem": 9196,
      "tjibelna": 9197,
      "ykawrou": 9198,
      "garna": 9199,
      "samsara": 9200,
      "3a9leya": 9201,
      "te7seb": 9202,
      "rappeur": 9203,
      "attaque": 9204,
      "dislikes": 9205,
      "3lch": 9206,
      "andhom": 9207,
      "tefhmou": 9208,
      "masab": 9209,
      "okhti": 9210,
      "marioul": 9211,
      "choftou": 9212,
      "9atl": 9213,
      "sorre9": 9214,
      "torbia": 9215,
      "sil3a": 9216,
      "barnamaj": 9217,
      "avis": 9218,
      "prime": 9219,
      "najmouch": 9220,
      "3aliha": 9221,
      "milliar": 9222,
      "hathouma": 9223,
      "dharbou": 9224,
      "n7ebouha": 9225,
      "yar7emha": 9226,
      "tayba": 9227,
      "drapeau": 9228,
      "9arwi": 9229,
      "nosbrou": 9230,
      "yonss": 9231,
      "madama": 9232,
      "wlidi": 9233,
      "ya5rou": 9234,
      "ya5raw": 9235,
      "tal9ah": 9236,
      "yo5rjou": 9237,
      "mimti": 9238,
      "ychedha": 9239,
      "official": 9240,
      "source": 9241,
      "n9olou": 9242,
      "mademek": 9243,
      "ghoura": 9244,
      "nida2": 9245,
      "ndouch": 9246,
      "ye5dim": 9247,
      "hajja": 9248,
      "bayou3a": 9249,
      "b3adhha": 9250,
      "yachfiha": 9251,
      "arriere": 9252,
      "annaba": 9253,
      "koool": 9254,
      "b3athha": 9255,
      "etoili": 9256,
      "rhout": 9257,
      "b3adhom": 9258,
      "t9oum": 9259,
      "tnekna": 9260,
      "notlob": 9261,
      "recher": 9262,
      "4alta": 9263,
      "enahda": 9264,
      "nestanaw": 9265,
      "rjalha": 9266,
      "fibelou": 9267,
      "n7ibou": 9268,
      "partage": 9269,
      "5ebra": 9270,
      "milliards": 9271,
      "adheka": 9272,
      "iwaf9ik": 9273,
      "romdhan": 9274,
      "tkarkira": 9275,
      "3affat": 9276,
      "yzidek": 9277,
      "abdelli": 9278,
      "ta5ralou": 9279,
      "khlifi": 9280,
      "yara7mo": 9281,
      "mabroook": 9282,
      "9orbi": 9283,
      "regarde": 9284,
      "9adekch": 9285,
      "lbera7": 9286,
      "mou3ardha": 9287,
      "sa9ih": 9288,
      "tijani": 9289,
      "3awatef": 9290,
      "america": 9291,
      "thi9etna": 9292,
      "ka3bet": 9293,
      "kresi": 9294,
      "yekhdmou": 9295,
      "sportif": 9296,
      "bal3out": 9297,
      "cmntr": 9298,
      "english": 9299,
      "excellent": 9300,
      "octobre": 9301,
      "voilà": 9302,
      "lyrics": 9303,
      "2ou": 9304,
      "2en": 9305,
      "3tek": 9306,
      "3taw": 9307,
      "3ef": 9308,
      "3loulou": 9309,
      "54": 9310,
      "5bou": 9311,
      "5thi": 9312,
      "9dou": 9313,
      "9sir": 9314,
      "97ba": 9315,
      "9rouda": 9316,
      "ao": 9317,
      "ahi": 9318,
      "alou": 9319,
      "anes": 9320,
      "age": 9321,
      "afar": 9322,
      "a3bed": 9323,
      "blek": 9324,
      "bhal": 9325,
      "bhar": 9326,
      "brek": 9327,
      "bsa7": 9328,
      "bedh": 9329,
      "book": 9330,
      "brima": 9331,
      "dkom": 9332,
      "dhir": 9333,
      "e5i": 9334,
      "ejey": 9335,
      "ffar": 9336,
      "gid": 9337,
      "hki": 9338,
      "ieb": 9339,
      "ichou": 9340,
      "im3": 9341,
      "i3adi": 9342,
      "idir": 9343,
      "isaber": 9344,
      "ihanikom": 9345,
      "jbel": 9346,
      "lch": 9347,
      "lsen": 9348,
      "lbarra": 9349,
      "l7am": 9350,
      "lclip": 9351,
      "lkelma": 9352,
      "lenti5abet": 9353,
      "mba": 9354,
      "mme": 9355,
      "mnou": 9356,
      "nfar": 9357,
      "nraj3ou": 9358,
      "ori": 9359,
      "oki": 9360,
      "ople": 9361,
      "pid": 9362,
      "qou": 9363,
      "rw": 9364,
      "s3a": 9365,
      "swe": 9366,
      "shay": 9367,
      "tlem": 9368,
      "t9al": 9369,
      "t3ay": 9370,
      "tlha": 9371,
      "tbah": 9372,
      "tedh": 9373,
      "tsayer": 9374,
      "ws": 9375,
      "wsi": 9376,
      "wyet": 9377,
      "wtet": 9378,
      "wchouf": 9379,
      "wsayeb": 9380,
      "wnty": 9381,
      "ytha": 9382,
      "yjou": 9383,
      "y7o": 9384,
      "yenta": 9385,
      "yhab": 9386,
      "y2a": 9387,
      "yhib": 9388,
      "ygoul": 9389,
      "zmen": 9390,
      "élé": 9391,
      "œur": 9392,
      "hasa": 9393,
      "hade": 9394,
      "haram": 9395,
      "hadher": 9396,
      "hazina": 9397,
      "madi": 9398,
      "made": 9399,
      "ma5i": 9400,
      "mafiha": 9401,
      "mabin": 9402,
      "ma3amlou": 9403,
      "maye3": 9404,
      "rati": 9405,
      "rane": 9406,
      "rakh": 9407,
      "ramadha": 9408,
      "lach": 9409,
      "eltou": 9410,
      "el3am": 9411,
      "elko": 9412,
      "elmarzouki": 9413,
      "elghalya": 9414,
      "chech": 9415,
      "chne": 9416,
      "chmouch": 9417,
      "liclub": 9418,
      "lioum": 9419,
      "tao": 9420,
      "tatou": 9421,
      "tasta": 9422,
      "tabe3": 9423,
      "3asi": 9424,
      "3adha": 9425,
      "3azi": 9426,
      "enfi": 9427,
      "entoma": 9428,
      "entoum": 9429,
      "leka": 9430,
      "letou": 9431,
      "lemou": 9432,
      "bi7": 9433,
      "bika": 9434,
      "bilah": 9435,
      "bitou": 9436,
      "waha": 9437,
      "wajdi": 9438,
      "wassil": 9439,
      "wadha3": 9440,
      "fif": 9441,
      "finou": 9442,
      "bakou": 9443,
      "bachoula": 9444,
      "saki": 9445,
      "saff": 9446,
      "sava": 9447,
      "sabit": 9448,
      "sa9et": 9449,
      "same7": 9450,
      "saiid": 9451,
      "omet": 9452,
      "ommok": 9453,
      "esmek": 9454,
      "eke": 9455,
      "ekoun": 9456,
      "erre": 9457,
      "eri3": 9458,
      "tilha": 9459,
      "ti5dim": 9460,
      "hijeb": 9461,
      "kasser": 9462,
      "edou": 9463,
      "sie": 9464,
      "rio": 9465,
      "7aaa": 9466,
      "7atin": 9467,
      "jaou": 9468,
      "jame": 9469,
      "jaaa": 9470,
      "jaben": 9471,
      "jareb": 9472,
      "faaa": 9473,
      "fakh": 9474,
      "fayda": 9475,
      "faute": 9476,
      "kili": 9477,
      "kill": 9478,
      "eby": 9479,
      "eben": 9480,
      "louta": 9481,
      "daz": 9482,
      "daoui": 9483,
      "dakhal": 9484,
      "niik": 9485,
      "nitham": 9486,
      "alka": 9487,
      "allha": 9488,
      "aller": 9489,
      "m3amel": 9490,
      "m3aaal": 9491,
      "mou3": 9492,
      "mousel": 9493,
      "moubarak": 9494,
      "9asa": 9495,
      "9ada": 9496,
      "bou9": 9497,
      "tee": 9498,
      "roub": 9499,
      "houlou": 9500,
      "miha": 9501,
      "mith": 9502,
      "mitha": 9503,
      "yeek": 9504,
      "cash": 9505,
      "bra7": 9506,
      "voter": 9507,
      "menah": 9508,
      "more": 9509,
      "mofida": 9510,
      "5awla": 9511,
      "3icho": 9512,
      "menes": 9513,
      "nena": 9514,
      "neta": 9515,
      "neheb": 9516,
      "ne5dem": 9517,
      "ne7na": 9518,
      "dela": 9519,
      "zara": 9520,
      "zabou": 9521,
      "zatla": 9522,
      "zayd": 9523,
      "isou": 9524,
      "ista": 9525,
      "istra": 9526,
      "bey": 9527,
      "beul": 9528,
      "thes": 9529,
      "thki": 9530,
      "thniya": 9531,
      "thabel": 9532,
      "thabli": 9533,
      "dhalem": 9534,
      "dhahar": 9535,
      "dhamir": 9536,
      "tog": 9537,
      "toth": 9538,
      "to7t": 9539,
      "melha": 9540,
      "melek": 9541,
      "kenit": 9542,
      "rohk": 9543,
      "7iit": 9544,
      "ta3bir": 9545,
      "lof": 9546,
      "los": 9547,
      "dhrou": 9548,
      "douz": 9549,
      "doula": 9550,
      "doulou": 9551,
      "doussi": 9552,
      "pac": 9553,
      "pages": 9554,
      "minna": 9555,
      "minnou": 9556,
      "gabi": 9557,
      "gadi": 9558,
      "chiii": 9559,
      "iiir": 9560,
      "jouh": 9561,
      "elibi": 9562,
      "mardi": 9563,
      "marrat": 9564,
      "khalina": 9565,
      "amane": 9566,
      "3lihoum": 9567,
      "quence": 9568,
      "youth": 9569,
      "wi7": 9570,
      "hoi": 9571,
      "yeth": 9572,
      "yetkom": 9573,
      "jej": 9574,
      "jela": 9575,
      "jeel": 9576,
      "jehel": 9577,
      "9oum": 9578,
      "hedhouma": 9579,
      "3alamia": 9580,
      "a7wel": 9581,
      "a7zab": 9582,
      "ahlo": 9583,
      "kifha": 9584,
      "fille": 9585,
      "fihem": 9586,
      "tekch": 9587,
      "lestine": 9588,
      "mans": 9589,
      "manque": 9590,
      "manzah": 9591,
      "its": 9592,
      "zouni": 9593,
      "matnajem": 9594,
      "bered": 9595,
      "berjelha": 9596,
      "nistana": 9597,
      "tarem": 9598,
      "lebhim": 9599,
      "okra": 9600,
      "oker": 9601,
      "vice": 9602,
      "hamra": 9603,
      "hammami": 9604,
      "yokh": 9605,
      "yokhrej": 9606,
      "sayéb": 9607,
      "alif": 9608,
      "ba3louch": 9609,
      "ta7chou": 9610,
      "cial": 9611,
      "dona": 9612,
      "mta3e": 9613,
      "hebouch": 9614,
      "tnahi": 9615,
      "tnabrou": 9616,
      "train": 9617,
      "cha3bek": 9618,
      "9o7eb": 9619,
      "bett": 9620,
      "betou": 9621,
      "betbi3a": 9622,
      "7our": 9623,
      "rakk": 9624,
      "la3zouza": 9625,
      "halna": 9626,
      "mone": 9627,
      "3addi": 9628,
      "people": 9629,
      "mash": 9630,
      "maso": 9631,
      "maser": 9632,
      "mnine": 9633,
      "harbou": 9634,
      "hethy": 9635,
      "mahri": 9636,
      "amem": 9637,
      "tanfa3": 9638,
      "walito": 9639,
      "wa9tach": 9640,
      "sobha": 9641,
      "heke": 9642,
      "hawya": 9643,
      "tahhan": 9644,
      "sanfor": 9645,
      "ab3ath": 9646,
      "m33": 9647,
      "oila": 9648,
      "uun": 9649,
      "lly": 9650,
      "alahou": 9651,
      "ma7laha": 9652,
      "kel3ada": 9653,
      "klamou": 9654,
      "sellimi": 9655,
      "yedi": 9656,
      "mestir": 9657,
      "ramz": 9658,
      "tel9a": 9659,
      "telbes": 9660,
      "telhé": 9661,
      "telhelna": 9662,
      "makchouf": 9663,
      "maktoub": 9664,
      "staff": 9665,
      "média": 9666,
      "mérite": 9667,
      "couleur": 9668,
      "rreb": 9669,
      "karma": 9670,
      "kartha": 9671,
      "karwi": 9672,
      "kartouch": 9673,
      "gues": 9674,
      "guir": 9675,
      "inchallh": 9676,
      "000dt": 9677,
      "chwaia": 9678,
      "jower": 9679,
      "3indi": 9680,
      "3inina": 9681,
      "3inih": 9682,
      "serek": 9683,
      "dawlaaa": 9684,
      "yé5i": 9685,
      "9adma": 9686,
      "5aterhom": 9687,
      "béb": 9688,
      "chedha": 9689,
      "koulha": 9690,
      "jomho": 9691,
      "presiden": 9692,
      "ynajim": 9693,
      "ninta5": 9694,
      "ador": 9695,
      "maw9": 9696,
      "wlhhh": 9697,
      "habtet": 9698,
      "twasel": 9699,
      "godwa": 9700,
      "mortha": 9701,
      "sui": 9702,
      "mskina": 9703,
      "yezikom": 9704,
      "sahah": 9705,
      "hadaf": 9706,
      "keml": 9707,
      "haythem": 9708,
      "yjich": 9709,
      "hanni": 9710,
      "deniya": 9711,
      "blè": 9712,
      "yrine": 9713,
      "héthi": 9714,
      "finale": 9715,
      "khire": 9716,
      "ykamel": 9717,
      "danya": 9718,
      "rét": 9719,
      "7asb": 9720,
      "feth": 9721,
      "yaatek": 9722,
      "ssement": 9723,
      "majhoud": 9724,
      "sinn": 9725,
      "ta9ef": 9726,
      "awelhom": 9727,
      "wa9teli": 9728,
      "yabta": 9729,
      "ye7mik": 9730,
      "loos": 9731,
      "woujoud": 9732,
      "shit": 9733,
      "moslem": 9734,
      "5obza": 9735,
      "nsi7a": 9736,
      "exac": 9737,
[...]
